{
  "version": "1.0",
  "truncation": null,
  "padding": null,
  "added_tokens": [
    {
      "id": 0,
      "content": "<|endoftext|>",
      "single_word": false,
      "lstrip": false,
      "rstrip": false,
      "normalized": false,
      "special": true
    }
  ],
  "normalizer": null,
  "pre_tokenizer": {
    "type": "ByteLevel",
    "add_prefix_space": false,
    "trim_offsets": true,
    "use_regex": true
  },
  "post_processor": null,
  "decoder": {
    "type": "ByteLevel",
    "add_prefix_space": true,
    "trim_offsets": true,
    "use_regex": true
  },
  "model": {
    "type": "BPE",
    "dropout": null,
    "unk_token": null,
    "continuing_subword_prefix": null,
    "end_of_word_suffix": null,
    "fuse_unk": false,
    "byte_fallback": false,
    "ignore_merges": false,
    "vocab": {
      "<|endoftext|>": 0,
      "!": 1,
      "\"": 2,
      "#": 3,
      "$": 4,
      "%": 5,
      "&": 6,
      "'": 7,
      "(": 8,
      ")": 9,
      "*": 10,
      "+": 11,
      ",": 12,
      "-": 13,
      ".": 14,
      "/": 15,
      "0": 16,
      "1": 17,
      "2": 18,
      "3": 19,
      "4": 20,
      "5": 21,
      "6": 22,
      "7": 23,
      "8": 24,
      "9": 25,
      ":": 26,
      ";": 27,
      "<": 28,
      "=": 29,
      ">": 30,
      "?": 31,
      "@": 32,
      "A": 33,
      "B": 34,
      "C": 35,
      "D": 36,
      "E": 37,
      "F": 38,
      "G": 39,
      "H": 40,
      "I": 41,
      "J": 42,
      "K": 43,
      "L": 44,
      "M": 45,
      "N": 46,
      "O": 47,
      "P": 48,
      "Q": 49,
      "R": 50,
      "S": 51,
      "T": 52,
      "U": 53,
      "V": 54,
      "W": 55,
      "X": 56,
      "Y": 57,
      "Z": 58,
      "[": 59,
      "\\": 60,
      "]": 61,
      "^": 62,
      "_": 63,
      "`": 64,
      "a": 65,
      "b": 66,
      "c": 67,
      "d": 68,
      "e": 69,
      "f": 70,
      "g": 71,
      "h": 72,
      "i": 73,
      "j": 74,
      "k": 75,
      "l": 76,
      "m": 77,
      "n": 78,
      "o": 79,
      "p": 80,
      "q": 81,
      "r": 82,
      "s": 83,
      "t": 84,
      "u": 85,
      "v": 86,
      "w": 87,
      "x": 88,
      "y": 89,
      "z": 90,
      "{": 91,
      "|": 92,
      "}": 93,
      "~": 94,
      "¡": 95,
      "¢": 96,
      "£": 97,
      "¤": 98,
      "¥": 99,
      "¦": 100,
      "§": 101,
      "¨": 102,
      "©": 103,
      "ª": 104,
      "«": 105,
      "¬": 106,
      "®": 107,
      "¯": 108,
      "°": 109,
      "±": 110,
      "²": 111,
      "³": 112,
      "´": 113,
      "µ": 114,
      "¶": 115,
      "·": 116,
      "¸": 117,
      "¹": 118,
      "º": 119,
      "»": 120,
      "¼": 121,
      "½": 122,
      "¾": 123,
      "¿": 124,
      "À": 125,
      "Á": 126,
      "Â": 127,
      "Ã": 128,
      "Ä": 129,
      "Å": 130,
      "Æ": 131,
      "Ç": 132,
      "È": 133,
      "É": 134,
      "Ê": 135,
      "Ë": 136,
      "Ì": 137,
      "Í": 138,
      "Î": 139,
      "Ï": 140,
      "Ð": 141,
      "Ñ": 142,
      "Ò": 143,
      "Ó": 144,
      "Ô": 145,
      "Õ": 146,
      "Ö": 147,
      "×": 148,
      "Ø": 149,
      "Ù": 150,
      "Ú": 151,
      "Û": 152,
      "Ü": 153,
      "Ý": 154,
      "Þ": 155,
      "ß": 156,
      "à": 157,
      "á": 158,
      "â": 159,
      "ã": 160,
      "ä": 161,
      "å": 162,
      "æ": 163,
      "ç": 164,
      "è": 165,
      "é": 166,
      "ê": 167,
      "ë": 168,
      "ì": 169,
      "í": 170,
      "î": 171,
      "ï": 172,
      "ð": 173,
      "ñ": 174,
      "ò": 175,
      "ó": 176,
      "ô": 177,
      "õ": 178,
      "ö": 179,
      "÷": 180,
      "ø": 181,
      "ù": 182,
      "ú": 183,
      "û": 184,
      "ü": 185,
      "ý": 186,
      "þ": 187,
      "ÿ": 188,
      "Ā": 189,
      "ā": 190,
      "Ă": 191,
      "ă": 192,
      "Ą": 193,
      "ą": 194,
      "Ć": 195,
      "ć": 196,
      "Ĉ": 197,
      "ĉ": 198,
      "Ċ": 199,
      "ċ": 200,
      "Č": 201,
      "č": 202,
      "Ď": 203,
      "ď": 204,
      "Đ": 205,
      "đ": 206,
      "Ē": 207,
      "ē": 208,
      "Ĕ": 209,
      "ĕ": 210,
      "Ė": 211,
      "ė": 212,
      "Ę": 213,
      "ę": 214,
      "Ě": 215,
      "ě": 216,
      "Ĝ": 217,
      "ĝ": 218,
      "Ğ": 219,
      "ğ": 220,
      "Ġ": 221,
      "ġ": 222,
      "Ģ": 223,
      "ģ": 224,
      "Ĥ": 225,
      "ĥ": 226,
      "Ħ": 227,
      "ħ": 228,
      "Ĩ": 229,
      "ĩ": 230,
      "Ī": 231,
      "ī": 232,
      "Ĭ": 233,
      "ĭ": 234,
      "Į": 235,
      "į": 236,
      "İ": 237,
      "ı": 238,
      "Ĳ": 239,
      "ĳ": 240,
      "Ĵ": 241,
      "ĵ": 242,
      "Ķ": 243,
      "ķ": 244,
      "ĸ": 245,
      "Ĺ": 246,
      "ĺ": 247,
      "Ļ": 248,
      "ļ": 249,
      "Ľ": 250,
      "ľ": 251,
      "Ŀ": 252,
      "ŀ": 253,
      "Ł": 254,
      "ł": 255,
      "Ń": 256,
      "te": 257,
      "in": 258,
      "en": 259,
      "Ġs": 260,
      "ou": 261,
      "Ġa": 262,
      "Ġt": 263,
      "er": 264,
      "Ġb": 265,
      "of": 266,
      "Ġf": 267,
      "ta": 268,
      "re": 269,
      "is": 270,
      "Ġd": 271,
      "on": 272,
      "ing": 273,
      "Ġw": 274,
      "end": 275,
      "Ġc": 276,
      "ofte": 277,
      "xt": 278,
      "<|": 279,
      "|>": 280,
      "endofte": 281,
      "endoftext": 282,
      "gh": 283,
      "nd": 284,
      "or": 285,
      "our": 286,
      "he": 287,
      "ti": 288,
      "ough": 289,
      "Ġto": 290,
      "es": 291,
      "ter": 292,
      "Ġand": 293,
      "Ġp": 294,
      "Ġm": 295,
      "ss": 296,
      "nt": 297,
      "at": 298,
      "le": 299,
      "Ġthe": 300,
      "Us": 301,
      "Ġin": 302,
      "tant": 303,
      "it": 304,
      "ssis": 305,
      "ssistant": 306,
      "Ġh": 307,
      "ro": 308,
      ".<|": 309,
      "Assistant": 310,
      "User": 311,
      "ed": 312,
      "ar": 313,
      "ak": 314,
      "ly": 315,
      "Ġl": 316,
      "an": 317,
      "tion": 318,
      "al": 319,
      "ourd": 320,
      "ourdough": 321,
      "as": 322,
      "ow": 323,
      "ol": 324,
      "ic": 325,
      "Ġsourdough": 326,
      "Ġu": 327,
      "Ġg": 328,
      "ra": 329,
      "Ġ1": 330,
      "Ġdough": 331,
      "Ġfl": 332,
      "id": 333,
      "Ġfor": 334,
      "ĠI": 335,
      "tar": 336,
      "Ġbak": 337,
      "ith": 338,
      "Â°": 339,
      "Ġo": 340,
      "Ġwith": 341,
      "el": 342,
      "Ġis": 343,
      "ad": 344,
      "ru": 345,
      "Ġor": 346,
      "ac": 347,
      "Ġ2": 348,
      "Ġre": 349,
      "Ġflour": 350,
      "Ġstar": 351,
      "ul": 352,
      "ent": 353,
      "Ġe": 354,
      "il": 355,
      "ĠW": 356,
      "ch": 357,
      "et": 358,
      "Ġwh": 359,
      "Ġ(": 360,
      "st": 361,
      "Ġy": 362,
      "Ġov": 363,
      "Ġth": 364,
      "ater": 365,
      "old": 366,
      "erm": 367,
      "ate": 368,
      "ot": 369,
      "ute": 370,
      "Ġstarter": 371,
      "Ġdo": 372,
      "to": 373,
      "Ġr": 374,
      "Ġwater": 375,
      "Ġsh": 376,
      "se": 377,
      "Ġof": 378,
      "enta": 379,
      "ur": 380,
      "Ġon": 381,
      "ĠWh": 382,
      "read": 383,
      "ap": 384,
      "Ġcru": 385,
      "ĠH": 386,
      "mp": 387,
      "Ġte": 388,
      "ĠA": 389,
      "igh": 390,
      "Ġpro": 391,
      "ure": 392,
      "ve": 393,
      "Ġbread": 394,
      "Ġac": 395,
      "Ġbaking": 396,
      "qu": 397,
      "ĠT": 398,
      "Ġst": 399,
      "tic": 400,
      "Ġ3": 401,
      "ermenta": 402,
      "Ġ10": 403,
      "Ġit": 404,
      "im": 405,
      "Ġcon": 406,
      "ermentation": 407,
      "am": 408,
      "Ġgl": 409,
      "Ġlo": 410,
      "Ġco": 411,
      "eed": 412,
      "ĠD": 413,
      "Ġle": 414,
      "ĠF": 415,
      "uten": 416,
      "Ġgluten": 417,
      "Ġsp": 418,
      "Ġoven": 419,
      "ain": 420,
      "ĠS": 421,
      "ĠHow": 422,
      "Ġat": 423,
      "Ġ20": 424,
      "ast": 425,
      "Ġan": 426,
      "ard": 427,
      "ri": 428,
      "Ġn": 429,
      "ut": 430,
      "Ġun": 431,
      "av": 432,
      "Ġste": 433,
      "Ġmy": 434,
      "ight": 435,
      "ir": 436,
      "ore": 437,
      "um": 438,
      "Ġ5": 439,
      "af": 440,
      "ĠC": 441,
      "Ġro": 442,
      "Ġcrust": 443,
      "Ġad": 444,
      "out": 445,
      "ide": 446,
      "Ġbe": 447,
      "si": 448,
      "Ġfermentation": 449,
      "ge": 450,
      "yd": 451,
      "ydra": 452,
      "and": 453,
      "Ġde": 454,
      "Ġex": 455,
      "ĠP": 456,
      "Ġbake": 457,
      "Ġ4": 458,
      "ĠWhat": 459,
      "nder": 460,
      "ver": 461,
      "Ġby": 462,
      "Ġhydra": 463,
      "ck": 464,
      "Ġinto": 465,
      "mb": 466,
      "Ġover": 467,
      "Ġshap": 468,
      "les": 469,
      "Ġmin": 470,
      "ff": 471,
      "Ġyour": 472,
      "erat": 473,
      "Ġi": 474,
      "Ġra": 475,
      "ke": 476,
      "Ġunder": 477,
      "Ġhydration": 478,
      "Ġloaf": 479,
      "ice": 480,
      "ep": 481,
      "Ġqu": 482,
      "Ġal": 483,
      "Ġtemp": 484,
      "heat": 485,
      "Ġli": 486,
      "Ġuse": 487,
      "ĠB": 488,
      "Ġsl": 489,
      "Ġdi": 490,
      "ct": 491,
      "Ġhour": 492,
      "Ġpre": 493,
      "Ġcold": 494,
      "rom": 495,
      "ulk": 496,
      "Ġv": 497,
      "Ġwe": 498,
      "Ġdis": 499,
      "utes": 500,
      "Ġfrom": 501,
      "ild": 502,
      "uring": 503,
      "Ġcrumb": 504,
      "Ġbu": 505,
      "),": 506,
      "Ġcan": 507,
      "ong": 508,
      "Ġris": 509,
      "ip": 510,
      "oul": 511,
      "ble": 512,
      "east": 513,
      "Ġen": 514,
      "Ġminutes": 515,
      "ould": 516,
      "ay": 517,
      "Ġsteam": 518,
      "ix": 519,
      "Ġ8": 520,
      "erature": 521,
      "all": 522,
      "Ġbulk": 523,
      "Ġduring": 524,
      "Ġ7": 525,
      "Ġtemperature": 526,
      "Ġsu": 527,
      "au": 528,
      "Ġwhen": 529,
      "Ġlev": 530,
      "ĠM": 531,
      "Ġfold": 532,
      "Ġyeast": 533,
      "Ġpan": 534,
      "Ġper": 535,
      "Ġins": 536,
      "ring": 537,
      "alt": 538,
      "pp": 539,
      "Ġ50": 540,
      "tain": 541,
      "ase": 542,
      "red": 543,
      "Ġbl": 544,
      "om": 545,
      "til": 546,
      "Ġdoes": 547,
      "Ġ100": 548,
      "estion": 549,
      "Ġquestion": 550,
      "fore": 551,
      "Ġhours": 552,
      "ation": 553,
      "ole": 554,
      "Ġlevain": 555,
      "tal": 556,
      "ace": 557,
      "Ġsc": 558,
      "Ġshould": 559,
      "ia": 560,
      "ted": 561,
      "ĠWhy": 562,
      "Ġsm": 563,
      "uc": 564,
      "Ġbefore": 565,
      "Ġse": 566,
      "Ġ30": 567,
      "ye": 568,
      "Ġacid": 569,
      "ack": 570,
      "Ġadv": 571,
      "Ġ6": 572,
      "Ġwithout": 573,
      "bles": 574,
      "Ġthat": 575,
      "Ġuntil": 576,
      "arm": 577,
      "Ġspring": 578,
      "Ġmix": 579,
      "sion": 580,
      "iz": 581,
      "Ġk": 582,
      "Ġrise": 583,
      "Ġbot": 584,
      "ĠCan": 585,
      "Ġhand": 586,
      "ine": 587,
      "card": 588,
      "ath": 589,
      "ated": 590,
      "ĠUs": 591,
      "Ġj": 592,
      "ile": 593,
      "Ġab": 594,
      "Ġwarm": 595,
      "Ġshaping": 596,
      "tch": 597,
      "Ġstr": 598,
      "Ġrec": 599,
      "tard": 600,
      "Ġlike": 601,
      "ĠTh": 602,
      "od": 603,
      "Ġhe": 604,
      "Ġrye": 605,
      "ake": 606,
      "Ġsta": 607,
      "tick": 608,
      "Ġbaker": 609,
      "ĠFor": 610,
      "ient": 611,
      "mple": 612,
      "Ġhigh": 613,
      "Ġstick": 614,
      "pen": 615,
      "Ġperc": 616,
      "rou": 617,
      "ĠR": 618,
      "Ġsalt": 619,
      "Ġme": 620,
      "ich": 621,
      "Ġfeed": 622,
      "tom": 623,
      "Ġpar": 624,
      "Ġcau": 625,
      "Ġyou": 626,
      "ĠIn": 627,
      "Ġbottom": 628,
      "Ġwhole": 629,
      "Ġpercenta": 630,
      "Ġsur": 631,
      "oot": 632,
      "ell": 633,
      "row": 634,
      "sh": 635,
      "ates": 636,
      "Ġall": 637,
      "ist": 638,
      "ten": 639,
      "Ġtra": 640,
      "Ġus": 641,
      "Ġadvice": 642,
      "ays": 643,
      "Ġ9": 644,
      "own": 645,
      "ess": 646,
      "Ġweight": 647,
      "duc": 648,
      "Ġcontain": 649,
      "Ġhow": 650,
      "ity": 651,
      "ts": 652,
      "med": 653,
      "up": 654,
      "Ġfir": 655,
      "'s": 656,
      "Ġexp": 657,
      "oc": 658,
      "Ġsti": 659,
      "Ġup": 660,
      "op": 661,
      "Ġsticky": 662,
      "Ġadd": 663,
      "Ġsteel": 664,
      "ick": 665,
      "Ġfolds": 666,
      "Ġinc": 667,
      "ally": 668,
      "we": 669,
      "Ġmo": 670,
      "Ġproof": 671,
      "ently": 672,
      "urn": 673,
      "Ġcaus": 674,
      "fter": 675,
      "Ġ12": 676,
      "one": 677,
      "Ġacti": 678,
      "ce": 679,
      "Ġtim": 680,
      "hed": 681,
      "ĠL": 682,
      "ond": 683,
      "Ġdiscard": 684,
      "ĠUse": 685,
      "Ġout": 686,
      "Ġprote": 687,
      "retch": 688,
      "Ġtotal": 689,
      "Ġsurf": 690,
      "ave": 691,
      "gg": 692,
      "Ġch": 693,
      "Ġroom": 694,
      "Ġrecip": 695,
      "Ġthen": 696,
      "Ġwet": 697,
      "Ġsk": 698,
      "ĠAn": 699,
      "Ġthan": 700,
      "Ġbuild": 701,
      "??": 702,
      "Ġfr": 703,
      "Ġnot": 704,
      "Ġlow": 705,
      "ull": 706,
      "ary": 707,
      "aking": 708,
      "Ġmain": 709,
      "Ġcre": 710,
      "Ġten": 711,
      "Ġsurface": 712,
      "acter": 713,
      "Ġblis": 714,
      "Ġwheat": 715,
      "th": 716,
      "Ġso": 717,
      "led": 718,
      "erment": 719,
      "Ġba": 720,
      "Ġbacter": 721,
      "aves": 722,
      "umm": 723,
      "ll": 724,
      "ense": 725,
      "ans": 726,
      "Ġbut": 727,
      "ting": 728,
      "Ġwhile": 729,
      "vel": 730,
      "velop": 731,
      "Ġstretch": 732,
      "gar": 733,
      "ill": 734,
      "hes": 735,
      "Ġcool": 736,
      "Ġheat": 737,
      "Ġwild": 738,
      "utch": 739,
      "vide": 740,
      "ume": 741,
      "fermentation": 742,
      "Ġhas": 743,
      "ry": 744,
      "Ġturn": 745,
      "ĠIt": 746,
      "Ġ24": 747,
      "Ġbub": 748,
      "if": 749,
      "Ġpercentage": 750,
      "Ġlong": 751,
      "avor": 752,
      "Ġform": 753,
      ").": 754,
      "gra": 755,
      "Ġshape": 756,
      "ĠThis": 757,
      "Ġtop": 758,
      "Ġrock": 759,
      "Ġjar": 760,
      "ive": 761,
      "Ġ/": 762,
      "net": 763,
      "Ġban": 764,
      "neton": 765,
      "Ġbanneton": 766,
      "Ġdense": 767,
      "ges": 768,
      "Ġseed": 769,
      "Ġref": 770,
      "Ġben": 771,
      "Ġgently": 772,
      "Ġproduc": 773,
      "ĠDutch": 774,
      "Ġke": 775,
      "Ġset": 776,
      "Ġkeep": 777,
      "Ġas": 778,
      "Ġear": 779,
      "ĠN": 780,
      "Ġdown": 781,
      "Ġoff": 782,
      "Ġdire": 783,
      "Ġsugar": 784,
      "Ġusing": 785,
      "Ġbacteria": 786,
      "ily": 787,
      "os": 788,
      "Ġbo": 789,
      "Ġexc": 790,
      "ĠMy": 791,
      "Ġtension": 792,
      "hoot": 793,
      "ment": 794,
      "Ġcup": 795,
      "bleshoot": 796,
      "roubleshoot": 797,
      "rown": 798,
      "roubleshooting": 799,
      "ne": 800,
      "uff": 801,
      "ĠE": 802,
      "ens": 803,
      "est": 804,
      "Ġhave": 805,
      "75": 806,
      "Ġflat": 807,
      "pped": 808,
      "idge": 809,
      "Ġfridge": 810,
      "Ġvol": 811,
      "mm": 812,
      "ust": 813,
      "immed": 814,
      "Ġsmell": 815,
      "Ġwhat": 816,
      "Ġdeep": 817,
      "lu": 818,
      "ĠK": 819,
      "ĠIf": 820,
      "Ġif": 821,
      "Ġfin": 822,
      "tions": 823,
      "Ġlac": 824,
      "ven": 825,
      "Ġfirst": 826,
      "Ġare": 827,
      "ately": 828,
      "Ġgas": 829,
      "ood": 830,
      "cul": 831,
      "Ġcle": 832,
      "Ġopen": 833,
      "Ġclean": 834,
      "Ġtear": 835,
      "la": 836,
      "Ġcons": 837,
      "Ġlid": 838,
      "sive": 839,
      "Ġstand": 840,
      "ins": 841,
      "ating": 842,
      "Ġru": 843,
      "ĠThe": 844,
      "Ġtime": 845,
      "rig": 846,
      "inn": 847,
      "Ġ15": 848,
      "50": 849,
      "Ġcontains": 850,
      "ever": 851,
      "Ġafter": 852,
      "Ġinch": 853,
      "Ġhands": 854,
      "Ġrefrig": 855,
      "Ġreac": 856,
      "ey": 857,
      "ĠDo": 858,
      "Ġmoist": 859,
      "Ġskin": 860,
      "Ġdirect": 861,
      "lyse": 862,
      "Ġprev": 863,
      "Ġmixing": 864,
      "Ġstiff": 865,
      "Ġbutter": 866,
      "pro": 867,
      "Ġhot": 868,
      "ides": 869,
      "not": 870,
      "ere": 871,
      "ers": 872,
      "ree": 873,
      "Ġacc": 874,
      "Ġcannot": 875,
      "Ġvolume": 876,
      "Ġlet": 877,
      "Ġrocks": 878,
      "Ġferment": 879,
      "der": 880,
      "Ġimmed": 881,
      "Ġche": 882,
      "Ġmic": 883,
      "Ġgra": 884,
      "Ġstrong": 885,
      "Ġimmedi": 886,
      "tered": 887,
      "Ġtoo": 888,
      "Ġloaves": 889,
      "ĠSourdough": 890,
      "Ġdevelop": 891,
      "iron": 892,
      "Ġtrapped": 893,
      "Ġactive": 894,
      "Ġprevent": 895,
      "Ġbet": 896,
      "oft": 897,
      "Ġoil": 898,
      "Ġslow": 899,
      "Ġcaused": 900,
      "ok": 901,
      "Ġrack": 902,
      "edic": 903,
      "Ġ90": 904,
      "Ġbrown": 905,
      "%),": 906,
      "zy": 907,
      "Ġam": 908,
      "atin": 909,
      "akes": 910,
      "Ġlar": 911,
      "elatin": 912,
      "Ġscore": 913,
      "pid": 914,
      "ric": 915,
      "ale": 916,
      "un": 917,
      "ish": 918,
      "elow": 919,
      "Ġind": 920,
      "itch": 921,
      "Ġretard": 922,
      "Ġcomple": 923,
      "Ġ40": 924,
      "ink": 925,
      "Ġgumm": 926,
      "Ġgelatin": 927,
      "Ġlactic": 928,
      "Ġflavor": 929,
      "Ġrecipe": 930,
      "lace": 931,
      "sor": 932,
      "tern": 933,
      "alcul": 934,
      "Ġabsor": 935,
      "ches": 936,
      "ented": 937,
      "Ġbelow": 938,
      "aster": 939,
      "Ġ25": 940,
      "ermented": 941,
      "Ġkn": 942,
      "Ġbatard": 943,
      "Ġgummy": 944,
      "often": 945,
      "ĠAny": 946,
      "lease": 947,
      "Ġone": 948,
      "ĠHey": 949,
      "Ġ75": 950,
      "ant": 951,
      "Ġ78": 952,
      "Ġbow": 953,
      "rease": 954,
      "ures": 955,
      "Ġbowl": 956,
      "Ġmoisture": 957,
      "Ġdirectly": 958,
      "Ġdry": 959,
      "Ġwr": 960,
      "Ġrem": 961,
      "Ġ=": 962,
      "ound": 963,
      "Ġhol": 964,
      "Ġstarters": 965,
      "Ġ80": 966,
      "ps": 967,
      "uto": 968,
      "ways": 969,
      "Ġsaf": 970,
      "Ġstone": 971,
      "etic": 972,
      "gn": 973,
      "Ġfaster": 974,
      "Ġacetic": 975,
      "utolyse": 976,
      "Ġsoft": 977,
      "Ġfat": 978,
      "Ġonly": 979,
      "Ġ85": 980,
      "Ġkitch": 981,
      "ks": 982,
      "tely": 983,
      "enter": 984,
      "Ġcenter": 985,
      "Ġimmediately": 986,
      "inter": 987,
      "Ġshe": 988,
      "Ġmake": 989,
      "Ġgre": 990,
      "Ġblistered": 991,
      "ĠO": 992,
      "tead": 993,
      "Ġmold": 994,
      "Ġno": 995,
      "Ġlower": 996,
      "Ġinstead": 997,
      "redient": 998,
      "Ġstandard": 999,
      "Ġgelatiniz": 1000,
      "Ġfood": 1001,
      "%,": 1002,
      "Ġiron": 1003,
      "Ġel": 1004,
      "eng": 1005,
      "ark": 1006,
      "ĠTe": 1007,
      "Ġbec": 1008,
      "Ġquick": 1009,
      "Ġweak": 1010,
      "Ġabsorb": 1011,
      "Ġing": 1012,
      "ters": 1013,
      "Ġingredient": 1014,
      "ling": 1015,
      "per": 1016,
      "astic": 1017,
      "Ġdou": 1018,
      "Ġcast": 1019,
      "als": 1020,
      "Ġstarches": 1021,
      "ĠPre": 1022,
      "Ġrapid": 1023,
      "ĠTemp": 1024,
      "ruct": 1025,
      "Ġstruct": 1026,
      "Ġproofing": 1027,
      "Ġdri": 1028,
      "ffer": 1029,
      "grad": 1030,
      "20": 1031,
      "iti": 1032,
      "Ġbest": 1033,
      "ĠSh": 1034,
      "Ġinside": 1035,
      "Ġed": 1036,
      "allow": 1037,
      "ather": 1038,
      "ove": 1039,
      "Ġenzy": 1040,
      "Ġ65": 1041,
      "Ġenzym": 1042,
      "Ġfinal": 1043,
      "Ġeas": 1044,
      "Ġonto": 1045,
      "Ġallow": 1046,
      "ork": 1047,
      "Ġrati": 1048,
      "ween": 1049,
      "Ġbetween": 1050,
      "Ġlarge": 1051,
      "bly": 1052,
      "orm": 1053,
      "Ġpale": 1054,
      "Ġsupp": 1055,
      "ause": 1056,
      "ub": 1057,
      "Ġcl": 1058,
      "ial": 1059,
      "Ġbre": 1060,
      "Ġwinter": 1061,
      "Ġbubbles": 1062,
      "Ġbecause": 1063,
      "Ġratio": 1064,
      "eep": 1065,
      "Ġdays": 1066,
      "ĠKeep": 1067,
      "Ġequ": 1068,
      "ous": 1069,
      "ĠDis": 1070,
      "Ġspread": 1071,
      "ips": 1072,
      "Ġ500": 1073,
      "ents": 1074,
      "Ġthin": 1075,
      "Ġadding": 1076,
      "???": 1077,
      "ample": 1078,
      "erate": 1079,
      "Ġpull": 1080,
      "Ġswe": 1081,
      "Ġcr": 1082,
      "fermented": 1083,
      "Ġlight": 1084,
      "Ġrim": 1085,
      "Ġsmall": 1086,
      "Ġbench": 1087,
      "Ġsafe": 1088,
      "Ġsheet": 1089,
      "ite": 1090,
      "tan": 1091,
      "round": 1092,
      "10": 1093,
      "Ġmad": 1094,
      "icient": 1095,
      "Ġwhy": 1096,
      "Ġroll": 1097,
      "Ġbond": 1098,
      "Ġfil": 1099,
      "Ġcul": 1100,
      "sions": 1101,
      "lusions": 1102,
      "ft": 1103,
      "qui": 1104,
      "Ġany": 1105,
      "Ġcreates": 1106,
      "wich": 1107,
      "Ġsand": 1108,
      "Ġsmells": 1109,
      "Ġcris": 1110,
      "Ġsandwich": 1111,
      "Ġhold": 1112,
      "get": 1113,
      "orn": 1114,
      "Ġmore": 1115,
      "elt": 1116,
      "ĠTroubleshooting": 1117,
      "Ġfru": 1118,
      "Ġma": 1119,
      "Ġwhich": 1120,
      "Ġcond": 1121,
      "Ġcoil": 1122,
      "Ġmicro": 1123,
      "ased": 1124,
      "less": 1125,
      "Ġdark": 1126,
      "Ġmu": 1127,
      "Ġliqu": 1128,
      "Ġprotein": 1129,
      "aste": 1130,
      "erator": 1131,
      "Ġrefrigerator": 1132,
      "vides": 1133,
      "Ġol": 1134,
      "tent": 1135,
      "Ġshallow": 1136,
      "Ġprovides": 1137,
      "Ġ375": 1138,
      "very": 1139,
      "Ġimp": 1140,
      "Ġolive": 1141,
      "eat": 1142,
      "ached": 1143,
      "ĠWhen": 1144,
      "ec": 1145,
      "ool": 1146,
      "Ġautolyse": 1147,
      "ber": 1148,
      "Ġcalcul": 1149,
      "ross": 1150,
      "ula": 1151,
      "chment": 1152,
      "ĠPro": 1153,
      "Ġparchment": 1154,
      "Ġbr": 1155,
      "Ġtips": 1156,
      "Ġlam": 1157,
      "ava": 1158,
      "Ġparts": 1159,
      "Ġsugars": 1160,
      "Ġwrong": 1161,
      "ĠpH": 1162,
      "Ġeasily": 1163,
      "iqu": 1164,
      "Ġbat": 1165,
      "inner": 1166,
      "Ġmuch": 1167,
      "ock": 1168,
      "Ġsmoot": 1169,
      "Ġsmooth": 1170,
      "rans": 1171,
      "Ġassistant": 1172,
      "Ġback": 1173,
      "Ġmat": 1174,
      "Ġlava": 1175,
      "Ġbaked": 1176,
      "ĠTo": 1177,
      "ĠPlace": 1178,
      "ĠInc": 1179,
      "ise": 1180,
      "Ġwill": 1181,
      "Ġpr": 1182,
      "Ġrela": 1183,
      "Ġeven": 1184,
      "Ġfeeding": 1185,
      "Ġtin": 1186,
      "Ġtap": 1187,
      "Ġpap": 1188,
      "ĠPlease": 1189,
      "Ġhel": 1190,
      "Ġequal": 1191,
      "Ġliquid": 1192,
      "Ġpaper": 1193,
      "essive": 1194,
      "Ġmeas": 1195,
      "shap": 1196,
      "Ġingredients": 1197,
      "Ġsweet": 1198,
      "Ġsou": 1199,
      "Ġsto": 1200,
      "ress": 1201,
      "rib": 1202,
      "Ġactiv": 1203,
      "Ġcompletely": 1204,
      "Ġsoup": 1205,
      "ect": 1206,
      "gle": 1207,
      "Ġwent": 1208,
      "Ġcou": 1209,
      "Ġrest": 1210,
      "ilk": 1211,
      "Ġslack": 1212,
      "Ġscor": 1213,
      "Ġcauses": 1214,
      "ĠNever": 1215,
      "Ġkitchen": 1216,
      ").<|": 1217,
      "xim": 1218,
      "ys": 1219,
      "erated": 1220,
      "ulation": 1221,
      "ĠAl": 1222,
      "Ġprovide": 1223,
      "Ġadvise": 1224,
      "mmer": 1225,
      "lor": 1226,
      "rough": 1227,
      "ses": 1228,
      "tend": 1229,
      "Ġthrough": 1230,
      "Ġstra": 1231,
      "ĠBaking": 1232,
      "Ġrub": 1233,
      "Ġmilk": 1234,
      "Ġread": 1235,
      "Ġslic": 1236,
      "Ġinclusions": 1237,
      "Ġearly": 1238,
      "Ġtrans": 1239,
      "Ġdel": 1240,
      "Ġneed": 1241,
      "Ġ45": 1242,
      "Ġrecipes": 1243,
      "ĠDiscard": 1244,
      "DT": 1245,
      "ife": 1246,
      "Ġknife": 1247,
      "Ġend": 1248,
      "Ġcut": 1249,
      "ĠFeed": 1250,
      "Ġspeed": 1251,
      "Ġinstant": 1252,
      "Ġfirm": 1253,
      "man": 1254,
      "Ġair": 1255,
      "Ġcook": 1256,
      "Ġtearing": 1257,
      "Ġholes": 1258,
      "oid": 1259,
      "Ġsi": 1260,
      "Ġgold": 1261,
      "iling": 1262,
      "Ġspelt": 1263,
      "Ġshaped": 1264,
      "Ġmaintain": 1265,
      "Ġrapidly": 1266,
      "Ġgolden": 1267,
      "ually": 1268,
      "Ġ16": 1269,
      "Ġtest": 1270,
      "ĠAfter": 1271,
      "iant": 1272,
      "ĠUsing": 1273,
      "iel": 1274,
      "Ġ+": 1275,
      "inary": 1276,
      "Ġdeg": 1277,
      "ĠBe": 1278,
      "ield": 1279,
      "co": 1280,
      "ible": 1281,
      "Ġhard": 1282,
      "Ġinsuff": 1283,
      "oculation": 1284,
      "proof": 1285,
      "Ġinsufficient": 1286,
      "Ġsour": 1287,
      "Ġformula": 1288,
      "ĠNeed": 1289,
      "Ġscoring": 1290,
      "24": 1291,
      "por": 1292,
      "Ġtight": 1293,
      "orpor": 1294,
      "Ġrequi": 1295,
      "ĠCh": 1296,
      "Ġheav": 1297,
      "ĠAlways": 1298,
      "Ġevery": 1299,
      "Ġcont": 1300,
      "Ġhelp": 1301,
      "Ġdu": 1302,
      "Ġacross": 1303,
      "Ġaccel": 1304,
      "ternal": 1305,
      "Ġstructure": 1306,
      "Ġbonds": 1307,
      "nter": 1308,
      "sw": 1309,
      "Ġlack": 1310,
      "Ġansw": 1311,
      "Ġcounter": 1312,
      "68": 1313,
      "yl": 1314,
      "Ġda": 1315,
      "Ġhap": 1316,
      "ases": 1317,
      "ĠHand": 1318,
      "Ġpercentages": 1319,
      "Ġincrease": 1320,
      "Ġbreak": 1321,
      "Ġhappen": 1322,
      "lour": 1323,
      "mol": 1324,
      "ina": 1325,
      "act": 1326,
      "ully": 1327,
      "resh": 1328,
      "Ġflakes": 1329,
      "Ġrelax": 1330,
      "form": 1331,
      "ze": 1332,
      "ĠIs": 1333,
      "Ġ27": 1334,
      "ĠDi": 1335,
      "Ġexpand": 1336,
      "Ġgrains": 1337,
      "Ġgreased": 1338,
      "Ġedges": 1339,
      "Ġcar": 1340,
      "Ġpow": 1341,
      "Ġflo": 1342,
      "ĠWith": 1343,
      "Ġremain": 1344,
      "age": 1345,
      "ort": 1346,
      "ĠWhole": 1347,
      "Ġdegrad": 1348,
      "Ġtemperatures": 1349,
      "Ġindic": 1350,
      "Ġrubber": 1351,
      "Ġrequire": 1352,
      "able": 1353,
      "Ġice": 1354,
      "oughly": 1355,
      "Ġcontent": 1356,
      "Ġ48": 1357,
      "Ġrising": 1358,
      "Ġelastic": 1359,
      "oom": 1360,
      "ence": 1361,
      "Ġstart": 1362,
      "Ġwhite": 1363,
      "Ġround": 1364,
      "alth": 1365,
      "Ġhealth": 1366,
      "Ġturns": 1367,
      "ination": 1368,
      "Ġinter": 1369,
      "oll": 1370,
      "ading": 1371,
      "ĠShould": 1372,
      "ior": 1373,
      "night": 1374,
      "side": 1375,
      "Ġtroubleshooting": 1376,
      "Ġdid": 1377,
      "ance": 1378,
      "Ġovernight": 1379,
      "bleached": 1380,
      "Ġ70": 1381,
      "Ġ68": 1382,
      "ize": 1383,
      "ĠRye": 1384,
      "Ġbene": 1385,
      "Ġanswer": 1386,
      "Ġhappens": 1387,
      "dd": 1388,
      "ginner": 1389,
      "ies": 1390,
      "itions": 1391,
      "oly": 1392,
      "Ġacidity": 1393,
      "Ġstreng": 1394,
      "Ġtimes": 1395,
      "proofed": 1396,
      "Ġstrength": 1397,
      "ost": 1398,
      "ward": 1399,
      "ering": 1400,
      "Ġexcessive": 1401,
      "Ġbatards": 1402,
      "%.": 1403,
      "Ġfresh": 1404,
      "Ġcalculate": 1405,
      "Ġstraight": 1406,
      "nel": 1407,
      "par": 1408,
      "ving": 1409,
      "Ġtri": 1410,
      "Ġdivide": 1411,
      "ummer": 1412,
      "65": 1413,
      "gul": 1414,
      "Ġoften": 1415,
      "Ġsourd": 1416,
      "Ġdedic": 1417,
      "Ġmedic": 1418,
      "asta": 1419,
      "Ġegg": 1420,
      "Ġrice": 1421,
      "Ġbubbly": 1422,
      "Ġproducing": 1423,
      "Ġbrowning": 1424,
      "iquot": 1425,
      "Ġdedicated": 1426,
      "Ġ~": 1427,
      "heated": 1428,
      "Ġunbleached": 1429,
      "vert": 1430,
      "Ġproduces": 1431,
      "Ġboiling": 1432,
      "Ġtears": 1433,
      "Ġinterior": 1434,
      "Ġfing": 1435,
      "esi": 1436,
      "Ġph": 1437,
      "Ġshow": 1438,
      "Ġcover": 1439,
      "ffect": 1440,
      "Ġenzymes": 1441,
      "are": 1442,
      "void": 1443,
      "Ġyield": 1444,
      "Ġdomed": 1445,
      "Ġprogra": 1446,
      "Ġaliquot": 1447,
      "Ġcrisp": 1448,
      "ĠY": 1449,
      "Ġou": 1450,
      "Ġiniti": 1451,
      "Ġunderne": 1452,
      "ĠBulk": 1453,
      "Ġblisters": 1454,
      "Ġcleanly": 1455,
      "Ġmade": 1456,
      "Ġouter": 1457,
      "Ġunderneath": 1458,
      "80": 1459,
      "Ġsoften": 1460,
      "Ġfats": 1461,
      "Ġdries": 1462,
      "Ġconditions": 1463,
      "ail": 1464,
      "fer": 1465,
      "ose": 1466,
      "Ġtender": 1467,
      "utri": 1468,
      "Ġseam": 1469,
      "Ġturned": 1470,
      "Ġsuppress": 1471,
      "zor": 1472,
      "Ġtun": 1473,
      "Ġpour": 1474,
      "Ġgen": 1475,
      "acc": 1476,
      "Ġleav": 1477,
      "asting": 1478,
      "Ġroasting": 1479,
      "Ġrazor": 1480,
      "Ġens": 1481,
      "Ġbran": 1482,
      "Ġtunnel": 1483,
      "26": 1484,
      "ie": 1485,
      "sid": 1486,
      "inder": 1487,
      "Ġits": 1488,
      "Ġsign": 1489,
      "Ġinitial": 1490,
      "19": 1491,
      "tly": 1492,
      "Ġaffect": 1493,
      "Ġpl": 1494,
      "anks": 1495,
      "ictly": 1496,
      "ĠFlour": 1497,
      "Ġstrictly": 1498,
      "ĠThanks": 1499,
      "Ġincorpor": 1500,
      "Ġspeeds": 1501,
      "Ġheavy": 1502,
      "190": 1503,
      "line": 1504,
      "und": 1505,
      "Ġfoc": 1506,
      "Ġabove": 1507,
      "Ġcontainer": 1508,
      "Ġbag": 1509,
      "Ġreach": 1510,
      "Ġslowly": 1511,
      "Ġide": 1512,
      "Ġbase": 1513,
      "Ġcav": 1514,
      "Ġinoculation": 1515,
      "els": 1516,
      "ĠSti": 1517,
      "Ġdiffer": 1518,
      "Ġpart": 1519,
      "Ġcreate": 1520,
      "utrients": 1521,
      "ction": 1522,
      "de": 1523,
      "Ġtake": 1524,
      "lying": 1525,
      "entos": 1526,
      "alls": 1527,
      "Ġ60": 1528,
      "Ġabund": 1529,
      "ĠLo": 1530,
      "Ġchlor": 1531,
      "ĠPreheat": 1532,
      "esired": 1533,
      "entosans": 1534,
      "Ġabundant": 1535,
      "mal": 1536,
      "ature": 1537,
      "arget": 1538,
      "Ġev": 1539,
      "illed": 1540,
      "ĠSp": 1541,
      "rix": 1542,
      "Ġgelatinized": 1543,
      "Ġspreading": 1544,
      "Ġmatrix": 1545,
      "Ġready": 1546,
      "Ġideal": 1547,
      "Ġfully": 1548,
      "ĠBake": 1549,
      "ggish": 1550,
      "sol": 1551,
      "Ġsample": 1552,
      "Ġsummer": 1553,
      "Ġdro": 1554,
      "Ġcyl": 1555,
      "Ġflours": 1556,
      "ets": 1557,
      "ome": 1558,
      "shaping": 1559,
      "Ġdaily": 1560,
      "Ġpentosans": 1561,
      "Ġinternal": 1562,
      "Ġsemol": 1563,
      "Ġevenly": 1564,
      "Ġpowder": 1565,
      "Ġrather": 1566,
      "ĠAt": 1567,
      "Ġcomp": 1568,
      "Ġrooms": 1569,
      "Ġbuilds": 1570,
      "ĠProof": 1571,
      "Ġprim": 1572,
      "accia": 1573,
      "Ġfocaccia": 1574,
      "bil": 1575,
      "ser": 1576,
      "Ġdull": 1577,
      "Ġpat": 1578,
      "Ġtherm": 1579,
      "Ġright": 1580,
      "apor": 1581,
      "Ġenough": 1582,
      "ĠMix": 1583,
      "Ġhandling": 1584,
      "ĠEx": 1585,
      "ĠIncrease": 1586,
      "Ġlacks": 1587,
      "bility": 1588,
      "aill": 1589,
      "sis": 1590,
      "Ġes": 1591,
      "Ġcub": 1592,
      "Ġpe": 1593,
      "oth": 1594,
      "Ġextend": 1595,
      "vere": 1596,
      "Ġdisc": 1597,
      "ĠMaill": 1598,
      "Ġsevere": 1599,
      "Ġreaches": 1600,
      "reeze": 1601,
      "Ġculinary": 1602,
      "ĠMaillard": 1603,
      "son": 1604,
      "Ġpack": 1605,
      "Ġmath": 1606,
      "Ġmaking": 1607,
      "cking": 1608,
      "Ġperson": 1609,
      "oche": 1610,
      "Ġtransfer": 1611,
      "Ġsw": 1612,
      "Ġroughly": 1613,
      "Ġsub": 1614,
      "Ġrectan": 1615,
      "inkorn": 1616,
      "32": 1617,
      "atic": 1618,
      "ces": 1619,
      "Ġble": 1620,
      "ght": 1621,
      "tight": 1622,
      "Ġget": 1623,
      "vection": 1624,
      "Ġdist": 1625,
      "pping": 1626,
      "tensi": 1627,
      "Ġstitch": 1628,
      "Ġairtight": 1629,
      "Ġevapor": 1630,
      "low": 1631,
      "uct": 1632,
      "tes": 1633,
      "Ġwork": 1634,
      "Ġstarch": 1635,
      "Ġext": 1636,
      "ĠFerment": 1637,
      "Ġ205": 1638,
      "Ġdouble": 1639,
      "SP": 1640,
      "mic": 1641,
      "Ġmod": 1642,
      "aken": 1643,
      "Ġ18": 1644,
      "Ġrich": 1645,
      "Ġ350": 1646,
      "Ġextensi": 1647,
      "Ġfolding": 1648,
      "Ġsec": 1649,
      "iled": 1650,
      "ĠESP": 1651,
      "Ġchemic": 1652,
      "Ġdried": 1653,
      "Ġfloat": 1654,
      "Ġrubbery": 1655,
      "bl": 1656,
      "ern": 1657,
      "Ġfavor": 1658,
      "isters": 1659,
      "Ġmon": 1660,
      "anic": 1661,
      "ult": 1662,
      "Ġvir": 1663,
      "Ġmixed": 1664,
      "Ġcooler": 1665,
      "Ġbannetons": 1666,
      "Ġmaxim": 1667,
      "Ġpeak": 1668,
      "so": 1669,
      "us": 1670,
      "Ġorg": 1671,
      "alleng": 1672,
      "Ġbeneath": 1673,
      "Ġthermal": 1674,
      "Ġsecond": 1675,
      "allenger": 1676,
      "just": 1677,
      "min": 1678,
      "Ġ0": 1679,
      "atur": 1680,
      "Ġnatur": 1681,
      "Ġsea": 1682,
      "Ġmeans": 1683,
      "Ġseeds": 1684,
      "ockets": 1685,
      "olysis": 1686,
      "Ġeggs": 1687,
      "Ġshows": 1688,
      "Ġz": 1689,
      "tical": 1690,
      "Ġ200": 1691,
      "ries": 1692,
      "Ġbatch": 1693,
      "Ġyielding": 1694,
      "Ġsemolina": 1695,
      "Ġcubes": 1696,
      "tional": 1697,
      "Ġwhere": 1698,
      "Ġexample": 1699,
      "ĠPull": 1700,
      "Ġalso": 1701,
      "Ġslice": 1702,
      "Ġenric": 1703,
      "blisters": 1704,
      "ĠPullman": 1705,
      "Ġenriched": 1706,
      "72": 1707,
      "Qu": 1708,
      "ian": 1709,
      "igg": 1710,
      "ĠQu": 1711,
      "Ġtw": 1712,
      "Ġtaste": 1713,
      "rees": 1714,
      "imin": 1715,
      "ĠBF": 1716,
      "Ġjigg": 1717,
      "Ġbox": 1718,
      "Ġremove": 1719,
      "Ġelimin": 1720,
      "Ġmass": 1721,
      "Ġdegrees": 1722,
      "ĠBeginner": 1723,
      "ĠChallenger": 1724,
      "Ġchemicals": 1725,
      "Ġnaturally": 1726,
      "ĠQuick": 1727,
      "ura": 1728,
      "way": 1729,
      "Ġaway": 1730,
      "Ġhere": 1731,
      "ange": 1732,
      "rap": 1733,
      "ĠPer": 1734,
      "Ġcult": 1735,
      "gular": 1736,
      "Ġextra": 1737,
      "Ġmonth": 1738,
      "%).": 1739,
      "Ġaerated": 1740,
      "Ġflying": 1741,
      "let": 1742,
      "Ġrep": 1743,
      "illet": 1744,
      "ĠWater": 1745,
      "Ġconf": 1746,
      "ĠDough": 1747,
      "Ġlift": 1748,
      "Ġvi": 1749,
      "Ġquestions": 1750,
      "Ġabout": 1751,
      "Ġskillet": 1752,
      "Ġhollow": 1753,
      "hydra": 1754,
      "me": 1755,
      "ty": 1756,
      "Ġsod": 1757,
      "Ġwee": 1758,
      "mming": 1759,
      "Ġ900": 1760,
      "Ġholds": 1761,
      "Ġprogramming": 1762,
      "Ġplastic": 1763,
      "Ġmaximum": 1764,
      "Ġaround": 1765,
      "Ġcla": 1766,
      "ssic": 1767,
      "ang": 1768,
      "iction": 1769,
      "icate": 1770,
      "Ġtell": 1771,
      "Ġproble": 1772,
      "ĠDDT": 1773,
      "Ġangle": 1774,
      "Ġalways": 1775,
      "Ġsched": 1776,
      "izes": 1777,
      "Ġboth": 1778,
      "Ġbakers": 1779,
      "Ġfriction": 1780,
      "Ġdoubles": 1781,
      "Ġenzymatic": 1782,
      "Ġdelicate": 1783,
      "Ġclassic": 1784,
      "Ġproblem": 1785,
      "bon": 1786,
      "ness": 1787,
      "xy": 1788,
      "eri": 1789,
      "Ġbas": 1790,
      "Ġfermenta": 1791,
      "tire": 1792,
      "Ġwithin": 1793,
      "rum": 1794,
      "Ġreduc": 1795,
      "Ġvs": 1796,
      "Ġentire": 1797,
      "ondering": 1798,
      "nead": 1799,
      "Ġmeasures": 1800,
      "Ġcarbon": 1801,
      "Ġtwo": 1802,
      "Ġmonths": 1803,
      "ass": 1804,
      "down": 1805,
      "tle": 1806,
      "Ġtall": 1807,
      "Ġcinn": 1808,
      "tial": 1809,
      "tive": 1810,
      "Ġpor": 1811,
      "Ġplace": 1812,
      "Ġgrow": 1813,
      "eth": 1814,
      "amon": 1815,
      "Ġmetal": 1816,
      "perly": 1817,
      "Ġends": 1818,
      "Ġcinnamon": 1819,
      "ike": 1820,
      "ital": 1821,
      "like": 1822,
      "za": 1823,
      "ĠG": 1824,
      "Ġfu": 1825,
      "Ġcer": 1826,
      "Ġpiz": 1827,
      "ittle": 1828,
      "Ġblend": 1829,
      "Ġuses": 1830,
      "Ġmotions": 1831,
      "Ġproteins": 1832,
      "Ġsets": 1833,
      "Ġconsis": 1834,
      "ĠDoes": 1835,
      "100": 1836,
      "Ġ160": 1837,
      "Ġprimary": 1838,
      "Ġpizza": 1839,
      "Ġess": 1840,
      "ential": 1841,
      "eral": 1842,
      "Ġgive": 1843,
      "ulate": 1844,
      "Ġthick": 1845,
      "ĠPour": 1846,
      "Ġchees": 1847,
      "Ġrequires": 1848,
      "Ġfreshly": 1849,
      "Ġessential": 1850,
      "94": 1851,
      "cc": 1852,
      "ual": 1853,
      "Ġtru": 1854,
      "Ġcoll": 1855,
      "Ġocc": 1856,
      "elp": 1857,
      "urs": 1858,
      "ĠHelp": 1859,
      "Ġadjust": 1860,
      "Ġyeasts": 1861,
      "Ġexperi": 1862,
      "Ġoffline": 1863,
      "Ġconsume": 1864,
      "Ġmicr": 1865,
      "Ġfilled": 1866,
      "Ġfruity": 1867,
      "Ġslices": 1868,
      "ĠPerform": 1869,
      "Ġreduce": 1870,
      "Ġtrue": 1871,
      "Ġcollap": 1872,
      "Ġoccurs": 1873,
      "70": 1874,
      "pti": 1875,
      "xic": 1876,
      "Ġpink": 1877,
      "Ġrev": 1878,
      "Ġthor": 1879,
      "amic": 1880,
      "Ġleather": 1881,
      "ĠChe": 1882,
      "Ġpreheated": 1883,
      "Ġtraps": 1884,
      "gger": 1885,
      "Ġgelatinizes": 1886,
      "Ġstop": 1887,
      "Ġdurum": 1888,
      "actor": 1889,
      "Ġelasticity": 1890,
      "Ġtrigger": 1891,
      "Ġcovered": 1892,
      "Ġceramic": 1893,
      "ptimal": 1894,
      "lo": 1895,
      "oss": 1896,
      "oule": 1897,
      "Ġag": 1898,
      "Ġtigh": 1899,
      "Ġburn": 1900,
      "Ġboule": 1901,
      "Ġdra": 1902,
      "Ġtoxic": 1903,
      "Ġeinkorn": 1904,
      "Ġ35": 1905,
      "Ġloading": 1906,
      "Ġrate": 1907,
      "Ġprepar": 1908,
      "Ġpanc": 1909,
      "ĠLet": 1910,
      "Ġkeeping": 1911,
      "Ġaccura": 1912,
      "Ġrolls": 1913,
      "Ġmedical": 1914,
      "Ġrepeat": 1915,
      "Ġtighten": 1916,
      "25": 1917,
      "onutrients": 1918,
      "Ġcur": 1919,
      "Ġund": 1920,
      "Ġ14": 1921,
      "ĠCalcul": 1922,
      "Ġdec": 1923,
      "Ġdish": 1924,
      "ellow": 1925,
      "Ġstir": 1926,
      "Ġchilled": 1927,
      "Ġbuilding": 1928,
      "Ġcutting": 1929,
      "Ġfinger": 1930,
      "Ġmicronutrients": 1931,
      "Ġleathery": 1932,
      "tually": 1933,
      "Ġapp": 1934,
      "erates": 1935,
      "Ġbar": 1936,
      "Ġfe": 1937,
      "Ġgo": 1938,
      "ident": 1939,
      "Ġ72": 1940,
      "Ġsprings": 1941,
      "Ġhardens": 1942,
      "wards": 1943,
      "Ġleaving": 1944,
      "Ġcavern": 1945,
      "Ġconfident": 1946,
      "Ġsoda": 1947,
      "Ġagain": 1948,
      "Ġcavernous": 1949,
      "cial": 1950,
      "gry": 1951,
      "uggish": 1952,
      "ind": 1953,
      "Ġtaking": 1954,
      "Ġhun": 1955,
      "ract": 1956,
      "Ġfluff": 1957,
      "Ġ33": 1958,
      "amine": 1959,
      "Ġcomb": 1960,
      "Ġcommer": 1961,
      "ĠSc": 1962,
      "ĠSte": 1963,
      "Ġsluggish": 1964,
      "ĠForm": 1965,
      "antly": 1966,
      "astatic": 1967,
      "sided": 1968,
      "Ġviol": 1969,
      "Ġhungry": 1970,
      "Ġcommercial": 1971,
      "'t": 1972,
      "Room": 1973,
      "fool": 1974,
      "mature": 1975,
      "Ġ-": 1976,
      "Ġid": 1977,
      "entical": 1978,
      "Ġtang": 1979,
      "xture": 1980,
      "leases": 1981,
      "icta": 1982,
      "Ġgum": 1983,
      "Ġreleases": 1984,
      "etw": 1985,
      "Ġthis": 1986,
      "tose": 1987,
      "ural": 1988,
      "ĠHell": 1989,
      "Ġtexture": 1990,
      "ĠTarget": 1991,
      "Ġloses": 1992,
      "Ġleast": 1993,
      "ĠFric": 1994,
      "ĠFactor": 1995,
      "Ġnetw": 1996,
      "sile": 1997,
      "Ġrad": 1998,
      "Ġpress": 1999,
      "Ġpremature": 2000,
      "ĠLight": 2001,
      "Ġtensile": 2002,
      "ift": 2003,
      "Ġkitchens": 2004,
      "Ġabsorbs": 2005,
      "Ġstructural": 2006,
      "Ġmadre": 2007,
      "Ġincorporate": 2008,
      "ĠStir": 2009,
      "Ġswift": 2010,
      "Ġfermentable": 2011,
      "Ġcollapses": 2012,
      "Ġidentical": 2013,
      "ĠHello": 2014,
      "ĠFriction": 2015,
      "cient": 2016,
      "gen": 2017,
      "ening": 2018,
      "Ġstain": 2019,
      "Ġassis": 2020,
      "Ġinten": 2021,
      "Ġoxy": 2022,
      "ach": 2023,
      "ape": 2024,
      "ĠCo": 2025,
      "Ġlif": 2026,
      "Ġpreser": 2027,
      "Ġdissol": 2028,
      "Ġsurround": 2029,
      "Ġgram": 2030,
      "Ġscored": 2031,
      "ĠOn": 2032,
      "Ġallowing": 2033,
      "Ġmeasure": 2034,
      "ĠDivide": 2035,
      "ĠWithout": 2036,
      "ucts": 2037,
      "Ġvirtually": 2038,
      "Ġstainless": 2039,
      "Ġintense": 2040,
      "Ġoxygen": 2041,
      "30": 2042,
      "mo": 2043,
      "ple": 2044,
      "tro": 2045,
      "ansion": 2046,
      "icro": 2047,
      "ĠDro": 2048,
      "Ġenc": 2049,
      "ĠMicro": 2050,
      "Ġhey": 2051,
      "Ġexpansion": 2052,
      "ĠLe": 2053,
      "Ġkeeps": 2054,
      "Ġrun": 2055,
      "ĠDoing": 2056,
      "Ġdevelops": 2057,
      "ĠLoad": 2058,
      "Ġcylinder": 2059,
      "tein": 2060,
      "Ġside": 2061,
      "Ġdesired": 2062,
      "ically": 2063,
      "Ġ210": 2064,
      "etone": 2065,
      "ĠAs": 2066,
      "ĠFreeze": 2067,
      "umed": 2068,
      "Ġoverr": 2069,
      "Ġcane": 2070,
      "talian": 2071,
      "Ġ99": 2072,
      "veloped": 2073,
      "Ġconsumed": 2074,
      "protein": 2075,
      "ribute": 2076,
      "Ġassist": 2077,
      "ĠDropping": 2078,
      "aw": 2079,
      "Ġsum": 2080,
      "Ġash": 2081,
      "Ġfeat": 2082,
      "Ġmalt": 2083,
      "roxim": 2084,
      "Ġ17": 2085,
      "ĠItalian": 2086,
      "Ġ38": 2087,
      "Ġcore": 2088,
      "ĠFir": 2089,
      "Ġfinish": 2090,
      "Ġquickly": 2091,
      "Ġlamination": 2092,
      "Ġaccelerates": 2093,
      "Ġdifference": 2094,
      "Ġmode": 2095,
      "Ġbask": 2096,
      "Ġpancakes": 2097,
      "Ġapproxim": 2098,
      "ĠOnce": 2099,
      "Ġfeatures": 2100,
      "ĠFirst": 2101,
      "Ġapproximately": 2102,
      "ox": 2103,
      "uice": 2104,
      "Ġmild": 2105,
      "ĠAvoid": 2106,
      "ĠDO": 2107,
      "ĠCon": 2108,
      "Ġdiox": 2109,
      "Ġjuice": 2110,
      "Ġcloth": 2111,
      "Ġfruit": 2112,
      "Ġagainst": 2113,
      "Ġradiant": 2114,
      "Ġdioxide": 2115,
      "96": 2116,
      "ench": 2117,
      "Ġbal": 2118,
      "rem": 2119,
      "Ġman": 2120,
      "Ġhal": 2121,
      "aker": 2122,
      "ĠFr": 2123,
      "Ġ475": 2124,
      "Ġhydrate": 2125,
      "ĠBaker": 2126,
      "Ġhigher": 2127,
      "Ġweights": 2128,
      "Ġexplo": 2129,
      "Ġcools": 2130,
      "Ġchew": 2131,
      "Ġthinly": 2132,
      "ĠSpread": 2133,
      "Ġdrops": 2134,
      "Ġrectangle": 2135,
      "Ġgrowth": 2136,
      "Ġnetwork": 2137,
      "Ġprematurely": 2138,
      "Ġhalf": 2139,
      "Ġexplosive": 2140,
      "cap": 2141,
      "knead": 2142,
      "oo": 2143,
      "Ġpo": 2144,
      "Ġmuff": 2145,
      "olor": 2146,
      "Ġthir": 2147,
      "Ġacetone": 2148,
      "Ġleaves": 2149,
      "Ġnec": 2150,
      "Ġvent": 2151,
      "Ġcause": 2152,
      "essary": 2153,
      "Ġpullman": 2154,
      "ĠYou": 2155,
      "Ġescap": 2156,
      "ooch": 2157,
      "Ġmuffins": 2158,
      "Ġthird": 2159,
      "Ġnecessary": 2160,
      "og": 2161,
      "inch": 2162,
      "Ġstil": 2163,
      "onost": 2164,
      "Ġgent": 2165,
      "idd": 2166,
      "Ġrel": 2167,
      "Ġres": 2168,
      "Ġthere": 2169,
      "Ġshaken": 2170,
      "Ġspec": 2171,
      "Ġbloom": 2172,
      "uconost": 2173,
      "Ġexceed": 2174,
      "Ġfermenting": 2175,
      "Ġknow": 2176,
      "Ġbrew": 2177,
      "Ġbags": 2178,
      "Ġtransferring": 2179,
      "Ġextensible": 2180,
      "Ġfavors": 2181,
      "Ġjiggles": 2182,
      "ĠLeuconost": 2183,
      "Ġstill": 2184,
      "ĠLeuconostoc": 2185,
      "ves": 2186,
      "Ġamb": 2187,
      "Ġpockets": 2188,
      "Ġhone": 2189,
      "Ġhooch": 2190,
      "ĠHi": 2191,
      "ĠSl": 2192,
      "Ġunf": 2193,
      "Ġminim": 2194,
      "Ġconsult": 2195,
      "Ġconducts": 2196,
      "Ġpattern": 2197,
      "Ġdiscolor": 2198,
      "ĠFrench": 2199,
      "Ġhoney": 2200,
      "Ġdiscoloration": 2201,
      "ping": 2202,
      "Ġdust": 2203,
      "Ġput": 2204,
      "Ġstarts": 2205,
      "Ġemmer": 2206,
      "ĠHold": 2207,
      "ĠAutolyse": 2208,
      "ĠFDT": 2209,
      "Ġnut": 2210,
      "Ġ450": 2211,
      "Ġbuffer": 2212,
      "Ġperform": 2213,
      "Ġbacterial": 2214,
      "Ġlonger": 2215,
      "Ġexclu": 2216,
      "sively": 2217,
      "ributes": 2218,
      "Ġactivity": 2219,
      "Ġactivating": 2220,
      "Ġsoupy": 2221,
      "Ġsubs": 2222,
      "Ġdoubled": 2223,
      "hydration": 2224,
      "Ġbalance": 2225,
      "Ġexclusively": 2226,
      "78": 2227,
      "Ġgu": 2228,
      "Ġ26": 2229,
      "apple": 2230,
      "Ġrises": 2231,
      "ineapple": 2232,
      "Ġoutside": 2233,
      "Ġrefrigerated": 2234,
      "Ġlame": 2235,
      "shape": 2236,
      "Ġstore": 2237,
      "ĠExtend": 2238,
      "ĠCoil": 2239,
      "Ġthirds": 2240,
      "gile": 2241,
      "luc": 2242,
      "pur": 2243,
      "pose": 2244,
      "Ġfra": 2245,
      "Ġpineapple": 2246,
      "educ": 2247,
      "Ġdoughs": 2248,
      "Ġoiled": 2249,
      "ĠAP": 2250,
      "Ġsee": 2251,
      "ĠReduc": 2252,
      "Ġfilm": 2253,
      "Ġtransluc": 2254,
      "ĠYeast": 2255,
      "Ġorganic": 2256,
      "Ġoverride": 2257,
      "ĠSlide": 2258,
      "purpose": 2259,
      "Ġfragile": 2260,
      "ĠReduce": 2261,
      "Ġtranslucent": 2262,
      "ns": 2263,
      "pl": 2264,
      "rt": 2265,
      "Ġavoid": 2266,
      "Ġart": 2267,
      "Ġbri": 2268,
      "Ġfool": 2269,
      "ĠIts": 2270,
      "Ġconven": 2271,
      "Ġleft": 2272,
      "ĠHowever": 2273,
      "Ġbetter": 2274,
      "Ġdegraded": 2275,
      "ĠChecking": 2276,
      "Ġbrioche": 2277,
      "Ġconventional": 2278,
      "Ġfermented": 2279,
      "Ġwas": 2280,
      "Ġcra": 2281,
      "Ġgiant": 2282,
      "ĠWondering": 2283,
      "Ġrole": 2284,
      "Ġbeer": 2285,
      "Ġblack": 2286,
      "Ġstay": 2287,
      "Ġletter": 2288,
      "Ġallows": 2289,
      "Ġimpro": 2290,
      "Ġphys": 2291,
      "Ġchloramine": 2292,
      "Ġaccurately": 2293,
      "Ġcrack": 2294,
      "her": 2295,
      "iness": 2296,
      "Ġfail": 2297,
      "Ġday": 2298,
      "Ġtoget": 2299,
      "arp": 2300,
      "Ġline": 2301,
      "ĠWW": 2302,
      "Ġconvert": 2303,
      "Ġstale": 2304,
      "Ġtrack": 2305,
      "Ġsupport": 2306,
      "Ġtogether": 2307,
      "nch": 2308,
      "Ġfan": 2309,
      "Ġmot": 2310,
      "Ġmeth": 2311,
      "Ġlin": 2312,
      "ulti": 2313,
      "Ġcrunch": 2314,
      "amut": 2315,
      "Ġdeter": 2316,
      "Ġhandle": 2317,
      "tenance": 2318,
      "Ġproteolysis": 2319,
      "Ġmaintenance": 2320,
      "ĠShape": 2321,
      "Ġtiny": 2322,
      "Ġbasket": 2323,
      "Ġspecial": 2324,
      "Ġmotor": 2325,
      "Ġmethod": 2326,
      "60": 2327,
      "ning": 2328,
      "tretch": 2329,
      "ences": 2330,
      "ero": 2331,
      "eration": 2332,
      "Ġwaste": 2333,
      "Ġpasta": 2334,
      "ĠAdd": 2335,
      "ĠStretch": 2336,
      "ĠCold": 2337,
      "Ġrose": 2338,
      "Ġbeen": 2339,
      "Ġ1000": 2340,
      "Ġsticking": 2341,
      "Ġturning": 2342,
      "osed": 2343,
      "Ġchlorine": 2344,
      "Ġbleach": 2345,
      "Ġzero": 2346,
      "ĠConvection": 2347,
      "Ġartis": 2348,
      "ah": 2349,
      "ful": 2350,
      "ger": 2351,
      "ware": 2352,
      "Ġapar": 2353,
      "Ġcorn": 2354,
      "ors": 2355,
      "Ġmidd": 2356,
      "Ġmulti": 2357,
      "Ġlast": 2358,
      "Ġsharp": 2359,
      "Ġscale": 2360,
      "Ġlarger": 2361,
      "Ġgrey": 2362,
      "Ġbatter": 2363,
      "Ġeliminate": 2364,
      "Ġrelia": 2365,
      "ahm": 2366,
      "Ġapart": 2367,
      "Ġmiddle": 2368,
      "27": 2369,
      "bit": 2370,
      "hi": 2371,
      "inu": 2372,
      "Ġsave": 2373,
      "erous": 2374,
      "Ġcol": 2375,
      "Ġcap": 2376,
      "Ġcrown": 2377,
      "Ġcakes": 2378,
      "Ġpast": 2379,
      "Ġinhi": 2380,
      "Ġhu": 2381,
      "Ġless": 2382,
      "Ġod": 2383,
      "acina": 2384,
      "chn": 2385,
      "ĠAll": 2386,
      "inegar": 2387,
      "Ġpreventing": 2388,
      "Ġrimacina": 2389,
      "Ġlamin": 2390,
      "Ġtrip": 2391,
      "Ġcrackers": 2392,
      "Ġpastries": 2393,
      "Ġinhibit": 2394,
      "Ġrimacinata": 2395,
      "ced": 2396,
      "ched": 2397,
      "day": 2398,
      "ler": 2399,
      "ule": 2400,
      "vit": 2401,
      "Ġsit": 2402,
      "Ġsim": 2403,
      "oug": 2404,
      "ory": 2405,
      "Ġple": 2406,
      "Ġmel": 2407,
      "asantly": 2408,
      "ration": 2409,
      "Ġconvection": 2410,
      "rier": 2411,
      "Ġdef": 2412,
      "ized": 2413,
      "icks": 2414,
      "Ġ120": 2415,
      "Ġsetting": 2416,
      "osing": 2417,
      "ĠKahm": 2418,
      "grade": 2419,
      "Ġsafely": 2420,
      "Ġfingers": 2421,
      "Ġensures": 2422,
      "Ġpersonal": 2423,
      "Ġbleached": 2424,
      "Ġweeks": 2425,
      "Ġschedule": 2426,
      "Ġstirred": 2427,
      "Ġbarrier": 2428,
      "Ġgentler": 2429,
      "Ġbrewing": 2430,
      "Ġfails": 2431,
      "Ġcrunchy": 2432,
      "Ġdeterg": 2433,
      "Ġspecialized": 2434,
      "Ġtriples": 2435,
      "vito": 2436,
      "Ġsimulate": 2437,
      "Ġpleasantly": 2438,
      "ctions": 2439,
      "ef": 2440,
      "Ġsides": 2441,
      "ofes": 2442,
      "Ġwrap": 2443,
      "Ġhinder": 2444,
      "eliz": 2445,
      "ental": 2446,
      "mples": 2447,
      "ameliz": 2448,
      "Ġglide": 2449,
      "Ġdeta": 2450,
      "Ġpreheat": 2451,
      "Ġ720": 2452,
      "Ġacids": 2453,
      "Ġ970": 2454,
      "neading": 2455,
      "Ġcomplex": 2456,
      "Ġbonding": 2457,
      "Ġsmoothly": 2458,
      "Ġprofes": 2459,
      "ĠFeeding": 2460,
      "ĠChlor": 2461,
      "Ġcarameliz": 2462,
      "Ġsourdoug": 2463,
      "Ġpowdery": 2464,
      "Ġportions": 2465,
      "Ġcheese": 2466,
      "Ġdraft": 2467,
      "chniqu": 2468,
      "Ġprofession": 2469,
      "ear": 2470,
      "gine": 2471,
      "hol": 2472,
      "iving": 2473,
      "uter": 2474,
      "ved": 2475,
      "Ġsound": 2476,
      "Ġsize": 2477,
      "Ġdon": 2478,
      "Ġcir": 2479,
      "Ġonce": 2480,
      "ĠHigh": 2481,
      "vered": 2482,
      "Ġalco": 2483,
      "Ġslide": 2484,
      "Ġengine": 2485,
      "ments": 2486,
      "Ġclay": 2487,
      "Ġcloche": 2488,
      "Ġslicing": 2489,
      "Ġaccelerate": 2490,
      "Ġcomputer": 2491,
      "Ġsounds": 2492,
      "Ġcircul": 2493,
      "Ġalcohol": 2494,
      "Ġengineering": 2495,
      "%)": 2496,
      "175": 2497,
      "38": 2498,
      "ire": 2499,
      "sta": 2500,
      "wage": 2501,
      "zzy": 2502,
      "Ġsep": 2503,
      "ony": 2504,
      "rumb": 2505,
      "aced": 2506,
      "ĠWork": 2507,
      "Ġunshape": 2508,
      "ored": 2509,
      "ĠCut": 2510,
      "ĠCrumb": 2511,
      "Ġexact": 2512,
      "Ġvia": 2513,
      "Ġblock": 2514,
      "Ġsewage": 2515,
      "Ġstrange": 2516,
      "ĠRoll": 2517,
      "Ġstiffens": 2518,
      "Ġgrain": 2519,
      "Ġstrongly": 2520,
      "Ġflavors": 2521,
      "Ġmoldy": 2522,
      "Ġsourness": 2523,
      "Ġculture": 2524,
      "Ġcultures": 2525,
      "Ġpreserving": 2526,
      "Ġmanage": 2527,
      "Ġartisan": 2528,
      "Ġcolony": 2529,
      "Ġodors": 2530,
      "Ġsepar": 2531,
      "ĠWorking": 2532,
      "Ġunshapeable": 2533,
      "bed": 2534,
      "bling": 2535,
      "cy": 2536,
      "iac": 2537,
      "sub": 2538,
      "zed": 2539,
      "Ġcel": 2540,
      "Ġtheir": 2541,
      "Ġinqui": 2542,
      "Ġha": 2543,
      "rol": 2544,
      "arrow": 2545,
      "aling": 2546,
      "ics": 2547,
      "Ġgood": 2548,
      "rapped": 2549,
      "Ġoptimal": 2550,
      "ety": 2551,
      "urbed": 2552,
      "Ġtechniqu": 2553,
      "ĠTrapped": 2554,
      "ĠDesired": 2555,
      "aintain": 2556,
      "Ġnarrow": 2557,
      "uting": 2558,
      "Ġadmin": 2559,
      "Ġmineral": 2560,
      "fficient": 2561,
      "Ġdies": 2562,
      "ipper": 2563,
      "Ġsuch": 2564,
      "Ġsufficient": 2565,
      "Ġlevel": 2566,
      "ĠMaintain": 2567,
      "Ġmixes": 2568,
      "Ġkneading": 2569,
      "istration": 2570,
      "isturbed": 2571,
      "Ġthanks": 2572,
      "Ġscores": 2573,
      "Ġsafety": 2574,
      "Ġsoftware": 2575,
      "ĠOver": 2576,
      "ĠOpen": 2577,
      "Ġcontrol": 2578,
      "Ġbreakdown": 2579,
      "Ġtenderize": 2580,
      "Ġincorporates": 2581,
      "Ġdrop": 2582,
      "Ġevaporates": 2583,
      "Ġconsistent": 2584,
      "Ġthorough": 2585,
      "Ġburns": 2586,
      "Ġundisturbed": 2587,
      "Ġ140": 2588,
      "Ġcrowns": 2589,
      "Ġmelted": 2590,
      "Ġcaramelization": 2591,
      "Ġprofessional": 2592,
      "Ġceliac": 2593,
      "Ġinquiries": 2594,
      "Ġadministration": 2595,
      "ative": 2596,
      "oh": 2597,
      "uss": 2598,
      "Ġsaves": 2599,
      "Ġaeration": 2600,
      "Ġtu": 2601,
      "Ġbad": 2602,
      "Ġfix": 2603,
      "reak": 2604,
      "isten": 2605,
      "Ġpu": 2606,
      "raper": 2607,
      "tarter": 2608,
      "Ġrelease": 2609,
      "Ġresid": 2610,
      "ules": 2611,
      "Ġthinner": 2612,
      "Ġspaced": 2613,
      "rial": 2614,
      "Ġdia": 2615,
      "Ġscraper": 2616,
      "Ġacidic": 2617,
      "Ġjust": 2618,
      "ĠThen": 2619,
      "Ġupwards": 2620,
      "iform": 2621,
      "Ġtopics": 2622,
      "Ġboost": 2623,
      "ustrial": 2624,
      "Ġrefrigerate": 2625,
      "Ġindustrial": 2626,
      "Ġremainder": 2627,
      "Ġdegradation": 2628,
      "Ġsuppresses": 2629,
      "Ġgenerate": 2630,
      "Ġextended": 2631,
      "Ġdiscuss": 2632,
      "usually": 2633,
      "Ġmassive": 2634,
      "rape": 2635,
      "ossible": 2636,
      "Ġtightens": 2637,
      "Ġsubstan": 2638,
      "Ġdetach": 2639,
      "Ġresidual": 2640,
      "%+": 2641,
      "be": 2642,
      "baking": 2643,
      "fts": 2644,
      "olyse": 2645,
      "pass": 2646,
      "teolysis": 2647,
      "Ġser": 2648,
      "erg": 2649,
      "Ġbes": 2650,
      "Ġlittle": 2651,
      "Ġoth": 2652,
      "acid": 2653,
      "Ġyellow": 2654,
      "Ġproper": 2655,
      "Ġconta": 2656,
      "Ġlook": 2657,
      "ĠDust": 2658,
      "Ġancient": 2659,
      "Ġunless": 2660,
      "Ġunco": 2661,
      "umin": 2662,
      "umul": 2663,
      "Ġbeginner": 2664,
      "Ġunderbaking": 2665,
      "Ġsudd": 2666,
      "ĠLam": 2667,
      "Ġproteases": 2668,
      "Ġchill": 2669,
      "Ġforming": 2670,
      "Ġexcess": 2671,
      "Ġgases": 2672,
      "Ġaccumul": 2673,
      "Ġdevelopment": 2674,
      "Ġcomplete": 2675,
      "ĠPrefermented": 2676,
      "Ġpulling": 2677,
      "ĠProteolysis": 2678,
      "Ġbrittle": 2679,
      "resses": 2680,
      "Ġneeded": 2681,
      "Ġcontinu": 2682,
      "Ġrelaxes": 2683,
      "Ġsoftens": 2684,
      "Ġzipper": 2685,
      "Ġfuzzy": 2686,
      "Ġexperiences": 2687,
      "Ġtriggered": 2688,
      "Ġfluffy": 2689,
      "Ġcombo": 2690,
      "Ġviolent": 2691,
      "Ġlifting": 2692,
      "ĠAdding": 2693,
      "Ġcircular": 2694,
      "ĠCutting": 2695,
      "Ġcontrols": 2696,
      "Ġsubstances": 2697,
      "Ġbeside": 2698,
      "Ġother": 2699,
      "Ġuncovered": 2700,
      "Ġsudden": 2701,
      "64": 2702,
      "71": 2703,
      "ait": 2704,
      "bs": 2705,
      "bes": 2706,
      "bak": 2707,
      "ease": 2708,
      "free": 2709,
      "lav": 2710,
      "ng": 2711,
      "ogh": 2712,
      "sum": 2713,
      "sted": 2714,
      "tract": 2715,
      "uild": 2716,
      "uogh": 2717,
      "viron": 2718,
      "whe": 2719,
      "inwhe": 2720,
      "Ġaerate": 2721,
      "Ġband": 2722,
      "Ġbased": 2723,
      "tate": 2724,
      "ret": 2725,
      "Ġdental": 2726,
      "Ġwire": 2727,
      "ndard": 2728,
      "orten": 2729,
      "ourish": 2730,
      "Ġperm": 2731,
      "Ġplease": 2732,
      "Ġpinwhe": 2733,
      "anently": 2734,
      "ash": 2735,
      "Ġthaw": 2736,
      "total": 2737,
      "entation": 2738,
      "aps": 2739,
      "ĠAI": 2740,
      "Ġ36": 2741,
      "imals": 2742,
      "ĠDense": 2743,
      "Ġnourish": 2744,
      "Ġrotate": 2745,
      "Ġ464": 2746,
      "ĠBl": 2747,
      "ĠBuild": 2748,
      "Ġvom": 2749,
      "Ġdisease": 2750,
      "Ġenviron": 2751,
      "Ġseal": 2752,
      "ĠRest": 2753,
      "Ġyoung": 2754,
      "Ġ93": 2755,
      "Ġupside": 2756,
      "ĠThey": 2757,
      "Ġslows": 2758,
      "ĠOven": 2759,
      "Ġweaken": 2760,
      "Ġedge": 2761,
      "Ġmicrobes": 2762,
      "Ġcookie": 2763,
      "Ġfloss": 2764,
      "Ġindicates": 2765,
      "Ġsourdoh": 2766,
      "Ġsourduogh": 2767,
      "Ġtunneling": 2768,
      "Ġpacked": 2769,
      "Ġsubtract": 2770,
      "Ġevaporating": 2771,
      "Ġtastes": 2772,
      "Ġeliminates": 2773,
      "italizes": 2774,
      "Ġrevitalizes": 2775,
      "Ġpreparing": 2776,
      "Ġdecimals": 2777,
      "Ġ334": 2778,
      "ĠSteam": 2779,
      "Ġrunning": 2780,
      "Ġunflav": 2781,
      "acidif": 2782,
      "baked": 2783,
      "Ġpermanently": 2784,
      "Ġpinwheels": 2785,
      "Ġvomit": 2786,
      "Ġunflavored": 2787,
      "165": 2788,
      "230": 2789,
      "amples": 2790,
      "even": 2791,
      "gin": 2792,
      "gla": 2793,
      "gital": 2794,
      "iature": 2795,
      "mary": 2796,
      "ply": 2797,
      "rents": 2798,
      "vail": 2799,
      "wan": 2800,
      "yp": 2801,
      "Ġold": 2802,
      "Ġown": 2803,
      "Ġsamples": 2804,
      "Ġavail": 2805,
      "Ġtarget": 2806,
      "erbs": 2807,
      "Ġtoward": 2808,
      "Ġharm": 2809,
      "Ġherbs": 2810,
      "Ġeff": 2811,
      "ĠWet": 2812,
      "Ġrimmed": 2813,
      "ĠAsh": 2814,
      "Ġ325": 2815,
      "Ġconduc": 2816,
      "Ġload": 2817,
      "Ġcomm": 2818,
      "ĠSalt": 2819,
      "Ġnum": 2820,
      "Ġuniform": 2821,
      "Ġuneven": 2822,
      "Ġungla": 2823,
      "Ġunwan": 2824,
      "ĠCup": 2825,
      "Ġcrusts": 2826,
      "Ġdep": 2827,
      "Ġbypass": 2828,
      "Ġminiature": 2829,
      "Ġalumin": 2830,
      "ĠBread": 2831,
      "Ġslides": 2832,
      "Ġdigital": 2833,
      "tching": 2834,
      "ĠRice": 2835,
      "ĠInternal": 2836,
      "ĠInvert": 2837,
      "tency": 2838,
      "Ġlowers": 2839,
      "Ġferments": 2840,
      "rical": 2841,
      "Ġdoubling": 2842,
      "ities": 2843,
      "Ġcookers": 2844,
      "ĠHandling": 2845,
      "Ġbreaks": 2846,
      "Ġdegrades": 2847,
      "Ġrounded": 2848,
      "Ġcavities": 2849,
      "ĠStitching": 2850,
      "Ġcylind": 2851,
      "Ġweek": 2852,
      "Ġconsistency": 2853,
      "Ġexperience": 2854,
      "Ġcurrents": 2855,
      "ĠCalculating": 2856,
      "Ġsurrounded": 2857,
      "Ġgrams": 2858,
      "Ġrosemary": 2859,
      "Ġhaz": 2860,
      "Ġenvironment": 2861,
      "Ġavailable": 2862,
      "Ġnumber": 2863,
      "Ġunglazed": 2864,
      "Ġunwanted": 2865,
      "Ġaluminum": 2866,
      "Ġcylindrical": 2867,
      "12": 2868,
      "cessive": 2869,
      "canic": 2870,
      "dicta": 2871,
      "iver": 2872,
      "lim": 2873,
      "losed": 2874,
      "nutrients": 2875,
      "ÃĹ": 2876,
      "ĠU": 2877,
      "ĠÃĹ": 2878,
      "Ġarom": 2879,
      "isk": 2880,
      "ings": 2881,
      "Ġwon": 2882,
      "Ġcake": 2883,
      "hesi": 2884,
      "esting": 2885,
      "Ġpace": 2886,
      "Ġmed": 2887,
      "Ġmark": 2888,
      "Ġinsi": 2889,
      "anizes": 2890,
      "Ġopp": 2891,
      "Ġregul": 2892,
      "Ġemp": 2893,
      "Ġthrow": 2894,
      "Ġthree": 2895,
      "Ġsho": 2896,
      "Ġstret": 2897,
      "ticles": 2898,
      "ĠDist": 2899,
      "ĠFold": 2900,
      "Ġadhesi": 2901,
      "Ġbypro": 2902,
      "Ġliving": 2903,
      "Ġdiges": 2904,
      "Ġpredicta": 2905,
      "Ġprelim": 2906,
      "Ġvis": 2907,
      "Ġ74": 2908,
      "Ġhandled": 2909,
      "ĠResting": 2910,
      "Ġparticles": 2911,
      "ĠInoculation": 2912,
      "Ġtrap": 2913,
      "Ġproteoly": 2914,
      "Ġskip": 2915,
      "Ġlowest": 2916,
      "Ġvolcanic": 2917,
      "Ġlacing": 2918,
      "Ġimmediate": 2919,
      "Ġdeveloped": 2920,
      "Ġindentation": 2921,
      "Ġshear": 2922,
      "Ġgelatinization": 2923,
      "Ġedible": 2924,
      "ĠDissol": 2925,
      "Ġspreads": 2926,
      "Ġcalculated": 2927,
      "Ġdelay": 2928,
      "Ġcooking": 2929,
      "Ġsimple": 2930,
      "Ġtightly": 2931,
      "ortless": 2932,
      "Ġbenef": 2933,
      "Ġgeneral": 2934,
      "Ġgenerous": 2935,
      "ĠExcessive": 2936,
      "Ġpersonas": 2937,
      "Ġorganizes": 2938,
      "Ġschedules": 2939,
      "ĠGently": 2940,
      "Ġpreparation": 2941,
      "ĠCalculate": 2942,
      "Ġenclosed": 2943,
      "Ġnutty": 2944,
      "Ġdetergents": 2945,
      "standard": 2946,
      "Ġtechnique": 2947,
      "Ġconsistently": 2948,
      "Ġaccumulated": 2949,
      "Ġeffortless": 2950,
      "Ġmedi": 2951,
      "Ġinsipid": 2952,
      "Ġopposing": 2953,
      "Ġregulates": 2954,
      "Ġempty": 2955,
      "Ġstretched": 2956,
      "ĠDistribute": 2957,
      "Ġadhesives": 2958,
      "Ġbyprod": 2959,
      "Ġdigested": 2960,
      "Ġpredictable": 2961,
      "Ġpreliminary": 2962,
      "Ġproteolytic": 2963,
      "ĠDissolve": 2964,
      "13": 2965,
      "ctose": 2966,
      "mall": 2967,
      "stic": 2968,
      "vice": 2969,
      "xible": 2970,
      "inct": 2971,
      "Ġfle": 2972,
      "retard": 2973,
      "orative": 2974,
      "Ġmal": 2975,
      "Ġmorn": 2976,
      "ator": 2977,
      "Ġhus": 2978,
      "ical": 2979,
      "Ġ29": 2980,
      "Ġpromo": 2981,
      "ĠSlu": 2982,
      "ĠSmall": 2983,
      "Ġne": 2984,
      "Ġuns": 2985,
      "Ġsteak": 2986,
      "ĠCool": 2987,
      "verns": 2988,
      "epeat": 2989,
      "aud": 2990,
      "Ġmixers": 2991,
      "ĠRun": 2992,
      "ĠRepeat": 2993,
      "Ġfeeds": 2994,
      "Ġusually": 2995,
      "Ġmotion": 2996,
      "Ġmoisten": 2997,
      "Ġcreation": 2998,
      "Ġblister": 2999,
      "Ġrustic": 3000,
      "Ġdeveloping": 3001,
      "inkled": 3002,
      "Ġwrinkled": 3003,
      "Ġabsorbing": 3004,
      "Ġcrisps": 3005,
      "Ġfructose": 3006,
      "Ġsliced": 3007,
      "Ġdegree": 3008,
      "Ġindicator": 3009,
      "Ġprogram": 3010,
      "Ġleavening": 3011,
      "Ġensure": 3012,
      "developed": 3013,
      "Ġrectangular": 3014,
      "Ġdistinct": 3015,
      "Ġstitching": 3016,
      "Ġricher": 3017,
      "Ġportion": 3018,
      "Ġdecorative": 3019,
      "Ġgoverns": 3020,
      "Ġdissolved": 3021,
      "Ġmultiply": 3022,
      "Ġreliably": 3023,
      "ears": 3024,
      "ĠHigher": 3025,
      "ĠCrumbly": 3026,
      "Ġsufficiently": 3027,
      "Ġpudd": 3028,
      "%+),": 3029,
      "Ġcontinues": 3030,
      "Ġflexible": 3031,
      "retarded": 3032,
      "Ġmaltose": 3033,
      "Ġmorning": 3034,
      "Ġhusk": 3035,
      "Ġpromotes": 3036,
      "ĠSluggish": 3037,
      "15": 3038,
      "29": 3039,
      "bor": 3040,
      "con": 3041,
      "emol": 3042,
      "hard": 3043,
      "lled": 3044,
      "oak": 3045,
      "ption": 3046,
      "pred": 3047,
      "some": 3048,
      "tone": 3049,
      "yellow": 3050,
      "Ġx": 3051,
      "Ġir": 3052,
      "Ġvery": 3053,
      "tem": 3054,
      "eness": 3055,
      "Ġtaken": 3056,
      "Ġtyp": 3057,
      "Ġballs": 3058,
      "Ġfreeze": 3059,
      "regular": 3060,
      "Ġtooth": 3061,
      "Ġpath": 3062,
      "attan": 3063,
      "Ġinver": 3064,
      "Ġflaps": 3065,
      "Ġforced": 3066,
      "Ġretro": 3067,
      "Ġstarting": 3068,
      "ĠWait": 3069,
      "ettone": 3070,
      "Ġthri": 3071,
      "Ġdome": 3072,
      "Ġrattan": 3073,
      "Ġshine": 3074,
      "Ġshorten": 3075,
      "mpt": 3076,
      "Ġprompt": 3077,
      "Ġstring": 3078,
      "Ġgloss": 3079,
      "Ġloose": 3080,
      "Ġcoat": 3081,
      "Ġleave": 3082,
      "Ġspr": 3083,
      "ains": 3084,
      "ĠSever": 3085,
      "ĠSemol": 3086,
      "ĠSoak": 3087,
      "Ġunpred": 3088,
      "Ġrolled": 3089,
      "ĠPure": 3090,
      "Ġaltern": 3091,
      "Ġslash": 3092,
      "Ġ87": 3093,
      "Ġpanettone": 3094,
      "Ġblow": 3095,
      "Ġstatic": 3096,
      "Ġstagn": 3097,
      "Ġstability": 3098,
      "essing": 3099,
      "Ġexpos": 3100,
      "Ġexpresses": 3101,
      "Ġchains": 3102,
      "ific": 3103,
      "Ġproduced": 3104,
      "Ġdeeply": 3105,
      "oking": 3106,
      "Ġamyl": 3107,
      "Ġdrying": 3108,
      "Ġcenterline": 3109,
      "ĠOptimal": 3110,
      "Ġfoodbor": 3111,
      "Ġweakens": 3112,
      "gradation": 3113,
      "Ġimpossible": 3114,
      "ributing": 3115,
      "Ġresting": 3116,
      "ystem": 3117,
      "Ġcontributing": 3118,
      "Ġdusted": 3119,
      "Ġdamp": 3120,
      "ĠDiastatic": 3121,
      "Ġhealthy": 3122,
      "Ġmedically": 3123,
      "Ġsoftened": 3124,
      "Ġsuppressing": 3125,
      "Ġesp": 3126,
      "Ġextensibility": 3127,
      "minated": 3128,
      "Ġsealed": 3129,
      "Ġthoroughly": 3130,
      "Ġcurl": 3131,
      "ĠScrape": 3132,
      "ictably": 3133,
      "troll": 3134,
      "remilled": 3135,
      "ogens": 3136,
      "Ġexceeding": 3137,
      "Ġamber": 3138,
      "Ġguessing": 3139,
      "Ġimproperly": 3140,
      "Ġdoneness": 3141,
      "Ġviability": 3142,
      "Ġdiagn": 3143,
      "Ġcontaminated": 3144,
      "ĠBlend": 3145,
      "acidifies": 3146,
      "Ġharmless": 3147,
      "Ġconducted": 3148,
      "Ġunevenly": 3149,
      "Ġshoes": 3150,
      "Ġgenerously": 3151,
      "controll": 3152,
      "Ġirregular": 3153,
      "Ġtypically": 3154,
      "Ġtoothsome": 3155,
      "Ġpathogens": 3156,
      "Ġinverted": 3157,
      "Ġretrogradation": 3158,
      "Ġthrive": 3159,
      "Ġstringy": 3160,
      "Ġglossy": 3161,
      "Ġloosely": 3162,
      "ĠSevere": 3163,
      "ĠSemola": 3164,
      "Ġunpredictably": 3165,
      "Ġstagnant": 3166,
      "Ġexposure": 3167,
      "Ġamylase": 3168,
      "Ġfoodborne": 3169,
      "hour": 3170,
      "hical": 3171,
      "open": 3172,
      "set": 3173,
      "inal": 3174,
      "Ġsol": 3175,
      "Ġsole": 3176,
      "Ġtough": 3177,
      "Ġdutch": 3178,
      "nds": 3179,
      "Ġhome": 3180,
      "arro": 3181,
      "aniti": 3182,
      "Ġ28": 3183,
      "Ġemo": 3184,
      "ilos": 3185,
      "Ġprobe": 3186,
      "iming": 3187,
      "ĠFinal": 3188,
      "Ġspot": 3189,
      "ightly": 3190,
      "Ġslightly": 3191,
      "Ġcrumbly": 3192,
      "Ġenerg": 3193,
      "Ġ82": 3194,
      "Ġpans": 3195,
      "Ġ67": 3196,
      "ĠInser": 3197,
      "Ġexpect": 3198,
      "ophical": 3199,
      "Ġchoking": 3200,
      "Ġoffer": 3201,
      "Ġoffset": 3202,
      "Ġboard": 3203,
      "Ġlids": 3204,
      "Ġ400": 3205,
      "Ġmicrocontroll": 3206,
      "Ġtapping": 3207,
      "Ġrestric": 3208,
      "Ġstrands": 3209,
      "Ġcookies": 3210,
      "ĠBefore": 3211,
      "ĠDiffer": 3212,
      "Ġindicate": 3213,
      "Ġphilos": 3214,
      "Ġensuring": 3215,
      "device": 3216,
      "ĠSpelt": 3217,
      "Ġsecondary": 3218,
      "Ġcheesy": 3219,
      "Ġfeel": 3220,
      "Ġfeels": 3221,
      "Ġphysically": 3222,
      "Ġliner": 3223,
      "Ġsolid": 3224,
      "Ġsolely": 3225,
      "Ġemotional": 3226,
      "Ġenergy": 3227,
      "ĠInsert": 3228,
      "Ġmicrocontroller": 3229,
      "Ġphilosophical": 3230,
      "',": 3231,
      "125": 3232,
      "36": 3233,
      "ag": 3234,
      "aul": 3235,
      "eten": 3236,
      "eveloped": 3237,
      "ginn": 3238,
      "ially": 3239,
      "king": 3240,
      "lic": 3241,
      "vid": 3242,
      "walls": 3243,
      "Ġ'": 3244,
      "enet": 3245,
      "Ġsqu": 3246,
      "tale": 3247,
      "reate": 3248,
      "ending": 3249,
      "ourag": 3250,
      "Ġpenet": 3251,
      "Ġinvert": 3252,
      "aries": 3253,
      "Ġ11": 3254,
      "Ġorange": 3255,
      "Ġ236": 3256,
      "Ġdoing": 3257,
      "top": 3258,
      "Ġshort": 3259,
      "ĠWhisk": 3260,
      "ĠFully": 3261,
      "Ġunfermented": 3262,
      "ĠPockets": 3263,
      "Ġhydrates": 3264,
      "erating": 3265,
      "Ġdiastatic": 3266,
      "Ġvaul": 3267,
      "Ġvaries": 3268,
      "Ġcrumbs": 3269,
      "Ġrisking": 3270,
      "Ġrecreate": 3271,
      "weeten": 3272,
      "Ġ240": 3273,
      "Ġreacts": 3274,
      "Ġwrist": 3275,
      "Ġsupple": 3276,
      "ecially": 3277,
      "Ġmatch": 3278,
      "ĠIncorpor": 3279,
      "comb": 3280,
      "240": 3281,
      "Ġheavily": 3282,
      "Ġaccelerating": 3283,
      "Ġexpanded": 3284,
      "Ġremained": 3285,
      "malted": 3286,
      "Ġpacking": 3287,
      "Ġtelltale": 3288,
      "Ġundeveloped": 3289,
      "Ġfluffed": 3290,
      "Ġcombination": 3291,
      "Ġviolently": 3292,
      "Ġsurrounding": 3293,
      "Ġencourag": 3294,
      "Ġsidewalls": 3295,
      "Ġescaping": 3296,
      "Ġhoneycomb": 3297,
      "Ġboosting": 3298,
      "Ġdepending": 3299,
      "Ġthrowing": 3300,
      "Ġunsweeten": 3301,
      "ĠCooler": 3302,
      "Ġpuddle": 3303,
      "Ġespecially": 3304,
      "anitize": 3305,
      "ginners": 3306,
      "Ġpenetra": 3307,
      "Ġvaulted": 3308,
      "Ġencouraging": 3309,
      "Ġunsweetened": 3310,
      "bub": 3311,
      "cross": 3312,
      "eter": 3313,
      "gree": 3314,
      "mallow": 3315,
      "Ġsing": 3316,
      "Ġbound": 3317,
      "Ġpot": 3318,
      "Ġpuff": 3319,
      "Ġmar": 3320,
      "lect": 3321,
      "arse": 3322,
      "icip": 3323,
      "rated": 3324,
      "ĠWhite": 3325,
      "Ġ32": 3326,
      "imne": 3327,
      "Ġcoarse": 3328,
      "Ġlets": 3329,
      "Ġtemps": 3330,
      "ĠBey": 3331,
      "Ġweather": 3332,
      "Ġlevels": 3333,
      "Ġblast": 3334,
      "shmallow": 3335,
      "Ġusual": 3336,
      "ĠLie": 3337,
      "Ġchimne": 3338,
      "Ġ245": 3339,
      "unicip": 3340,
      "inkle": 3341,
      "Ġknown": 3342,
      "Ġgreater": 3343,
      "Ġweakening": 3344,
      "Ġequals": 3345,
      "Ġsweeter": 3346,
      "Ġfiltered": 3347,
      "Ġcriss": 3348,
      "ĠInclusions": 3349,
      "Ġmaintained": 3350,
      "Ġcountertop": 3351,
      "ĠHandle": 3352,
      "Ġpower": 3353,
      "Ġdifferent": 3354,
      "degree": 3355,
      "ĠLook": 3356,
      "Ġdistribute": 3357,
      "meal": 3358,
      "ĠGiant": 3359,
      "Ġfuse": 3360,
      "Ġventing": 3361,
      "Ġescapes": 3362,
      "Ġblooms": 3363,
      "Ġcornmeal": 3364,
      "Ġdeflect": 3365,
      "Ġaromas": 3366,
      "Ġvisible": 3367,
      "Ġsprinkle": 3368,
      "Ġalternate": 3369,
      "bubbles": 3370,
      "Ġsingle": 3371,
      "Ġpuffy": 3372,
      "Ġmarshmallow": 3373,
      "ĠBeyond": 3374,
      "ĠLievito": 3375,
      "Ġchimneys": 3376,
      "unicipal": 3377,
      "Ġdistributed": 3378,
      "Ġmarshmallowy": 3379,
      "18": 3380,
      "ground": 3381,
      "hor": 3382,
      "Ġtrem": 3383,
      "Ġbases": 3384,
      "Ġfed": 3385,
      "Ġwalls": 3386,
      "endous": 3387,
      "orary": 3388,
      "Ġpie": 3389,
      "atch": 3390,
      "Ġthese": 3391,
      "ede": 3392,
      "asan": 3393,
      "Ġgiving": 3394,
      "rafts": 3395,
      "aces": 3396,
      "Ġteeth": 3397,
      "ĠDrafts": 3398,
      "ĠStarter": 3399,
      "Ġnon": 3400,
      "Ġtemporary": 3401,
      "Ġvess": 3402,
      "Ġweb": 3403,
      "ĠMore": 3404,
      "Ġhighly": 3405,
      "Ġsurfaces": 3406,
      "ĠAncient": 3407,
      "Ġstretching": 3408,
      "Ġformation": 3409,
      "Ġproduce": 3410,
      "Ġdirections": 3411,
      "ĠEmmer": 3412,
      "Ġbuttery": 3413,
      "Ġstoneground": 3414,
      "Ġimpede": 3415,
      "Ġbatches": 3416,
      "Ġslacks": 3417,
      "Ġfirmly": 3418,
      "Ġexpands": 3419,
      "Ġshower": 3420,
      "Ġyields": 3421,
      "Ġdistributes": 3422,
      "Ġmoderate": 3423,
      "Ġburning": 3424,
      "Ġlife": 3425,
      "Ġmilder": 3426,
      "Ġpatterns": 3427,
      "ĠLamination": 3428,
      "Ġrestricts": 3429,
      "ĠIncorporate": 3430,
      "horasan": 3431,
      "Ġtremendous": 3432,
      "Ġpiece": 3433,
      "Ġvessel": 3434,
      "ailing": 3435,
      "muc": 3436,
      "nr": 3437,
      "pate": 3438,
      "slic": 3439,
      "Ġfailing": 3440,
      "Ġwide": 3441,
      "Ġwondering": 3442,
      "Ġwind": 3443,
      "Ġtow": 3444,
      "Ġtowards": 3445,
      "ester": 3446,
      "Ġpaste": 3447,
      "Ġmunicipal": 3448,
      "tionally": 3449,
      "ilage": 3450,
      "ĠWinter": 3451,
      "Ġyears": 3452,
      "Ġyester": 3453,
      "tore": 3454,
      "Ġglutenin": 3455,
      "ĠStore": 3456,
      "Ġunheated": 3457,
      "Ġ550": 3458,
      "sipate": 3459,
      "eptionally": 3460,
      "Ġdispl": 3461,
      "Ġdissipate": 3462,
      "oled": 3463,
      "Ġscat": 3464,
      "ĠRub": 3465,
      "Ġtray": 3466,
      "Ġrefract": 3467,
      "Ġboiled": 3468,
      "Ġexceptionally": 3469,
      "ĠEnr": 3470,
      "ĠKhorasan": 3471,
      "Ġeasy": 3472,
      "Ġshallowly": 3473,
      "Ġrelative": 3474,
      "Ġdeliver": 3475,
      "Ġmaintaining": 3476,
      "cooled": 3477,
      "Ġdue": 3478,
      "ĠFormula": 3479,
      "Ġgums": 3480,
      "Ġpressing": 3481,
      "ĠChlorine": 3482,
      "Ġtucking": 3483,
      "ĠUn": 3484,
      "ĠDifference": 3485,
      "mucilage": 3486,
      "sliced": 3487,
      "Ġwindow": 3488,
      "Ġyesterday": 3489,
      "Ġdisplays": 3490,
      "ĠRubaud": 3491,
      "Ġrefractory": 3492,
      "ĠEnrich": 3493,
      "Ġdelivering": 3494,
      "nut": 3495,
      "rin": 3496,
      "vinegar": 3497,
      "yog": 3498,
      "Ġfine": 3499,
      "tips": 3500,
      "Ġtoss": 3501,
      "around": 3502,
      "Ġ250": 3503,
      "urt": 3504,
      "ĠHarm": 3505,
      "ĠTip": 3506,
      "Ġspore": 3507,
      "ĠSanitize": 3508,
      "rite": 3509,
      "cked": 3510,
      "allop": 3511,
      "Ġscallop": 3512,
      "ĠThat": 3513,
      "shing": 3514,
      "Ġreaction": 3515,
      "Ġabsorption": 3516,
      "ĠBeginners": 3517,
      "Ġindicating": 3518,
      "Ġphase": 3519,
      "Ġ00": 3520,
      "Ġfingertips": 3521,
      "ĠScaling": 3522,
      "ĠFormulate": 3523,
      "Ġmildness": 3524,
      "Ġpoke": 3525,
      "Ġresult": 3526,
      "Ġminimize": 3527,
      "Ġmanageable": 3528,
      "Ġserrated": 3529,
      "Ġbyproduct": 3530,
      "Ġpenetrate": 3531,
      "yogurt": 3532,
      "ĠHarmful": 3533,
      "ĠTipo": 3534,
      "Ġspores": 3535,
      "Ġscalloped": 3536,
      "bo": 3537,
      "etar": 3538,
      "flour": 3539,
      "farro": 3540,
      "ivid": 3541,
      "uals": 3542,
      "Ġbf": 3543,
      "Ġmust": 3544,
      "ley": 3545,
      "Ġloft": 3546,
      "elnut": 3547,
      "Ġrip": 3548,
      "ĠTips": 3549,
      "ĠBreak": 3550,
      "Ġdietar": 3551,
      "Ġenvelop": 3552,
      "Ġpercent": 3553,
      "Ġcreating": 3554,
      "Ġcupbo": 3555,
      "ĠKamut": 3556,
      "Ġindivid": 3557,
      "Ġactivated": 3558,
      "Ġbarley": 3559,
      "Ġpreserve": 3560,
      "Ġambient": 3561,
      "Ġhuge": 3562,
      "Ġlaminate": 3563,
      "Ġhazelnut": 3564,
      "Ġmedio": 3565,
      "Ġripping": 3566,
      "Ġdietary": 3567,
      "Ġenvelope": 3568,
      "Ġcupboard": 3569,
      "Ġindividuals": 3570,
      "kes": 3571,
      "most": 3572,
      "siness": 3573,
      "yield": 3574,
      "inted": 3575,
      "Ġbul": 3576,
      "Ġway": 3577,
      "Ġmist": 3578,
      "Ġhit": 3579,
      "rokes": 3580,
      "aky": 3581,
      "Ġgerm": 3582,
      "Ġflaky": 3583,
      "ulled": 3584,
      "ĠWhile": 3585,
      "Ġcrushing": 3586,
      "Ġstrokes": 3587,
      "ĠFermentation": 3588,
      "Ġspir": 3589,
      "ĠSaw": 3590,
      "Ġunre": 3591,
      "Ġmins": 3592,
      "Ġalmost": 3593,
      "ĠBare": 3594,
      "Ġdimple": 3595,
      "Ġbusiness": 3596,
      "Ġwhenever": 3597,
      "Ġkicks": 3598,
      "Ġseedling": 3599,
      "ĠProperly": 3600,
      "Ġrelaxed": 3601,
      "Ġexpanding": 3602,
      "Ġsignific": 3603,
      "Ġworking": 3604,
      "Ġvirgin": 3605,
      "Ġjiggly": 3606,
      "Ġadjustments": 3607,
      "Ġrevive": 3608,
      "ĠLightly": 3609,
      "Ġpointed": 3610,
      "Ġexceeds": 3611,
      "Ġsteaks": 3612,
      "Ġprogrammed": 3613,
      "Ġtowel": 3614,
      "Ġscatter": 3615,
      "yields": 3616,
      "Ġbulb": 3617,
      "Ġkickstar": 3618,
      "Ġsignificantly": 3619,
      "wheat": 3620,
      "only": 3621,
      "stric": 3622,
      "Ġunderlying": 3623,
      "Ġdipl": 3624,
      "ĠMake": 3625,
      "Ġproofed": 3626,
      "ĠEinkorn": 3627,
      "gnore": 3628,
      "itive": 3629,
      "Ġsheets": 3630,
      "Ġholding": 3631,
      "Ġrounding": 3632,
      "Ġseams": 3633,
      "Ġprimitive": 3634,
      "ĠFermentolyse": 3635,
      "Ġchewy": 3636,
      "Ġminimally": 3637,
      "Ġseparating": 3638,
      "Ġcommonly": 3639,
      "Ġunrestric": 3640,
      "Ġdiploid": 3641,
      "Ġunrestricted": 3642,
      "Kamut": 3643,
      "long": 3644,
      "rs": 3645,
      "vic": 3646,
      "Ġver": 3647,
      "Ġwicks": 3648,
      "tiful": 3649,
      "Ġpure": 3650,
      "Ġhrs": 3651,
      "olate": 3652,
      "Ġflou": 3653,
      "Ġ(>": 3654,
      "Ġproperly": 3655,
      "Ġbeau": 3656,
      "ĠRT": 3657,
      "ocolate": 3658,
      "Ġchip": 3659,
      "Ġchocolate": 3660,
      "Ġcrevic": 3661,
      "Ġsetup": 3662,
      "Ġclock": 3663,
      "Ġimprin": 3664,
      "Ġcontributes": 3665,
      "Ġgoing": 3666,
      "Ġdissolve": 3667,
      "Ġnuts": 3668,
      "ĠExtended": 3669,
      "Ġhue": 3670,
      "Ġspirals": 3671,
      "Ġbeautiful": 3672,
      "Ġcrevices": 3673,
      "Ġimprints": 3674,
      "cern": 3675,
      "pite": 3676,
      "uck": 3677,
      "Ġtry": 3678,
      "Ġball": 3679,
      "Ġdes": 3680,
      "Ġwaf": 3681,
      "Ġcare": 3682,
      "Ġtool": 3683,
      "Ġlic": 3684,
      "ician": 3685,
      "Ġeat": 3686,
      "ĠWatch": 3687,
      "Ġstuck": 3688,
      "Ġconcern": 3689,
      "Ġglass": 3690,
      "Ġstep": 3691,
      "cks": 3692,
      "Ġvinegar": 3693,
      "Ġstays": 3694,
      "Ġprotease": 3695,
      "ensed": 3696,
      "Ġfinis": 3697,
      "produc": 3698,
      "Ġhelps": 3699,
      "Ġstopping": 3700,
      "ĠMixing": 3701,
      "ĠChecked": 3702,
      "Ġunfed": 3703,
      "Ġphysician": 3704,
      "Ġdiagnose": 3705,
      "Ġkickstarting": 3706,
      "Ġflouer": 3707,
      "Ġdespite": 3708,
      "Ġwaff": 3709,
      "Ġlicensed": 3710,
      "Ġconcerns": 3711,
      "dt": 3712,
      "no": 3713,
      "Ġwor": 3714,
      "Ġhi": 3715,
      "Ġthough": 3716,
      "ĠAiming": 3717,
      "Ġcrusty": 3718,
      "Ġalong": 3719,
      "Ġprefermented": 3720,
      "Ġblond": 3721,
      "Ġknead": 3722,
      "Ġadded": 3723,
      "Ġafterno": 3724,
      "gns": 3725,
      "Ġcount": 3726,
      "Ġswitch": 3727,
      "Ġmany": 3728,
      "Ġimprove": 3729,
      "Ġseparate": 3730,
      "Ġfinished": 3731,
      "Ġafternoon": 3732,
      "bing": 3733,
      "Ġfro": 3734,
      "Ġwood": 3735,
      "Ġpol": 3736,
      "icial": 3737,
      "ulating": 3738,
      "Ġoval": 3739,
      "Ġprolong": 3740,
      "ĠFix": 3741,
      "ĠSummer": 3742,
      "Ġinclu": 3743,
      "Ġbubble": 3744,
      "ĠEns": 3745,
      "Ġdidn": 3746,
      "Ġcrispy": 3747,
      "Ġbeneficial": 3748,
      "ĠFixing": 3749,
      "ĠEnsure": 3750,
      "ared": 3751,
      "ion": 3752,
      "uses": 3753,
      "Ã±": 3754,
      "tit": 3755,
      "Ġlay": 3756,
      "ane": 3757,
      "alape": 3758,
      "Ġregular": 3759,
      "ĠDuring": 3760,
      "Ġspace": 3761,
      "ĠSystem": 3762,
      "Ġnorm": 3763,
      "verting": 3764,
      "ĠMath": 3765,
      "ations": 3766,
      "Ġjalape": 3767,
      "ĠThere": 3768,
      "Ġhell": 3769,
      "Ġbare": 3770,
      "ĠPreheated": 3771,
      "Ġrubbing": 3772,
      "Ġreadings": 3773,
      "Ġcompared": 3774,
      "ĠStep": 3775,
      "Ġsubstit": 3776,
      "Ġlinen": 3777,
      "ĠChloramine": 3778,
      "Ġbenefit": 3779,
      "Ġnormal": 3780,
      "ĠjalapeÃ±": 3781,
      "Ġhello": 3782,
      "evito": 3783,
      "ious": 3784,
      "mes": 3785,
      "pane": 3786,
      "Ġter": 3787,
      "Ġsystem": 3788,
      "Ġbring": 3789,
      "ortant": 3790,
      "Ġinst": 3791,
      "ructions": 3792,
      "aping": 3793,
      "Ġdehydra": 3794,
      "ĠPulled": 3795,
      "Ġquer": 3796,
      "Ġlievito": 3797,
      "Ġweigh": 3798,
      "Ġmixer": 3799,
      "Ġfermentolyse": 3800,
      "Ġchecking": 3801,
      "Ġbecome": 3802,
      "ĠShaping": 3803,
      "Ġfilter": 3804,
      "Ġimportant": 3805,
      "Ġthroughout": 3806,
      "Ġreadiness": 3807,
      "Ġevaporate": 3808,
      "Ġaccurate": 3809,
      "ĠFormulating": 3810,
      "Ġdefl": 3811,
      "ĠUnlike": 3812,
      "Ġwindowpane": 3813,
      "Ġvertical": 3814,
      "Ġlayer": 3815,
      "Ġinstructions": 3816,
      "here": 3817,
      "ier": 3818,
      "ied": 3819,
      "over": 3820,
      "Ġach": 3821,
      "Ġwell": 3822,
      "Ġwrite": 3823,
      "Ġcu": 3824,
      "Ġhack": 3825,
      "Ġgr": 3826,
      "Ġshot": 3827,
      "Ġspra": 3828,
      "Ġnail": 3829,
      "site": 3830,
      "Ġraw": 3831,
      "Ġslap": 3832,
      "Ġkill": 3833,
      "ĠRe": 3834,
      "Ġdiscarding": 3835,
      "Ġcups": 3836,
      "Ġgray": 3837,
      "Ġremover": 3838,
      "Ġliquef": 3839,
      "Ġactivate": 3840,
      "Ġscorch": 3841,
      "ieve": 3842,
      "Ġnew": 3843,
      "Ġwebsite": 3844,
      "Ġwaffles": 3845,
      "Ġpolish": 3846,
      "Ġdeflating": 3847,
      "Ġachieve": 3848,
      "cid": 3849,
      "ding": 3850,
      "djust": 3851,
      "gor": 3852,
      "itely": 3853,
      "matic": 3854,
      "pt": 3855,
      "tled": 3856,
      "viving": 3857,
      "yth": 3858,
      "initely": 3859,
      "Ġtore": 3860,
      "Ġreproduc": 3861,
      "ults": 3862,
      "ĠAdjust": 3863,
      "Ġlose": 3864,
      "Ġovens": 3865,
      "Ġbeh": 3866,
      "Ġignore": 3867,
      "omm": 3868,
      "Ġscaling": 3869,
      "Ġbottled": 3870,
      "Ġwarmer": 3871,
      "Ġmean": 3872,
      "Ġindef": 3873,
      "Ġclosed": 3874,
      "Ġdegas": 3875,
      "Ġsemola": 3876,
      "Ġvigor": 3877,
      "Ġdramatic": 3878,
      "Ġbaskets": 3879,
      "Ġgentle": 3880,
      "Ġresults": 3881,
      "Ġreliable": 3882,
      "Ġinhibits": 3883,
      "Ġsitting": 3884,
      "Ġcommand": 3885,
      "Ġblonde": 3886,
      "ĠReviving": 3887,
      "ython": 3888,
      "Ġreproduction": 3889,
      "ĠAdjusting": 3890,
      "Ġindefinitely": 3891,
      "ati": 3892,
      "cre": 3893,
      "ferment": 3894,
      "gure": 3895,
      "igure": 3896,
      "nced": 3897,
      "Ġsort": 3898,
      "Ġsome": 3899,
      "ounced": 3900,
      "Ġaim": 3901,
      "Ġaiming": 3902,
      "Ġtre": 3903,
      "Ġbur": 3904,
      "Ġbir": 3905,
      "Ġfdt": 3906,
      "onounced": 3907,
      "anill": 3908,
      "alk": 3909,
      "Ġrever": 3910,
      "sting": 3911,
      "Ġproxy": 3912,
      "rible": 3913,
      "Ġngin": 3914,
      "Ġdiff": 3915,
      "Ġvanill": 3916,
      "Ġsuffer": 3917,
      "Ġjo": 3918,
      "thday": 3919,
      "Ġproduction": 3920,
      "osis": 3921,
      "Ġruin": 3922,
      "Ġbuttercre": 3923,
      "Ġbrine": 3924,
      "Ġpronounced": 3925,
      "Ġstartr": 3926,
      "Ġplay": 3927,
      "Ġconfigure": 3928,
      "Ġputting": 3929,
      "Ġlaminated": 3930,
      "Ġtuck": 3931,
      "Ġserver": 3932,
      "Ġdiagnosis": 3933,
      "Ġfrosting": 3934,
      "Ġterrible": 3935,
      "Ġtreat": 3936,
      "Ġburnt": 3937,
      "Ġbirthday": 3938,
      "Ġreverse": 3939,
      "Ġnginx": 3940,
      "Ġvanilla": 3941,
      "Ġsuffered": 3942,
      "Ġbuttercream": 3943,
      "bu": 3944,
      "by": 3945,
      "ded": 3946,
      "ium": 3947,
      "mine": 3948,
      "put": 3949,
      "ste": 3950,
      "sant": 3951,
      "starter": 3952,
      "ture": 3953,
      "ue": 3954,
      "uet": 3955,
      "waste": 3956,
      "Ġap": 3957,
      "Ġta": 3958,
      "Ġfell": 3959,
      "tages": 3960,
      "issant": 3961,
      "Ġdent": 3962,
      "Ġdam": 3963,
      "Ġdesi": 3964,
      "Ġdang": 3965,
      "Ġcro": 3966,
      "Ġmach": 3967,
      "leep": 3968,
      "Ġthey": 3969,
      "Ġinacc": 3970,
      "Ġhidd": 3971,
      "arning": 3972,
      "antages": 3973,
      "rail": 3974,
      "Ġforget": 3975,
      "ĠWrite": 3976,
      "Ġact": 3977,
      "Ġlearning": 3978,
      "aint": 3979,
      "ardrail": 3980,
      "ript": 3981,
      "Ġdebu": 3982,
      "ĠPython": 3983,
      "Ġpres": 3984,
      "ipe": 3985,
      "Ġsuper": 3986,
      "Ġscript": 3987,
      "Ġadvantages": 3988,
      "ĠRec": 3989,
      "Ġtrays": 3990,
      "Ġoutput": 3991,
      "Ġasleep": 3992,
      "Ġdirection": 3993,
      "Ġlidded": 3994,
      "Ġprevious": 3995,
      "Ġgreen": 3996,
      "tance": 3997,
      "Ġcalculating": 3998,
      "Ġmeasuring": 3999,
      "ĠAltern": 4000,
      "245": 4001,
      "Ġanswers": 4002,
      "Ġremains": 4003,
      "Ġbaguet": 4004,
      "urate": 4005,
      "Ġsodium": 4006,
      "Ġrevi": 4007,
      "loaf": 4008,
      "Ġdissolves": 4009,
      "Ġmeasurements": 4010,
      "Ġguardrail": 4011,
      "Ġcapture": 4012,
      "ĠAllow": 4013,
      "Ġhazard": 4014,
      "Ġsquare": 4015,
      "Ġcareer": 4016,
      "Ġworks": 4017,
      "Ġbarely": 4018,
      "ĠjalapeÃ±o": 4019,
      "step": 4020,
      "issants": 4021,
      "Ġdamage": 4022,
      "Ġdesigns": 4023,
      "Ġdangerous": 4024,
      "Ġcroissants": 4025,
      "Ġmachine": 4026,
      "Ġinaccurate": 4027,
      "Ġhidden": 4028,
      "Ġdebug": 4029,
      "ĠRecipe": 4030,
      "Ġbaguettes": 4031,
      "Ġguardrails": 4032,
      "++": 4033,
      "ably": 4034,
      "break": 4035,
      "cer": 4036,
      "evelop": 4037,
      "oiled": 4038,
      "stick": 4039,
      "tol": 4040,
      "tra": 4041,
      "ying": 4042,
      "zing": 4043,
      "Ġtree": 4044,
      "erance": 4045,
      "Ġbinary": 4046,
      "Ġfalls": 4047,
      "Ġdens": 4048,
      "Ġww": 4049,
      "endations": 4050,
      "Ġcure": 4051,
      "Ġcam": 4052,
      "ndry": 4053,
      "Ġintol": 4054,
      "arch": 4055,
      "Ġlau": 4056,
      "Ġlone": 4057,
      "anion": 4058,
      "ashes": 4059,
      "Ġgap": 4060,
      "tart": 4061,
      "ade": 4062,
      "Ġele": 4063,
      "Ġdoct": 4064,
      "ĠAre": 4065,
      "ĠTrans": 4066,
      "Ġconverting": 4067,
      "Ġglue": 4068,
      "ĠDevelop": 4069,
      "Ġminute": 4070,
      "Ġrare": 4071,
      "ĠMo": 4072,
      "ĠMaking": 4073,
      "ĠMedic": 4074,
      "Ġsearch": 4075,
      "Ġrecomm": 4076,
      "ĠForget": 4077,
      "Ġsticks": 4078,
      "Ġupward": 4079,
      "Ġadditions": 4080,
      "Ġtiming": 4081,
      "Ġformulation": 4082,
      "Ġrefuses": 4083,
      "Ġairy": 4084,
      "Ġdegass": 4085,
      "Ġharder": 4086,
      "Ġrequired": 4087,
      "Ġremaining": 4088,
      "ailbreak": 4089,
      "Ġevil": 4090,
      "Ġcompanion": 4091,
      "Ġcube": 4092,
      "Ġdrafts": 4093,
      "Ġoverrides": 4094,
      "Ġdusting": 4095
    },
    "merges": [
      [
        "t",
        "e"
      ],
      [
        "i",
        "n"
      ],
      [
        "e",
        "n"
      ],
      [
        "Ġ",
        "s"
      ],
      [
        "o",
        "u"
      ],
      [
        "Ġ",
        "a"
      ],
      [
        "Ġ",
        "t"
      ],
      [
        "e",
        "r"
      ],
      [
        "Ġ",
        "b"
      ],
      [
        "o",
        "f"
      ],
      [
        "Ġ",
        "f"
      ],
      [
        "t",
        "a"
      ],
      [
        "r",
        "e"
      ],
      [
        "i",
        "s"
      ],
      [
        "Ġ",
        "d"
      ],
      [
        "o",
        "n"
      ],
      [
        "in",
        "g"
      ],
      [
        "Ġ",
        "w"
      ],
      [
        "en",
        "d"
      ],
      [
        "Ġ",
        "c"
      ],
      [
        "of",
        "te"
      ],
      [
        "x",
        "t"
      ],
      [
        "<",
        "|"
      ],
      [
        "|",
        ">"
      ],
      [
        "end",
        "ofte"
      ],
      [
        "endofte",
        "xt"
      ],
      [
        "g",
        "h"
      ],
      [
        "n",
        "d"
      ],
      [
        "o",
        "r"
      ],
      [
        "ou",
        "r"
      ],
      [
        "h",
        "e"
      ],
      [
        "t",
        "i"
      ],
      [
        "ou",
        "gh"
      ],
      [
        "Ġt",
        "o"
      ],
      [
        "e",
        "s"
      ],
      [
        "te",
        "r"
      ],
      [
        "Ġa",
        "nd"
      ],
      [
        "Ġ",
        "p"
      ],
      [
        "Ġ",
        "m"
      ],
      [
        "s",
        "s"
      ],
      [
        "n",
        "t"
      ],
      [
        "a",
        "t"
      ],
      [
        "l",
        "e"
      ],
      [
        "Ġt",
        "he"
      ],
      [
        "U",
        "s"
      ],
      [
        "Ġ",
        "in"
      ],
      [
        "ta",
        "nt"
      ],
      [
        "i",
        "t"
      ],
      [
        "ss",
        "is"
      ],
      [
        "ssis",
        "tant"
      ],
      [
        "Ġ",
        "h"
      ],
      [
        "r",
        "o"
      ],
      [
        ".",
        "<|"
      ],
      [
        "A",
        "ssistant"
      ],
      [
        "Us",
        "er"
      ],
      [
        "e",
        "d"
      ],
      [
        "a",
        "r"
      ],
      [
        "a",
        "k"
      ],
      [
        "l",
        "y"
      ],
      [
        "Ġ",
        "l"
      ],
      [
        "a",
        "n"
      ],
      [
        "ti",
        "on"
      ],
      [
        "a",
        "l"
      ],
      [
        "our",
        "d"
      ],
      [
        "ourd",
        "ough"
      ],
      [
        "a",
        "s"
      ],
      [
        "o",
        "w"
      ],
      [
        "o",
        "l"
      ],
      [
        "i",
        "c"
      ],
      [
        "Ġs",
        "ourdough"
      ],
      [
        "Ġ",
        "u"
      ],
      [
        "Ġ",
        "g"
      ],
      [
        "r",
        "a"
      ],
      [
        "Ġ",
        "1"
      ],
      [
        "Ġd",
        "ough"
      ],
      [
        "Ġf",
        "l"
      ],
      [
        "i",
        "d"
      ],
      [
        "Ġf",
        "or"
      ],
      [
        "Ġ",
        "I"
      ],
      [
        "ta",
        "r"
      ],
      [
        "Ġb",
        "ak"
      ],
      [
        "it",
        "h"
      ],
      [
        "Â",
        "°"
      ],
      [
        "Ġ",
        "o"
      ],
      [
        "Ġw",
        "ith"
      ],
      [
        "e",
        "l"
      ],
      [
        "Ġ",
        "is"
      ],
      [
        "a",
        "d"
      ],
      [
        "r",
        "u"
      ],
      [
        "Ġ",
        "or"
      ],
      [
        "a",
        "c"
      ],
      [
        "Ġ",
        "2"
      ],
      [
        "Ġ",
        "re"
      ],
      [
        "Ġfl",
        "our"
      ],
      [
        "Ġs",
        "tar"
      ],
      [
        "u",
        "l"
      ],
      [
        "en",
        "t"
      ],
      [
        "Ġ",
        "e"
      ],
      [
        "i",
        "l"
      ],
      [
        "Ġ",
        "W"
      ],
      [
        "c",
        "h"
      ],
      [
        "e",
        "t"
      ],
      [
        "Ġw",
        "h"
      ],
      [
        "Ġ",
        "("
      ],
      [
        "s",
        "t"
      ],
      [
        "Ġ",
        "y"
      ],
      [
        "Ġo",
        "v"
      ],
      [
        "Ġt",
        "h"
      ],
      [
        "a",
        "ter"
      ],
      [
        "ol",
        "d"
      ],
      [
        "er",
        "m"
      ],
      [
        "a",
        "te"
      ],
      [
        "o",
        "t"
      ],
      [
        "u",
        "te"
      ],
      [
        "Ġstar",
        "ter"
      ],
      [
        "Ġd",
        "o"
      ],
      [
        "t",
        "o"
      ],
      [
        "Ġ",
        "r"
      ],
      [
        "Ġw",
        "ater"
      ],
      [
        "Ġs",
        "h"
      ],
      [
        "s",
        "e"
      ],
      [
        "Ġ",
        "of"
      ],
      [
        "en",
        "ta"
      ],
      [
        "u",
        "r"
      ],
      [
        "Ġ",
        "on"
      ],
      [
        "ĠW",
        "h"
      ],
      [
        "re",
        "ad"
      ],
      [
        "a",
        "p"
      ],
      [
        "Ġc",
        "ru"
      ],
      [
        "Ġ",
        "H"
      ],
      [
        "m",
        "p"
      ],
      [
        "Ġ",
        "te"
      ],
      [
        "Ġ",
        "A"
      ],
      [
        "i",
        "gh"
      ],
      [
        "Ġp",
        "ro"
      ],
      [
        "u",
        "re"
      ],
      [
        "v",
        "e"
      ],
      [
        "Ġb",
        "read"
      ],
      [
        "Ġa",
        "c"
      ],
      [
        "Ġbak",
        "ing"
      ],
      [
        "q",
        "u"
      ],
      [
        "Ġ",
        "T"
      ],
      [
        "Ġs",
        "t"
      ],
      [
        "ti",
        "c"
      ],
      [
        "Ġ",
        "3"
      ],
      [
        "erm",
        "enta"
      ],
      [
        "Ġ1",
        "0"
      ],
      [
        "Ġ",
        "it"
      ],
      [
        "i",
        "m"
      ],
      [
        "Ġc",
        "on"
      ],
      [
        "ermenta",
        "tion"
      ],
      [
        "a",
        "m"
      ],
      [
        "Ġg",
        "l"
      ],
      [
        "Ġl",
        "o"
      ],
      [
        "Ġc",
        "o"
      ],
      [
        "e",
        "ed"
      ],
      [
        "Ġ",
        "D"
      ],
      [
        "Ġ",
        "le"
      ],
      [
        "Ġ",
        "F"
      ],
      [
        "ute",
        "n"
      ],
      [
        "Ġgl",
        "uten"
      ],
      [
        "Ġs",
        "p"
      ],
      [
        "Ġov",
        "en"
      ],
      [
        "a",
        "in"
      ],
      [
        "Ġ",
        "S"
      ],
      [
        "ĠH",
        "ow"
      ],
      [
        "Ġa",
        "t"
      ],
      [
        "Ġ2",
        "0"
      ],
      [
        "as",
        "t"
      ],
      [
        "Ġa",
        "n"
      ],
      [
        "ar",
        "d"
      ],
      [
        "r",
        "i"
      ],
      [
        "Ġ",
        "n"
      ],
      [
        "u",
        "t"
      ],
      [
        "Ġu",
        "n"
      ],
      [
        "a",
        "v"
      ],
      [
        "Ġs",
        "te"
      ],
      [
        "Ġm",
        "y"
      ],
      [
        "igh",
        "t"
      ],
      [
        "i",
        "r"
      ],
      [
        "o",
        "re"
      ],
      [
        "u",
        "m"
      ],
      [
        "Ġ",
        "5"
      ],
      [
        "a",
        "f"
      ],
      [
        "Ġ",
        "C"
      ],
      [
        "Ġ",
        "ro"
      ],
      [
        "Ġcru",
        "st"
      ],
      [
        "Ġa",
        "d"
      ],
      [
        "ou",
        "t"
      ],
      [
        "id",
        "e"
      ],
      [
        "Ġb",
        "e"
      ],
      [
        "s",
        "i"
      ],
      [
        "Ġf",
        "ermentation"
      ],
      [
        "g",
        "e"
      ],
      [
        "y",
        "d"
      ],
      [
        "yd",
        "ra"
      ],
      [
        "a",
        "nd"
      ],
      [
        "Ġd",
        "e"
      ],
      [
        "Ġe",
        "x"
      ],
      [
        "Ġ",
        "P"
      ],
      [
        "Ġbak",
        "e"
      ],
      [
        "Ġ",
        "4"
      ],
      [
        "ĠWh",
        "at"
      ],
      [
        "nd",
        "er"
      ],
      [
        "v",
        "er"
      ],
      [
        "Ġb",
        "y"
      ],
      [
        "Ġh",
        "ydra"
      ],
      [
        "c",
        "k"
      ],
      [
        "Ġin",
        "to"
      ],
      [
        "m",
        "b"
      ],
      [
        "Ġov",
        "er"
      ],
      [
        "Ġsh",
        "ap"
      ],
      [
        "l",
        "es"
      ],
      [
        "Ġm",
        "in"
      ],
      [
        "f",
        "f"
      ],
      [
        "Ġy",
        "our"
      ],
      [
        "er",
        "at"
      ],
      [
        "Ġ",
        "i"
      ],
      [
        "Ġ",
        "ra"
      ],
      [
        "k",
        "e"
      ],
      [
        "Ġu",
        "nder"
      ],
      [
        "Ġhydra",
        "tion"
      ],
      [
        "Ġlo",
        "af"
      ],
      [
        "ic",
        "e"
      ],
      [
        "e",
        "p"
      ],
      [
        "Ġ",
        "qu"
      ],
      [
        "Ġa",
        "l"
      ],
      [
        "Ġte",
        "mp"
      ],
      [
        "he",
        "at"
      ],
      [
        "Ġl",
        "i"
      ],
      [
        "Ġu",
        "se"
      ],
      [
        "Ġ",
        "B"
      ],
      [
        "Ġs",
        "l"
      ],
      [
        "Ġd",
        "i"
      ],
      [
        "c",
        "t"
      ],
      [
        "Ġh",
        "our"
      ],
      [
        "Ġp",
        "re"
      ],
      [
        "Ġc",
        "old"
      ],
      [
        "ro",
        "m"
      ],
      [
        "ul",
        "k"
      ],
      [
        "Ġ",
        "v"
      ],
      [
        "Ġw",
        "e"
      ],
      [
        "Ġd",
        "is"
      ],
      [
        "ute",
        "s"
      ],
      [
        "Ġf",
        "rom"
      ],
      [
        "il",
        "d"
      ],
      [
        "ur",
        "ing"
      ],
      [
        "Ġcru",
        "mb"
      ],
      [
        "Ġb",
        "u"
      ],
      [
        ")",
        ","
      ],
      [
        "Ġc",
        "an"
      ],
      [
        "on",
        "g"
      ],
      [
        "Ġr",
        "is"
      ],
      [
        "i",
        "p"
      ],
      [
        "ou",
        "l"
      ],
      [
        "b",
        "le"
      ],
      [
        "e",
        "ast"
      ],
      [
        "Ġ",
        "en"
      ],
      [
        "Ġmin",
        "utes"
      ],
      [
        "oul",
        "d"
      ],
      [
        "a",
        "y"
      ],
      [
        "Ġste",
        "am"
      ],
      [
        "i",
        "x"
      ],
      [
        "Ġ",
        "8"
      ],
      [
        "erat",
        "ure"
      ],
      [
        "al",
        "l"
      ],
      [
        "Ġb",
        "ulk"
      ],
      [
        "Ġd",
        "uring"
      ],
      [
        "Ġ",
        "7"
      ],
      [
        "Ġtemp",
        "erature"
      ],
      [
        "Ġs",
        "u"
      ],
      [
        "a",
        "u"
      ],
      [
        "Ġwh",
        "en"
      ],
      [
        "Ġle",
        "v"
      ],
      [
        "Ġ",
        "M"
      ],
      [
        "Ġf",
        "old"
      ],
      [
        "Ġy",
        "east"
      ],
      [
        "Ġp",
        "an"
      ],
      [
        "Ġp",
        "er"
      ],
      [
        "Ġin",
        "s"
      ],
      [
        "r",
        "ing"
      ],
      [
        "al",
        "t"
      ],
      [
        "p",
        "p"
      ],
      [
        "Ġ5",
        "0"
      ],
      [
        "ta",
        "in"
      ],
      [
        "as",
        "e"
      ],
      [
        "re",
        "d"
      ],
      [
        "Ġb",
        "l"
      ],
      [
        "o",
        "m"
      ],
      [
        "ti",
        "l"
      ],
      [
        "Ġdo",
        "es"
      ],
      [
        "Ġ10",
        "0"
      ],
      [
        "es",
        "tion"
      ],
      [
        "Ġqu",
        "estion"
      ],
      [
        "f",
        "ore"
      ],
      [
        "Ġhour",
        "s"
      ],
      [
        "a",
        "tion"
      ],
      [
        "o",
        "le"
      ],
      [
        "Ġlev",
        "ain"
      ],
      [
        "ta",
        "l"
      ],
      [
        "ac",
        "e"
      ],
      [
        "Ġs",
        "c"
      ],
      [
        "Ġsh",
        "ould"
      ],
      [
        "i",
        "a"
      ],
      [
        "te",
        "d"
      ],
      [
        "ĠWh",
        "y"
      ],
      [
        "Ġs",
        "m"
      ],
      [
        "u",
        "c"
      ],
      [
        "Ġbe",
        "fore"
      ],
      [
        "Ġs",
        "e"
      ],
      [
        "Ġ3",
        "0"
      ],
      [
        "y",
        "e"
      ],
      [
        "Ġac",
        "id"
      ],
      [
        "ac",
        "k"
      ],
      [
        "Ġad",
        "v"
      ],
      [
        "Ġ",
        "6"
      ],
      [
        "Ġwith",
        "out"
      ],
      [
        "b",
        "les"
      ],
      [
        "Ġth",
        "at"
      ],
      [
        "Ġun",
        "til"
      ],
      [
        "ar",
        "m"
      ],
      [
        "Ġsp",
        "ring"
      ],
      [
        "Ġm",
        "ix"
      ],
      [
        "si",
        "on"
      ],
      [
        "i",
        "z"
      ],
      [
        "Ġ",
        "k"
      ],
      [
        "Ġris",
        "e"
      ],
      [
        "Ġb",
        "ot"
      ],
      [
        "ĠC",
        "an"
      ],
      [
        "Ġh",
        "and"
      ],
      [
        "in",
        "e"
      ],
      [
        "c",
        "ard"
      ],
      [
        "at",
        "h"
      ],
      [
        "ate",
        "d"
      ],
      [
        "Ġ",
        "Us"
      ],
      [
        "Ġ",
        "j"
      ],
      [
        "i",
        "le"
      ],
      [
        "Ġa",
        "b"
      ],
      [
        "Ġw",
        "arm"
      ],
      [
        "Ġshap",
        "ing"
      ],
      [
        "t",
        "ch"
      ],
      [
        "Ġst",
        "r"
      ],
      [
        "Ġre",
        "c"
      ],
      [
        "tar",
        "d"
      ],
      [
        "Ġli",
        "ke"
      ],
      [
        "ĠT",
        "h"
      ],
      [
        "o",
        "d"
      ],
      [
        "Ġ",
        "he"
      ],
      [
        "Ġr",
        "ye"
      ],
      [
        "ak",
        "e"
      ],
      [
        "Ġs",
        "ta"
      ],
      [
        "tic",
        "k"
      ],
      [
        "Ġbak",
        "er"
      ],
      [
        "ĠF",
        "or"
      ],
      [
        "i",
        "ent"
      ],
      [
        "mp",
        "le"
      ],
      [
        "Ġh",
        "igh"
      ],
      [
        "Ġs",
        "tick"
      ],
      [
        "p",
        "en"
      ],
      [
        "Ġper",
        "c"
      ],
      [
        "r",
        "ou"
      ],
      [
        "Ġ",
        "R"
      ],
      [
        "Ġs",
        "alt"
      ],
      [
        "Ġm",
        "e"
      ],
      [
        "ic",
        "h"
      ],
      [
        "Ġf",
        "eed"
      ],
      [
        "to",
        "m"
      ],
      [
        "Ġp",
        "ar"
      ],
      [
        "Ġc",
        "au"
      ],
      [
        "Ġy",
        "ou"
      ],
      [
        "ĠI",
        "n"
      ],
      [
        "Ġbot",
        "tom"
      ],
      [
        "Ġwh",
        "ole"
      ],
      [
        "Ġperc",
        "enta"
      ],
      [
        "Ġs",
        "ur"
      ],
      [
        "o",
        "ot"
      ],
      [
        "el",
        "l"
      ],
      [
        "ro",
        "w"
      ],
      [
        "s",
        "h"
      ],
      [
        "ate",
        "s"
      ],
      [
        "Ġal",
        "l"
      ],
      [
        "is",
        "t"
      ],
      [
        "te",
        "n"
      ],
      [
        "Ġt",
        "ra"
      ],
      [
        "Ġu",
        "s"
      ],
      [
        "Ġadv",
        "ice"
      ],
      [
        "ay",
        "s"
      ],
      [
        "Ġ",
        "9"
      ],
      [
        "ow",
        "n"
      ],
      [
        "es",
        "s"
      ],
      [
        "Ġwe",
        "ight"
      ],
      [
        "d",
        "uc"
      ],
      [
        "Ġcon",
        "tain"
      ],
      [
        "Ġh",
        "ow"
      ],
      [
        "it",
        "y"
      ],
      [
        "t",
        "s"
      ],
      [
        "m",
        "ed"
      ],
      [
        "u",
        "p"
      ],
      [
        "Ġf",
        "ir"
      ],
      [
        "'",
        "s"
      ],
      [
        "Ġex",
        "p"
      ],
      [
        "o",
        "c"
      ],
      [
        "Ġs",
        "ti"
      ],
      [
        "Ġu",
        "p"
      ],
      [
        "o",
        "p"
      ],
      [
        "Ġstick",
        "y"
      ],
      [
        "Ġad",
        "d"
      ],
      [
        "Ġste",
        "el"
      ],
      [
        "ic",
        "k"
      ],
      [
        "Ġfold",
        "s"
      ],
      [
        "Ġin",
        "c"
      ],
      [
        "al",
        "ly"
      ],
      [
        "w",
        "e"
      ],
      [
        "Ġm",
        "o"
      ],
      [
        "Ġpro",
        "of"
      ],
      [
        "ent",
        "ly"
      ],
      [
        "ur",
        "n"
      ],
      [
        "Ġcau",
        "s"
      ],
      [
        "f",
        "ter"
      ],
      [
        "Ġ1",
        "2"
      ],
      [
        "on",
        "e"
      ],
      [
        "Ġac",
        "ti"
      ],
      [
        "c",
        "e"
      ],
      [
        "Ġt",
        "im"
      ],
      [
        "he",
        "d"
      ],
      [
        "Ġ",
        "L"
      ],
      [
        "on",
        "d"
      ],
      [
        "Ġdis",
        "card"
      ],
      [
        "ĠUs",
        "e"
      ],
      [
        "Ġ",
        "out"
      ],
      [
        "Ġpro",
        "te"
      ],
      [
        "re",
        "tch"
      ],
      [
        "Ġto",
        "tal"
      ],
      [
        "Ġsur",
        "f"
      ],
      [
        "a",
        "ve"
      ],
      [
        "g",
        "g"
      ],
      [
        "Ġc",
        "h"
      ],
      [
        "Ġro",
        "om"
      ],
      [
        "Ġrec",
        "ip"
      ],
      [
        "Ġth",
        "en"
      ],
      [
        "Ġw",
        "et"
      ],
      [
        "Ġs",
        "k"
      ],
      [
        "ĠA",
        "n"
      ],
      [
        "Ġth",
        "an"
      ],
      [
        "Ġbu",
        "ild"
      ],
      [
        "?",
        "?"
      ],
      [
        "Ġf",
        "r"
      ],
      [
        "Ġn",
        "ot"
      ],
      [
        "Ġl",
        "ow"
      ],
      [
        "ul",
        "l"
      ],
      [
        "ar",
        "y"
      ],
      [
        "ak",
        "ing"
      ],
      [
        "Ġm",
        "ain"
      ],
      [
        "Ġc",
        "re"
      ],
      [
        "Ġte",
        "n"
      ],
      [
        "Ġsurf",
        "ace"
      ],
      [
        "ac",
        "ter"
      ],
      [
        "Ġbl",
        "is"
      ],
      [
        "Ġw",
        "heat"
      ],
      [
        "t",
        "h"
      ],
      [
        "Ġs",
        "o"
      ],
      [
        "le",
        "d"
      ],
      [
        "erm",
        "ent"
      ],
      [
        "Ġb",
        "a"
      ],
      [
        "Ġb",
        "acter"
      ],
      [
        "av",
        "es"
      ],
      [
        "um",
        "m"
      ],
      [
        "l",
        "l"
      ],
      [
        "en",
        "se"
      ],
      [
        "an",
        "s"
      ],
      [
        "Ġb",
        "ut"
      ],
      [
        "t",
        "ing"
      ],
      [
        "Ġwh",
        "ile"
      ],
      [
        "v",
        "el"
      ],
      [
        "vel",
        "op"
      ],
      [
        "Ġst",
        "retch"
      ],
      [
        "g",
        "ar"
      ],
      [
        "il",
        "l"
      ],
      [
        "he",
        "s"
      ],
      [
        "Ġco",
        "ol"
      ],
      [
        "Ġ",
        "heat"
      ],
      [
        "Ġw",
        "ild"
      ],
      [
        "ut",
        "ch"
      ],
      [
        "v",
        "ide"
      ],
      [
        "um",
        "e"
      ],
      [
        "f",
        "ermentation"
      ],
      [
        "Ġh",
        "as"
      ],
      [
        "r",
        "y"
      ],
      [
        "Ġt",
        "urn"
      ],
      [
        "ĠI",
        "t"
      ],
      [
        "Ġ2",
        "4"
      ],
      [
        "Ġbu",
        "b"
      ],
      [
        "i",
        "f"
      ],
      [
        "Ġpercenta",
        "ge"
      ],
      [
        "Ġl",
        "ong"
      ],
      [
        "av",
        "or"
      ],
      [
        "Ġfor",
        "m"
      ],
      [
        ")",
        "."
      ],
      [
        "g",
        "ra"
      ],
      [
        "Ġshap",
        "e"
      ],
      [
        "ĠTh",
        "is"
      ],
      [
        "Ġto",
        "p"
      ],
      [
        "Ġro",
        "ck"
      ],
      [
        "Ġj",
        "ar"
      ],
      [
        "i",
        "ve"
      ],
      [
        "Ġ",
        "/"
      ],
      [
        "n",
        "et"
      ],
      [
        "Ġb",
        "an"
      ],
      [
        "net",
        "on"
      ],
      [
        "Ġban",
        "neton"
      ],
      [
        "Ġd",
        "ense"
      ],
      [
        "g",
        "es"
      ],
      [
        "Ġs",
        "eed"
      ],
      [
        "Ġre",
        "f"
      ],
      [
        "Ġb",
        "en"
      ],
      [
        "Ġg",
        "ently"
      ],
      [
        "Ġpro",
        "duc"
      ],
      [
        "ĠD",
        "utch"
      ],
      [
        "Ġ",
        "ke"
      ],
      [
        "Ġs",
        "et"
      ],
      [
        "Ġke",
        "ep"
      ],
      [
        "Ġa",
        "s"
      ],
      [
        "Ġe",
        "ar"
      ],
      [
        "Ġ",
        "N"
      ],
      [
        "Ġd",
        "own"
      ],
      [
        "Ġof",
        "f"
      ],
      [
        "Ġdi",
        "re"
      ],
      [
        "Ġsu",
        "gar"
      ],
      [
        "Ġus",
        "ing"
      ],
      [
        "Ġbacter",
        "ia"
      ],
      [
        "i",
        "ly"
      ],
      [
        "o",
        "s"
      ],
      [
        "Ġb",
        "o"
      ],
      [
        "Ġex",
        "c"
      ],
      [
        "ĠM",
        "y"
      ],
      [
        "Ġten",
        "sion"
      ],
      [
        "h",
        "oot"
      ],
      [
        "m",
        "ent"
      ],
      [
        "Ġc",
        "up"
      ],
      [
        "bles",
        "hoot"
      ],
      [
        "rou",
        "bleshoot"
      ],
      [
        "row",
        "n"
      ],
      [
        "roubleshoot",
        "ing"
      ],
      [
        "n",
        "e"
      ],
      [
        "u",
        "ff"
      ],
      [
        "Ġ",
        "E"
      ],
      [
        "en",
        "s"
      ],
      [
        "es",
        "t"
      ],
      [
        "Ġh",
        "ave"
      ],
      [
        "7",
        "5"
      ],
      [
        "Ġfl",
        "at"
      ],
      [
        "pp",
        "ed"
      ],
      [
        "id",
        "ge"
      ],
      [
        "Ġfr",
        "idge"
      ],
      [
        "Ġv",
        "ol"
      ],
      [
        "m",
        "m"
      ],
      [
        "u",
        "st"
      ],
      [
        "im",
        "med"
      ],
      [
        "Ġsm",
        "ell"
      ],
      [
        "Ġwh",
        "at"
      ],
      [
        "Ġde",
        "ep"
      ],
      [
        "l",
        "u"
      ],
      [
        "Ġ",
        "K"
      ],
      [
        "ĠI",
        "f"
      ],
      [
        "Ġi",
        "f"
      ],
      [
        "Ġf",
        "in"
      ],
      [
        "tion",
        "s"
      ],
      [
        "Ġl",
        "ac"
      ],
      [
        "v",
        "en"
      ],
      [
        "Ġfir",
        "st"
      ],
      [
        "Ġa",
        "re"
      ],
      [
        "ate",
        "ly"
      ],
      [
        "Ġg",
        "as"
      ],
      [
        "o",
        "od"
      ],
      [
        "c",
        "ul"
      ],
      [
        "Ġc",
        "le"
      ],
      [
        "Ġo",
        "pen"
      ],
      [
        "Ġcle",
        "an"
      ],
      [
        "Ġte",
        "ar"
      ],
      [
        "l",
        "a"
      ],
      [
        "Ġcon",
        "s"
      ],
      [
        "Ġl",
        "id"
      ],
      [
        "si",
        "ve"
      ],
      [
        "Ġsta",
        "nd"
      ],
      [
        "in",
        "s"
      ],
      [
        "at",
        "ing"
      ],
      [
        "Ġ",
        "ru"
      ],
      [
        "ĠT",
        "he"
      ],
      [
        "Ġtim",
        "e"
      ],
      [
        "ri",
        "g"
      ],
      [
        "in",
        "n"
      ],
      [
        "Ġ1",
        "5"
      ],
      [
        "5",
        "0"
      ],
      [
        "Ġcontain",
        "s"
      ],
      [
        "e",
        "ver"
      ],
      [
        "Ġa",
        "fter"
      ],
      [
        "Ġin",
        "ch"
      ],
      [
        "Ġhand",
        "s"
      ],
      [
        "Ġref",
        "rig"
      ],
      [
        "Ġre",
        "ac"
      ],
      [
        "e",
        "y"
      ],
      [
        "ĠD",
        "o"
      ],
      [
        "Ġmo",
        "ist"
      ],
      [
        "Ġsk",
        "in"
      ],
      [
        "Ġdire",
        "ct"
      ],
      [
        "ly",
        "se"
      ],
      [
        "Ġpre",
        "v"
      ],
      [
        "Ġmix",
        "ing"
      ],
      [
        "Ġsti",
        "ff"
      ],
      [
        "Ġbut",
        "ter"
      ],
      [
        "p",
        "ro"
      ],
      [
        "Ġh",
        "ot"
      ],
      [
        "id",
        "es"
      ],
      [
        "n",
        "ot"
      ],
      [
        "er",
        "e"
      ],
      [
        "er",
        "s"
      ],
      [
        "re",
        "e"
      ],
      [
        "Ġac",
        "c"
      ],
      [
        "Ġcan",
        "not"
      ],
      [
        "Ġvol",
        "ume"
      ],
      [
        "Ġle",
        "t"
      ],
      [
        "Ġrock",
        "s"
      ],
      [
        "Ġf",
        "erment"
      ],
      [
        "d",
        "er"
      ],
      [
        "Ġ",
        "immed"
      ],
      [
        "Ġc",
        "he"
      ],
      [
        "Ġm",
        "ic"
      ],
      [
        "Ġg",
        "ra"
      ],
      [
        "Ġstr",
        "ong"
      ],
      [
        "Ġimmed",
        "i"
      ],
      [
        "te",
        "red"
      ],
      [
        "Ġto",
        "o"
      ],
      [
        "Ġlo",
        "aves"
      ],
      [
        "ĠS",
        "ourdough"
      ],
      [
        "Ġde",
        "velop"
      ],
      [
        "ir",
        "on"
      ],
      [
        "Ġtra",
        "pped"
      ],
      [
        "Ġacti",
        "ve"
      ],
      [
        "Ġprev",
        "ent"
      ],
      [
        "Ġb",
        "et"
      ],
      [
        "of",
        "t"
      ],
      [
        "Ġo",
        "il"
      ],
      [
        "Ġsl",
        "ow"
      ],
      [
        "Ġcaus",
        "ed"
      ],
      [
        "o",
        "k"
      ],
      [
        "Ġra",
        "ck"
      ],
      [
        "ed",
        "ic"
      ],
      [
        "Ġ9",
        "0"
      ],
      [
        "Ġb",
        "rown"
      ],
      [
        "%",
        "),"
      ],
      [
        "z",
        "y"
      ],
      [
        "Ġa",
        "m"
      ],
      [
        "at",
        "in"
      ],
      [
        "ak",
        "es"
      ],
      [
        "Ġl",
        "ar"
      ],
      [
        "el",
        "atin"
      ],
      [
        "Ġsc",
        "ore"
      ],
      [
        "p",
        "id"
      ],
      [
        "r",
        "ic"
      ],
      [
        "a",
        "le"
      ],
      [
        "u",
        "n"
      ],
      [
        "is",
        "h"
      ],
      [
        "el",
        "ow"
      ],
      [
        "Ġin",
        "d"
      ],
      [
        "it",
        "ch"
      ],
      [
        "Ġre",
        "tard"
      ],
      [
        "Ġco",
        "mple"
      ],
      [
        "Ġ4",
        "0"
      ],
      [
        "in",
        "k"
      ],
      [
        "Ġg",
        "umm"
      ],
      [
        "Ġg",
        "elatin"
      ],
      [
        "Ġlac",
        "tic"
      ],
      [
        "Ġfl",
        "avor"
      ],
      [
        "Ġrecip",
        "e"
      ],
      [
        "l",
        "ace"
      ],
      [
        "s",
        "or"
      ],
      [
        "ter",
        "n"
      ],
      [
        "al",
        "cul"
      ],
      [
        "Ġab",
        "sor"
      ],
      [
        "c",
        "hes"
      ],
      [
        "en",
        "ted"
      ],
      [
        "Ġb",
        "elow"
      ],
      [
        "as",
        "ter"
      ],
      [
        "Ġ2",
        "5"
      ],
      [
        "erm",
        "ented"
      ],
      [
        "Ġk",
        "n"
      ],
      [
        "Ġba",
        "tard"
      ],
      [
        "Ġgumm",
        "y"
      ],
      [
        "ofte",
        "n"
      ],
      [
        "ĠAn",
        "y"
      ],
      [
        "le",
        "ase"
      ],
      [
        "Ġon",
        "e"
      ],
      [
        "ĠH",
        "ey"
      ],
      [
        "Ġ7",
        "5"
      ],
      [
        "a",
        "nt"
      ],
      [
        "Ġ7",
        "8"
      ],
      [
        "Ġb",
        "ow"
      ],
      [
        "re",
        "ase"
      ],
      [
        "ure",
        "s"
      ],
      [
        "Ġbow",
        "l"
      ],
      [
        "Ġmoist",
        "ure"
      ],
      [
        "Ġdirect",
        "ly"
      ],
      [
        "Ġd",
        "ry"
      ],
      [
        "Ġw",
        "r"
      ],
      [
        "Ġre",
        "m"
      ],
      [
        "Ġ",
        "="
      ],
      [
        "ou",
        "nd"
      ],
      [
        "Ġh",
        "ol"
      ],
      [
        "Ġstarter",
        "s"
      ],
      [
        "Ġ8",
        "0"
      ],
      [
        "p",
        "s"
      ],
      [
        "u",
        "to"
      ],
      [
        "w",
        "ays"
      ],
      [
        "Ġs",
        "af"
      ],
      [
        "Ġst",
        "one"
      ],
      [
        "e",
        "tic"
      ],
      [
        "g",
        "n"
      ],
      [
        "Ġf",
        "aster"
      ],
      [
        "Ġac",
        "etic"
      ],
      [
        "uto",
        "lyse"
      ],
      [
        "Ġs",
        "oft"
      ],
      [
        "Ġf",
        "at"
      ],
      [
        "Ġon",
        "ly"
      ],
      [
        "Ġ8",
        "5"
      ],
      [
        "Ġk",
        "itch"
      ],
      [
        "k",
        "s"
      ],
      [
        "te",
        "ly"
      ],
      [
        "en",
        "ter"
      ],
      [
        "Ġc",
        "enter"
      ],
      [
        "Ġimmedi",
        "ately"
      ],
      [
        "in",
        "ter"
      ],
      [
        "Ġs",
        "he"
      ],
      [
        "Ġm",
        "ake"
      ],
      [
        "Ġg",
        "re"
      ],
      [
        "Ġblis",
        "tered"
      ],
      [
        "Ġ",
        "O"
      ],
      [
        "te",
        "ad"
      ],
      [
        "Ġm",
        "old"
      ],
      [
        "Ġn",
        "o"
      ],
      [
        "Ġlow",
        "er"
      ],
      [
        "Ġins",
        "tead"
      ],
      [
        "red",
        "ient"
      ],
      [
        "Ġstand",
        "ard"
      ],
      [
        "Ġgelatin",
        "iz"
      ],
      [
        "Ġf",
        "ood"
      ],
      [
        "%",
        ","
      ],
      [
        "Ġ",
        "iron"
      ],
      [
        "Ġ",
        "el"
      ],
      [
        "en",
        "g"
      ],
      [
        "ar",
        "k"
      ],
      [
        "ĠT",
        "e"
      ],
      [
        "Ġbe",
        "c"
      ],
      [
        "Ġqu",
        "ick"
      ],
      [
        "Ġwe",
        "ak"
      ],
      [
        "Ġabsor",
        "b"
      ],
      [
        "Ġ",
        "ing"
      ],
      [
        "ter",
        "s"
      ],
      [
        "Ġing",
        "redient"
      ],
      [
        "l",
        "ing"
      ],
      [
        "p",
        "er"
      ],
      [
        "as",
        "tic"
      ],
      [
        "Ġd",
        "ou"
      ],
      [
        "Ġc",
        "ast"
      ],
      [
        "al",
        "s"
      ],
      [
        "Ġstar",
        "ches"
      ],
      [
        "ĠP",
        "re"
      ],
      [
        "Ġra",
        "pid"
      ],
      [
        "ĠTe",
        "mp"
      ],
      [
        "ru",
        "ct"
      ],
      [
        "Ġst",
        "ruct"
      ],
      [
        "Ġproof",
        "ing"
      ],
      [
        "Ġd",
        "ri"
      ],
      [
        "ff",
        "er"
      ],
      [
        "gra",
        "d"
      ],
      [
        "2",
        "0"
      ],
      [
        "i",
        "ti"
      ],
      [
        "Ġb",
        "est"
      ],
      [
        "ĠS",
        "h"
      ],
      [
        "Ġins",
        "ide"
      ],
      [
        "Ġ",
        "ed"
      ],
      [
        "all",
        "ow"
      ],
      [
        "ath",
        "er"
      ],
      [
        "o",
        "ve"
      ],
      [
        "Ġen",
        "zy"
      ],
      [
        "Ġ6",
        "5"
      ],
      [
        "Ġenzy",
        "m"
      ],
      [
        "Ġfin",
        "al"
      ],
      [
        "Ġe",
        "as"
      ],
      [
        "Ġon",
        "to"
      ],
      [
        "Ġall",
        "ow"
      ],
      [
        "or",
        "k"
      ],
      [
        "Ġra",
        "ti"
      ],
      [
        "we",
        "en"
      ],
      [
        "Ġbet",
        "ween"
      ],
      [
        "Ġlar",
        "ge"
      ],
      [
        "b",
        "ly"
      ],
      [
        "or",
        "m"
      ],
      [
        "Ġp",
        "ale"
      ],
      [
        "Ġsu",
        "pp"
      ],
      [
        "au",
        "se"
      ],
      [
        "u",
        "b"
      ],
      [
        "Ġc",
        "l"
      ],
      [
        "i",
        "al"
      ],
      [
        "Ġb",
        "re"
      ],
      [
        "Ġw",
        "inter"
      ],
      [
        "Ġbub",
        "bles"
      ],
      [
        "Ġbec",
        "ause"
      ],
      [
        "Ġrati",
        "o"
      ],
      [
        "e",
        "ep"
      ],
      [
        "Ġd",
        "ays"
      ],
      [
        "ĠK",
        "eep"
      ],
      [
        "Ġe",
        "qu"
      ],
      [
        "ou",
        "s"
      ],
      [
        "ĠD",
        "is"
      ],
      [
        "Ġsp",
        "read"
      ],
      [
        "ip",
        "s"
      ],
      [
        "Ġ50",
        "0"
      ],
      [
        "ent",
        "s"
      ],
      [
        "Ġth",
        "in"
      ],
      [
        "Ġadd",
        "ing"
      ],
      [
        "??",
        "?"
      ],
      [
        "a",
        "mple"
      ],
      [
        "er",
        "ate"
      ],
      [
        "Ġp",
        "ull"
      ],
      [
        "Ġs",
        "we"
      ],
      [
        "Ġc",
        "r"
      ],
      [
        "f",
        "ermented"
      ],
      [
        "Ġl",
        "ight"
      ],
      [
        "Ġr",
        "im"
      ],
      [
        "Ġsm",
        "all"
      ],
      [
        "Ġben",
        "ch"
      ],
      [
        "Ġsaf",
        "e"
      ],
      [
        "Ġshe",
        "et"
      ],
      [
        "i",
        "te"
      ],
      [
        "ta",
        "n"
      ],
      [
        "rou",
        "nd"
      ],
      [
        "1",
        "0"
      ],
      [
        "Ġm",
        "ad"
      ],
      [
        "ic",
        "ient"
      ],
      [
        "Ġwh",
        "y"
      ],
      [
        "Ġro",
        "ll"
      ],
      [
        "Ġb",
        "ond"
      ],
      [
        "Ġf",
        "il"
      ],
      [
        "Ġc",
        "ul"
      ],
      [
        "sion",
        "s"
      ],
      [
        "lu",
        "sions"
      ],
      [
        "f",
        "t"
      ],
      [
        "qu",
        "i"
      ],
      [
        "Ġan",
        "y"
      ],
      [
        "Ġcre",
        "ates"
      ],
      [
        "w",
        "ich"
      ],
      [
        "Ġs",
        "and"
      ],
      [
        "Ġsmell",
        "s"
      ],
      [
        "Ġcr",
        "is"
      ],
      [
        "Ġsand",
        "wich"
      ],
      [
        "Ġh",
        "old"
      ],
      [
        "g",
        "et"
      ],
      [
        "or",
        "n"
      ],
      [
        "Ġm",
        "ore"
      ],
      [
        "el",
        "t"
      ],
      [
        "ĠT",
        "roubleshooting"
      ],
      [
        "Ġf",
        "ru"
      ],
      [
        "Ġm",
        "a"
      ],
      [
        "Ġwh",
        "ich"
      ],
      [
        "Ġcon",
        "d"
      ],
      [
        "Ġco",
        "il"
      ],
      [
        "Ġmic",
        "ro"
      ],
      [
        "as",
        "ed"
      ],
      [
        "les",
        "s"
      ],
      [
        "Ġd",
        "ark"
      ],
      [
        "Ġm",
        "u"
      ],
      [
        "Ġli",
        "qu"
      ],
      [
        "Ġprote",
        "in"
      ],
      [
        "as",
        "te"
      ],
      [
        "erat",
        "or"
      ],
      [
        "Ġrefrig",
        "erator"
      ],
      [
        "v",
        "ides"
      ],
      [
        "Ġ",
        "ol"
      ],
      [
        "te",
        "nt"
      ],
      [
        "Ġsh",
        "allow"
      ],
      [
        "Ġpro",
        "vides"
      ],
      [
        "Ġ3",
        "75"
      ],
      [
        "ver",
        "y"
      ],
      [
        "Ġi",
        "mp"
      ],
      [
        "Ġol",
        "ive"
      ],
      [
        "e",
        "at"
      ],
      [
        "ac",
        "hed"
      ],
      [
        "ĠWh",
        "en"
      ],
      [
        "e",
        "c"
      ],
      [
        "o",
        "ol"
      ],
      [
        "Ġa",
        "utolyse"
      ],
      [
        "b",
        "er"
      ],
      [
        "Ġc",
        "alcul"
      ],
      [
        "ro",
        "ss"
      ],
      [
        "ul",
        "a"
      ],
      [
        "ch",
        "ment"
      ],
      [
        "ĠP",
        "ro"
      ],
      [
        "Ġpar",
        "chment"
      ],
      [
        "Ġb",
        "r"
      ],
      [
        "Ġt",
        "ips"
      ],
      [
        "Ġl",
        "am"
      ],
      [
        "av",
        "a"
      ],
      [
        "Ġpar",
        "ts"
      ],
      [
        "Ġsugar",
        "s"
      ],
      [
        "Ġwr",
        "ong"
      ],
      [
        "Ġp",
        "H"
      ],
      [
        "Ġeas",
        "ily"
      ],
      [
        "i",
        "qu"
      ],
      [
        "Ġb",
        "at"
      ],
      [
        "inn",
        "er"
      ],
      [
        "Ġmu",
        "ch"
      ],
      [
        "o",
        "ck"
      ],
      [
        "Ġsm",
        "oot"
      ],
      [
        "Ġsmoot",
        "h"
      ],
      [
        "r",
        "ans"
      ],
      [
        "Ġa",
        "ssistant"
      ],
      [
        "Ġb",
        "ack"
      ],
      [
        "Ġm",
        "at"
      ],
      [
        "Ġl",
        "ava"
      ],
      [
        "Ġbak",
        "ed"
      ],
      [
        "ĠT",
        "o"
      ],
      [
        "ĠP",
        "lace"
      ],
      [
        "ĠIn",
        "c"
      ],
      [
        "is",
        "e"
      ],
      [
        "Ġw",
        "ill"
      ],
      [
        "Ġp",
        "r"
      ],
      [
        "Ġre",
        "la"
      ],
      [
        "Ġe",
        "ven"
      ],
      [
        "Ġfeed",
        "ing"
      ],
      [
        "Ġt",
        "in"
      ],
      [
        "Ġt",
        "ap"
      ],
      [
        "Ġp",
        "ap"
      ],
      [
        "ĠP",
        "lease"
      ],
      [
        "Ġhe",
        "l"
      ],
      [
        "Ġequ",
        "al"
      ],
      [
        "Ġliqu",
        "id"
      ],
      [
        "Ġpap",
        "er"
      ],
      [
        "es",
        "sive"
      ],
      [
        "Ġme",
        "as"
      ],
      [
        "sh",
        "ap"
      ],
      [
        "Ġingredient",
        "s"
      ],
      [
        "Ġswe",
        "et"
      ],
      [
        "Ġs",
        "ou"
      ],
      [
        "Ġs",
        "to"
      ],
      [
        "re",
        "ss"
      ],
      [
        "ri",
        "b"
      ],
      [
        "Ġacti",
        "v"
      ],
      [
        "Ġcomple",
        "tely"
      ],
      [
        "Ġsou",
        "p"
      ],
      [
        "e",
        "ct"
      ],
      [
        "g",
        "le"
      ],
      [
        "Ġw",
        "ent"
      ],
      [
        "Ġc",
        "ou"
      ],
      [
        "Ġre",
        "st"
      ],
      [
        "il",
        "k"
      ],
      [
        "Ġsl",
        "ack"
      ],
      [
        "Ġsc",
        "or"
      ],
      [
        "Ġcaus",
        "es"
      ],
      [
        "ĠN",
        "ever"
      ],
      [
        "Ġkitch",
        "en"
      ],
      [
        ")",
        ".<|"
      ],
      [
        "x",
        "im"
      ],
      [
        "y",
        "s"
      ],
      [
        "er",
        "ated"
      ],
      [
        "ul",
        "ation"
      ],
      [
        "ĠA",
        "l"
      ],
      [
        "Ġpro",
        "vide"
      ],
      [
        "Ġadv",
        "ise"
      ],
      [
        "mm",
        "er"
      ],
      [
        "l",
        "or"
      ],
      [
        "r",
        "ough"
      ],
      [
        "s",
        "es"
      ],
      [
        "te",
        "nd"
      ],
      [
        "Ġth",
        "rough"
      ],
      [
        "Ġst",
        "ra"
      ],
      [
        "ĠB",
        "aking"
      ],
      [
        "Ġru",
        "b"
      ],
      [
        "Ġm",
        "ilk"
      ],
      [
        "Ġre",
        "ad"
      ],
      [
        "Ġsl",
        "ic"
      ],
      [
        "Ġinc",
        "lusions"
      ],
      [
        "Ġear",
        "ly"
      ],
      [
        "Ġt",
        "rans"
      ],
      [
        "Ġd",
        "el"
      ],
      [
        "Ġn",
        "eed"
      ],
      [
        "Ġ4",
        "5"
      ],
      [
        "Ġrecip",
        "es"
      ],
      [
        "ĠDis",
        "card"
      ],
      [
        "D",
        "T"
      ],
      [
        "if",
        "e"
      ],
      [
        "Ġkn",
        "ife"
      ],
      [
        "Ġ",
        "end"
      ],
      [
        "Ġc",
        "ut"
      ],
      [
        "ĠF",
        "eed"
      ],
      [
        "Ġsp",
        "eed"
      ],
      [
        "Ġins",
        "tant"
      ],
      [
        "Ġfir",
        "m"
      ],
      [
        "m",
        "an"
      ],
      [
        "Ġa",
        "ir"
      ],
      [
        "Ġco",
        "ok"
      ],
      [
        "Ġtear",
        "ing"
      ],
      [
        "Ġhol",
        "es"
      ],
      [
        "o",
        "id"
      ],
      [
        "Ġs",
        "i"
      ],
      [
        "Ġg",
        "old"
      ],
      [
        "il",
        "ing"
      ],
      [
        "Ġsp",
        "elt"
      ],
      [
        "Ġshap",
        "ed"
      ],
      [
        "Ġmain",
        "tain"
      ],
      [
        "Ġrapid",
        "ly"
      ],
      [
        "Ġgold",
        "en"
      ],
      [
        "u",
        "ally"
      ],
      [
        "Ġ1",
        "6"
      ],
      [
        "Ġte",
        "st"
      ],
      [
        "ĠA",
        "fter"
      ],
      [
        "ia",
        "nt"
      ],
      [
        "ĠUs",
        "ing"
      ],
      [
        "i",
        "el"
      ],
      [
        "Ġ",
        "+"
      ],
      [
        "in",
        "ary"
      ],
      [
        "Ġde",
        "g"
      ],
      [
        "ĠB",
        "e"
      ],
      [
        "iel",
        "d"
      ],
      [
        "c",
        "o"
      ],
      [
        "i",
        "ble"
      ],
      [
        "Ġh",
        "ard"
      ],
      [
        "Ġins",
        "uff"
      ],
      [
        "oc",
        "ulation"
      ],
      [
        "pro",
        "of"
      ],
      [
        "Ġinsuff",
        "icient"
      ],
      [
        "Ġs",
        "our"
      ],
      [
        "Ġform",
        "ula"
      ],
      [
        "ĠN",
        "eed"
      ],
      [
        "Ġscor",
        "ing"
      ],
      [
        "2",
        "4"
      ],
      [
        "p",
        "or"
      ],
      [
        "Ġt",
        "ight"
      ],
      [
        "or",
        "por"
      ],
      [
        "Ġre",
        "qui"
      ],
      [
        "ĠC",
        "h"
      ],
      [
        "Ġhe",
        "av"
      ],
      [
        "ĠAl",
        "ways"
      ],
      [
        "Ġe",
        "very"
      ],
      [
        "Ġcon",
        "t"
      ],
      [
        "Ġhel",
        "p"
      ],
      [
        "Ġd",
        "u"
      ],
      [
        "Ġac",
        "ross"
      ],
      [
        "Ġacc",
        "el"
      ],
      [
        "tern",
        "al"
      ],
      [
        "Ġstruct",
        "ure"
      ],
      [
        "Ġbond",
        "s"
      ],
      [
        "n",
        "ter"
      ],
      [
        "s",
        "w"
      ],
      [
        "Ġl",
        "ack"
      ],
      [
        "Ġan",
        "sw"
      ],
      [
        "Ġcou",
        "nter"
      ],
      [
        "6",
        "8"
      ],
      [
        "y",
        "l"
      ],
      [
        "Ġd",
        "a"
      ],
      [
        "Ġh",
        "ap"
      ],
      [
        "as",
        "es"
      ],
      [
        "ĠH",
        "and"
      ],
      [
        "Ġpercenta",
        "ges"
      ],
      [
        "Ġinc",
        "rease"
      ],
      [
        "Ġbre",
        "ak"
      ],
      [
        "Ġhap",
        "pen"
      ],
      [
        "l",
        "our"
      ],
      [
        "m",
        "ol"
      ],
      [
        "in",
        "a"
      ],
      [
        "ac",
        "t"
      ],
      [
        "ul",
        "ly"
      ],
      [
        "re",
        "sh"
      ],
      [
        "Ġfl",
        "akes"
      ],
      [
        "Ġrela",
        "x"
      ],
      [
        "f",
        "orm"
      ],
      [
        "z",
        "e"
      ],
      [
        "ĠI",
        "s"
      ],
      [
        "Ġ2",
        "7"
      ],
      [
        "ĠD",
        "i"
      ],
      [
        "Ġexp",
        "and"
      ],
      [
        "Ġgra",
        "ins"
      ],
      [
        "Ġgre",
        "ased"
      ],
      [
        "Ġed",
        "ges"
      ],
      [
        "Ġc",
        "ar"
      ],
      [
        "Ġp",
        "ow"
      ],
      [
        "Ġfl",
        "o"
      ],
      [
        "ĠW",
        "ith"
      ],
      [
        "Ġrem",
        "ain"
      ],
      [
        "a",
        "ge"
      ],
      [
        "or",
        "t"
      ],
      [
        "ĠWh",
        "ole"
      ],
      [
        "Ġde",
        "grad"
      ],
      [
        "Ġtemperature",
        "s"
      ],
      [
        "Ġind",
        "ic"
      ],
      [
        "Ġrub",
        "ber"
      ],
      [
        "Ġrequi",
        "re"
      ],
      [
        "a",
        "ble"
      ],
      [
        "Ġ",
        "ice"
      ],
      [
        "ough",
        "ly"
      ],
      [
        "Ġcon",
        "tent"
      ],
      [
        "Ġ4",
        "8"
      ],
      [
        "Ġris",
        "ing"
      ],
      [
        "Ġel",
        "astic"
      ],
      [
        "o",
        "om"
      ],
      [
        "en",
        "ce"
      ],
      [
        "Ġstar",
        "t"
      ],
      [
        "Ġwh",
        "ite"
      ],
      [
        "Ġr",
        "ound"
      ],
      [
        "alt",
        "h"
      ],
      [
        "Ġhe",
        "alth"
      ],
      [
        "Ġturn",
        "s"
      ],
      [
        "in",
        "ation"
      ],
      [
        "Ġin",
        "ter"
      ],
      [
        "ol",
        "l"
      ],
      [
        "ad",
        "ing"
      ],
      [
        "ĠSh",
        "ould"
      ],
      [
        "i",
        "or"
      ],
      [
        "n",
        "ight"
      ],
      [
        "s",
        "ide"
      ],
      [
        "Ġt",
        "roubleshooting"
      ],
      [
        "Ġd",
        "id"
      ],
      [
        "an",
        "ce"
      ],
      [
        "Ġover",
        "night"
      ],
      [
        "ble",
        "ached"
      ],
      [
        "Ġ7",
        "0"
      ],
      [
        "Ġ6",
        "8"
      ],
      [
        "iz",
        "e"
      ],
      [
        "ĠR",
        "ye"
      ],
      [
        "Ġben",
        "e"
      ],
      [
        "Ġansw",
        "er"
      ],
      [
        "Ġhappen",
        "s"
      ],
      [
        "d",
        "d"
      ],
      [
        "g",
        "inner"
      ],
      [
        "i",
        "es"
      ],
      [
        "i",
        "tions"
      ],
      [
        "o",
        "ly"
      ],
      [
        "Ġacid",
        "ity"
      ],
      [
        "Ġstr",
        "eng"
      ],
      [
        "Ġtim",
        "es"
      ],
      [
        "proof",
        "ed"
      ],
      [
        "Ġstreng",
        "th"
      ],
      [
        "o",
        "st"
      ],
      [
        "w",
        "ard"
      ],
      [
        "er",
        "ing"
      ],
      [
        "Ġexc",
        "essive"
      ],
      [
        "Ġbatard",
        "s"
      ],
      [
        "%",
        "."
      ],
      [
        "Ġf",
        "resh"
      ],
      [
        "Ġcalcul",
        "ate"
      ],
      [
        "Ġstra",
        "ight"
      ],
      [
        "n",
        "el"
      ],
      [
        "p",
        "ar"
      ],
      [
        "v",
        "ing"
      ],
      [
        "Ġt",
        "ri"
      ],
      [
        "Ġdi",
        "vide"
      ],
      [
        "umm",
        "er"
      ],
      [
        "6",
        "5"
      ],
      [
        "g",
        "ul"
      ],
      [
        "Ġ",
        "often"
      ],
      [
        "Ġs",
        "ourd"
      ],
      [
        "Ġd",
        "edic"
      ],
      [
        "Ġm",
        "edic"
      ],
      [
        "as",
        "ta"
      ],
      [
        "Ġe",
        "gg"
      ],
      [
        "Ġr",
        "ice"
      ],
      [
        "Ġbub",
        "bly"
      ],
      [
        "Ġproduc",
        "ing"
      ],
      [
        "Ġbrown",
        "ing"
      ],
      [
        "iqu",
        "ot"
      ],
      [
        "Ġdedic",
        "ated"
      ],
      [
        "Ġ",
        "~"
      ],
      [
        "he",
        "ated"
      ],
      [
        "Ġun",
        "bleached"
      ],
      [
        "ver",
        "t"
      ],
      [
        "Ġproduc",
        "es"
      ],
      [
        "Ġbo",
        "iling"
      ],
      [
        "Ġtear",
        "s"
      ],
      [
        "Ġinter",
        "ior"
      ],
      [
        "Ġf",
        "ing"
      ],
      [
        "es",
        "i"
      ],
      [
        "Ġp",
        "h"
      ],
      [
        "Ġsh",
        "ow"
      ],
      [
        "Ġco",
        "ver"
      ],
      [
        "ff",
        "ect"
      ],
      [
        "Ġenzym",
        "es"
      ],
      [
        "a",
        "re"
      ],
      [
        "v",
        "oid"
      ],
      [
        "Ġy",
        "ield"
      ],
      [
        "Ġdo",
        "med"
      ],
      [
        "Ġpro",
        "gra"
      ],
      [
        "Ġal",
        "iquot"
      ],
      [
        "Ġcris",
        "p"
      ],
      [
        "Ġ",
        "Y"
      ],
      [
        "Ġ",
        "ou"
      ],
      [
        "Ġin",
        "iti"
      ],
      [
        "Ġunder",
        "ne"
      ],
      [
        "ĠB",
        "ulk"
      ],
      [
        "Ġblis",
        "ters"
      ],
      [
        "Ġclean",
        "ly"
      ],
      [
        "Ġmad",
        "e"
      ],
      [
        "Ġou",
        "ter"
      ],
      [
        "Ġunderne",
        "ath"
      ],
      [
        "8",
        "0"
      ],
      [
        "Ġs",
        "often"
      ],
      [
        "Ġfat",
        "s"
      ],
      [
        "Ġdri",
        "es"
      ],
      [
        "Ġcond",
        "itions"
      ],
      [
        "a",
        "il"
      ],
      [
        "f",
        "er"
      ],
      [
        "o",
        "se"
      ],
      [
        "Ġte",
        "nder"
      ],
      [
        "ut",
        "ri"
      ],
      [
        "Ġse",
        "am"
      ],
      [
        "Ġturn",
        "ed"
      ],
      [
        "Ġsupp",
        "ress"
      ],
      [
        "z",
        "or"
      ],
      [
        "Ġt",
        "un"
      ],
      [
        "Ġp",
        "our"
      ],
      [
        "Ġg",
        "en"
      ],
      [
        "ac",
        "c"
      ],
      [
        "Ġle",
        "av"
      ],
      [
        "ast",
        "ing"
      ],
      [
        "Ġro",
        "asting"
      ],
      [
        "Ġra",
        "zor"
      ],
      [
        "Ġen",
        "s"
      ],
      [
        "Ġbr",
        "an"
      ],
      [
        "Ġtun",
        "nel"
      ],
      [
        "2",
        "6"
      ],
      [
        "i",
        "e"
      ],
      [
        "s",
        "id"
      ],
      [
        "in",
        "der"
      ],
      [
        "Ġit",
        "s"
      ],
      [
        "Ġsi",
        "gn"
      ],
      [
        "Ġiniti",
        "al"
      ],
      [
        "1",
        "9"
      ],
      [
        "t",
        "ly"
      ],
      [
        "Ġa",
        "ffect"
      ],
      [
        "Ġp",
        "l"
      ],
      [
        "an",
        "ks"
      ],
      [
        "ic",
        "tly"
      ],
      [
        "ĠF",
        "lour"
      ],
      [
        "Ġstr",
        "ictly"
      ],
      [
        "ĠTh",
        "anks"
      ],
      [
        "Ġinc",
        "orpor"
      ],
      [
        "Ġspeed",
        "s"
      ],
      [
        "Ġheav",
        "y"
      ],
      [
        "19",
        "0"
      ],
      [
        "l",
        "ine"
      ],
      [
        "u",
        "nd"
      ],
      [
        "Ġf",
        "oc"
      ],
      [
        "Ġab",
        "ove"
      ],
      [
        "Ġcontain",
        "er"
      ],
      [
        "Ġba",
        "g"
      ],
      [
        "Ġreac",
        "h"
      ],
      [
        "Ġslow",
        "ly"
      ],
      [
        "Ġ",
        "ide"
      ],
      [
        "Ġb",
        "ase"
      ],
      [
        "Ġc",
        "av"
      ],
      [
        "Ġin",
        "oculation"
      ],
      [
        "el",
        "s"
      ],
      [
        "ĠS",
        "ti"
      ],
      [
        "Ġdi",
        "ffer"
      ],
      [
        "Ġpar",
        "t"
      ],
      [
        "Ġcre",
        "ate"
      ],
      [
        "utri",
        "ents"
      ],
      [
        "c",
        "tion"
      ],
      [
        "d",
        "e"
      ],
      [
        "Ġt",
        "ake"
      ],
      [
        "ly",
        "ing"
      ],
      [
        "ent",
        "os"
      ],
      [
        "all",
        "s"
      ],
      [
        "Ġ6",
        "0"
      ],
      [
        "Ġab",
        "und"
      ],
      [
        "ĠL",
        "o"
      ],
      [
        "Ġch",
        "lor"
      ],
      [
        "ĠPre",
        "heat"
      ],
      [
        "esi",
        "red"
      ],
      [
        "entos",
        "ans"
      ],
      [
        "Ġabund",
        "ant"
      ],
      [
        "m",
        "al"
      ],
      [
        "at",
        "ure"
      ],
      [
        "ar",
        "get"
      ],
      [
        "Ġe",
        "v"
      ],
      [
        "il",
        "led"
      ],
      [
        "ĠS",
        "p"
      ],
      [
        "ri",
        "x"
      ],
      [
        "Ġgelatiniz",
        "ed"
      ],
      [
        "Ġspread",
        "ing"
      ],
      [
        "Ġmat",
        "rix"
      ],
      [
        "Ġread",
        "y"
      ],
      [
        "Ġide",
        "al"
      ],
      [
        "Ġf",
        "ully"
      ],
      [
        "ĠB",
        "ake"
      ],
      [
        "gg",
        "ish"
      ],
      [
        "s",
        "ol"
      ],
      [
        "Ġs",
        "ample"
      ],
      [
        "Ġs",
        "ummer"
      ],
      [
        "Ġd",
        "ro"
      ],
      [
        "Ġc",
        "yl"
      ],
      [
        "Ġflour",
        "s"
      ],
      [
        "et",
        "s"
      ],
      [
        "om",
        "e"
      ],
      [
        "shap",
        "ing"
      ],
      [
        "Ġda",
        "ily"
      ],
      [
        "Ġp",
        "entosans"
      ],
      [
        "Ġin",
        "ternal"
      ],
      [
        "Ġse",
        "mol"
      ],
      [
        "Ġeven",
        "ly"
      ],
      [
        "Ġpow",
        "der"
      ],
      [
        "Ġr",
        "ather"
      ],
      [
        "ĠA",
        "t"
      ],
      [
        "Ġco",
        "mp"
      ],
      [
        "Ġroom",
        "s"
      ],
      [
        "Ġbuild",
        "s"
      ],
      [
        "ĠPro",
        "of"
      ],
      [
        "Ġpr",
        "im"
      ],
      [
        "acc",
        "ia"
      ],
      [
        "Ġfoc",
        "accia"
      ],
      [
        "b",
        "il"
      ],
      [
        "s",
        "er"
      ],
      [
        "Ġd",
        "ull"
      ],
      [
        "Ġp",
        "at"
      ],
      [
        "Ġth",
        "erm"
      ],
      [
        "Ġr",
        "ight"
      ],
      [
        "ap",
        "or"
      ],
      [
        "Ġen",
        "ough"
      ],
      [
        "ĠM",
        "ix"
      ],
      [
        "Ġhand",
        "ling"
      ],
      [
        "ĠE",
        "x"
      ],
      [
        "ĠInc",
        "rease"
      ],
      [
        "Ġlack",
        "s"
      ],
      [
        "bil",
        "ity"
      ],
      [
        "a",
        "ill"
      ],
      [
        "s",
        "is"
      ],
      [
        "Ġ",
        "es"
      ],
      [
        "Ġc",
        "ub"
      ],
      [
        "Ġp",
        "e"
      ],
      [
        "ot",
        "h"
      ],
      [
        "Ġex",
        "tend"
      ],
      [
        "ver",
        "e"
      ],
      [
        "Ġdis",
        "c"
      ],
      [
        "ĠM",
        "aill"
      ],
      [
        "Ġse",
        "vere"
      ],
      [
        "Ġreac",
        "hes"
      ],
      [
        "ree",
        "ze"
      ],
      [
        "Ġcul",
        "inary"
      ],
      [
        "ĠMaill",
        "ard"
      ],
      [
        "s",
        "on"
      ],
      [
        "Ġp",
        "ack"
      ],
      [
        "Ġm",
        "ath"
      ],
      [
        "Ġm",
        "aking"
      ],
      [
        "ck",
        "ing"
      ],
      [
        "Ġper",
        "son"
      ],
      [
        "oc",
        "he"
      ],
      [
        "Ġtrans",
        "fer"
      ],
      [
        "Ġs",
        "w"
      ],
      [
        "Ġr",
        "oughly"
      ],
      [
        "Ġsu",
        "b"
      ],
      [
        "Ġrec",
        "tan"
      ],
      [
        "ink",
        "orn"
      ],
      [
        "3",
        "2"
      ],
      [
        "a",
        "tic"
      ],
      [
        "c",
        "es"
      ],
      [
        "Ġb",
        "le"
      ],
      [
        "gh",
        "t"
      ],
      [
        "ti",
        "ght"
      ],
      [
        "Ġg",
        "et"
      ],
      [
        "ve",
        "ction"
      ],
      [
        "Ġdis",
        "t"
      ],
      [
        "pp",
        "ing"
      ],
      [
        "ten",
        "si"
      ],
      [
        "Ġsti",
        "tch"
      ],
      [
        "Ġair",
        "tight"
      ],
      [
        "Ġev",
        "apor"
      ],
      [
        "l",
        "ow"
      ],
      [
        "u",
        "ct"
      ],
      [
        "te",
        "s"
      ],
      [
        "Ġw",
        "ork"
      ],
      [
        "Ġstar",
        "ch"
      ],
      [
        "Ġe",
        "xt"
      ],
      [
        "ĠF",
        "erment"
      ],
      [
        "Ġ20",
        "5"
      ],
      [
        "Ġdou",
        "ble"
      ],
      [
        "S",
        "P"
      ],
      [
        "m",
        "ic"
      ],
      [
        "Ġm",
        "od"
      ],
      [
        "ak",
        "en"
      ],
      [
        "Ġ1",
        "8"
      ],
      [
        "Ġr",
        "ich"
      ],
      [
        "Ġ3",
        "50"
      ],
      [
        "Ġex",
        "tensi"
      ],
      [
        "Ġfold",
        "ing"
      ],
      [
        "Ġse",
        "c"
      ],
      [
        "ile",
        "d"
      ],
      [
        "ĠE",
        "SP"
      ],
      [
        "Ġche",
        "mic"
      ],
      [
        "Ġdri",
        "ed"
      ],
      [
        "Ġflo",
        "at"
      ],
      [
        "Ġrubber",
        "y"
      ],
      [
        "b",
        "l"
      ],
      [
        "er",
        "n"
      ],
      [
        "Ġf",
        "avor"
      ],
      [
        "is",
        "ters"
      ],
      [
        "Ġm",
        "on"
      ],
      [
        "an",
        "ic"
      ],
      [
        "ul",
        "t"
      ],
      [
        "Ġv",
        "ir"
      ],
      [
        "Ġmix",
        "ed"
      ],
      [
        "Ġcool",
        "er"
      ],
      [
        "Ġbanneton",
        "s"
      ],
      [
        "Ġma",
        "xim"
      ],
      [
        "Ġpe",
        "ak"
      ],
      [
        "s",
        "o"
      ],
      [
        "u",
        "s"
      ],
      [
        "Ġor",
        "g"
      ],
      [
        "all",
        "eng"
      ],
      [
        "Ġbene",
        "ath"
      ],
      [
        "Ġtherm",
        "al"
      ],
      [
        "Ġsec",
        "ond"
      ],
      [
        "alleng",
        "er"
      ],
      [
        "j",
        "ust"
      ],
      [
        "m",
        "in"
      ],
      [
        "Ġ",
        "0"
      ],
      [
        "at",
        "ur"
      ],
      [
        "Ġn",
        "atur"
      ],
      [
        "Ġse",
        "a"
      ],
      [
        "Ġme",
        "ans"
      ],
      [
        "Ġseed",
        "s"
      ],
      [
        "ock",
        "ets"
      ],
      [
        "oly",
        "sis"
      ],
      [
        "Ġegg",
        "s"
      ],
      [
        "Ġshow",
        "s"
      ],
      [
        "Ġ",
        "z"
      ],
      [
        "tic",
        "al"
      ],
      [
        "Ġ20",
        "0"
      ],
      [
        "ri",
        "es"
      ],
      [
        "Ġbat",
        "ch"
      ],
      [
        "Ġyield",
        "ing"
      ],
      [
        "Ġsemol",
        "ina"
      ],
      [
        "Ġcub",
        "es"
      ],
      [
        "tion",
        "al"
      ],
      [
        "Ġwh",
        "ere"
      ],
      [
        "Ġex",
        "ample"
      ],
      [
        "ĠP",
        "ull"
      ],
      [
        "Ġal",
        "so"
      ],
      [
        "Ġsl",
        "ice"
      ],
      [
        "Ġen",
        "ric"
      ],
      [
        "bl",
        "isters"
      ],
      [
        "ĠPull",
        "man"
      ],
      [
        "Ġenric",
        "hed"
      ],
      [
        "7",
        "2"
      ],
      [
        "Q",
        "u"
      ],
      [
        "i",
        "an"
      ],
      [
        "i",
        "gg"
      ],
      [
        "Ġ",
        "Qu"
      ],
      [
        "Ġt",
        "w"
      ],
      [
        "Ġt",
        "aste"
      ],
      [
        "re",
        "es"
      ],
      [
        "im",
        "in"
      ],
      [
        "ĠB",
        "F"
      ],
      [
        "Ġj",
        "igg"
      ],
      [
        "Ġbo",
        "x"
      ],
      [
        "Ġrem",
        "ove"
      ],
      [
        "Ġel",
        "imin"
      ],
      [
        "Ġma",
        "ss"
      ],
      [
        "Ġdeg",
        "rees"
      ],
      [
        "ĠBe",
        "ginner"
      ],
      [
        "ĠCh",
        "allenger"
      ],
      [
        "Ġchemic",
        "als"
      ],
      [
        "Ġnatur",
        "ally"
      ],
      [
        "ĠQu",
        "ick"
      ],
      [
        "u",
        "ra"
      ],
      [
        "w",
        "ay"
      ],
      [
        "Ġa",
        "way"
      ],
      [
        "Ġh",
        "ere"
      ],
      [
        "an",
        "ge"
      ],
      [
        "ra",
        "p"
      ],
      [
        "ĠP",
        "er"
      ],
      [
        "Ġcul",
        "t"
      ],
      [
        "gul",
        "ar"
      ],
      [
        "Ġext",
        "ra"
      ],
      [
        "Ġmon",
        "th"
      ],
      [
        "%",
        ")."
      ],
      [
        "Ġa",
        "erated"
      ],
      [
        "Ġf",
        "lying"
      ],
      [
        "le",
        "t"
      ],
      [
        "Ġre",
        "p"
      ],
      [
        "il",
        "let"
      ],
      [
        "ĠW",
        "ater"
      ],
      [
        "Ġcon",
        "f"
      ],
      [
        "ĠD",
        "ough"
      ],
      [
        "Ġli",
        "ft"
      ],
      [
        "Ġv",
        "i"
      ],
      [
        "Ġquestion",
        "s"
      ],
      [
        "Ġab",
        "out"
      ],
      [
        "Ġsk",
        "illet"
      ],
      [
        "Ġhol",
        "low"
      ],
      [
        "h",
        "ydra"
      ],
      [
        "m",
        "e"
      ],
      [
        "t",
        "y"
      ],
      [
        "Ġs",
        "od"
      ],
      [
        "Ġwe",
        "e"
      ],
      [
        "mm",
        "ing"
      ],
      [
        "Ġ90",
        "0"
      ],
      [
        "Ġhold",
        "s"
      ],
      [
        "Ġprogra",
        "mming"
      ],
      [
        "Ġpl",
        "astic"
      ],
      [
        "Ġmaxim",
        "um"
      ],
      [
        "Ġa",
        "round"
      ],
      [
        "Ġc",
        "la"
      ],
      [
        "ss",
        "ic"
      ],
      [
        "an",
        "g"
      ],
      [
        "ic",
        "tion"
      ],
      [
        "ic",
        "ate"
      ],
      [
        "Ġte",
        "ll"
      ],
      [
        "Ġpro",
        "ble"
      ],
      [
        "ĠD",
        "DT"
      ],
      [
        "Ġan",
        "gle"
      ],
      [
        "Ġal",
        "ways"
      ],
      [
        "Ġsc",
        "hed"
      ],
      [
        "iz",
        "es"
      ],
      [
        "Ġbot",
        "h"
      ],
      [
        "Ġbaker",
        "s"
      ],
      [
        "Ġfr",
        "iction"
      ],
      [
        "Ġdou",
        "bles"
      ],
      [
        "Ġenzym",
        "atic"
      ],
      [
        "Ġdel",
        "icate"
      ],
      [
        "Ġcla",
        "ssic"
      ],
      [
        "Ġproble",
        "m"
      ],
      [
        "b",
        "on"
      ],
      [
        "n",
        "ess"
      ],
      [
        "x",
        "y"
      ],
      [
        "er",
        "i"
      ],
      [
        "Ġb",
        "as"
      ],
      [
        "Ġf",
        "ermenta"
      ],
      [
        "ti",
        "re"
      ],
      [
        "Ġwith",
        "in"
      ],
      [
        "ru",
        "m"
      ],
      [
        "Ġre",
        "duc"
      ],
      [
        "Ġv",
        "s"
      ],
      [
        "Ġen",
        "tire"
      ],
      [
        "ond",
        "ering"
      ],
      [
        "ne",
        "ad"
      ],
      [
        "Ġmeas",
        "ures"
      ],
      [
        "Ġcar",
        "bon"
      ],
      [
        "Ġtw",
        "o"
      ],
      [
        "Ġmonth",
        "s"
      ],
      [
        "a",
        "ss"
      ],
      [
        "d",
        "own"
      ],
      [
        "t",
        "le"
      ],
      [
        "Ġt",
        "all"
      ],
      [
        "Ġc",
        "inn"
      ],
      [
        "ti",
        "al"
      ],
      [
        "ti",
        "ve"
      ],
      [
        "Ġp",
        "or"
      ],
      [
        "Ġp",
        "lace"
      ],
      [
        "Ġg",
        "row"
      ],
      [
        "et",
        "h"
      ],
      [
        "am",
        "on"
      ],
      [
        "Ġme",
        "tal"
      ],
      [
        "per",
        "ly"
      ],
      [
        "Ġend",
        "s"
      ],
      [
        "Ġcinn",
        "amon"
      ],
      [
        "i",
        "ke"
      ],
      [
        "i",
        "tal"
      ],
      [
        "l",
        "ike"
      ],
      [
        "z",
        "a"
      ],
      [
        "Ġ",
        "G"
      ],
      [
        "Ġf",
        "u"
      ],
      [
        "Ġc",
        "er"
      ],
      [
        "Ġp",
        "iz"
      ],
      [
        "it",
        "tle"
      ],
      [
        "Ġbl",
        "end"
      ],
      [
        "Ġus",
        "es"
      ],
      [
        "Ġmo",
        "tions"
      ],
      [
        "Ġprote",
        "ins"
      ],
      [
        "Ġset",
        "s"
      ],
      [
        "Ġcons",
        "is"
      ],
      [
        "ĠDo",
        "es"
      ],
      [
        "10",
        "0"
      ],
      [
        "Ġ16",
        "0"
      ],
      [
        "Ġprim",
        "ary"
      ],
      [
        "Ġpiz",
        "za"
      ],
      [
        "Ġ",
        "ess"
      ],
      [
        "en",
        "tial"
      ],
      [
        "er",
        "al"
      ],
      [
        "Ġg",
        "ive"
      ],
      [
        "ul",
        "ate"
      ],
      [
        "Ġth",
        "ick"
      ],
      [
        "ĠP",
        "our"
      ],
      [
        "Ġche",
        "es"
      ],
      [
        "Ġrequire",
        "s"
      ],
      [
        "Ġfresh",
        "ly"
      ],
      [
        "Ġess",
        "ential"
      ],
      [
        "9",
        "4"
      ],
      [
        "c",
        "c"
      ],
      [
        "u",
        "al"
      ],
      [
        "Ġt",
        "ru"
      ],
      [
        "Ġc",
        "oll"
      ],
      [
        "Ġo",
        "cc"
      ],
      [
        "el",
        "p"
      ],
      [
        "ur",
        "s"
      ],
      [
        "ĠH",
        "elp"
      ],
      [
        "Ġad",
        "just"
      ],
      [
        "Ġyeast",
        "s"
      ],
      [
        "Ġexp",
        "eri"
      ],
      [
        "Ġoff",
        "line"
      ],
      [
        "Ġcons",
        "ume"
      ],
      [
        "Ġmic",
        "r"
      ],
      [
        "Ġfil",
        "led"
      ],
      [
        "Ġfru",
        "ity"
      ],
      [
        "Ġslic",
        "es"
      ],
      [
        "ĠPer",
        "form"
      ],
      [
        "Ġreduc",
        "e"
      ],
      [
        "Ġtru",
        "e"
      ],
      [
        "Ġcoll",
        "ap"
      ],
      [
        "Ġocc",
        "urs"
      ],
      [
        "7",
        "0"
      ],
      [
        "p",
        "ti"
      ],
      [
        "x",
        "ic"
      ],
      [
        "Ġp",
        "ink"
      ],
      [
        "Ġre",
        "v"
      ],
      [
        "Ġth",
        "or"
      ],
      [
        "am",
        "ic"
      ],
      [
        "Ġle",
        "ather"
      ],
      [
        "ĠC",
        "he"
      ],
      [
        "Ġpre",
        "heated"
      ],
      [
        "Ġtra",
        "ps"
      ],
      [
        "gg",
        "er"
      ],
      [
        "Ġgelatiniz",
        "es"
      ],
      [
        "Ġsto",
        "p"
      ],
      [
        "Ġdu",
        "rum"
      ],
      [
        "act",
        "or"
      ],
      [
        "Ġelastic",
        "ity"
      ],
      [
        "Ġtri",
        "gger"
      ],
      [
        "Ġcover",
        "ed"
      ],
      [
        "Ġcer",
        "amic"
      ],
      [
        "pti",
        "mal"
      ],
      [
        "l",
        "o"
      ],
      [
        "o",
        "ss"
      ],
      [
        "ou",
        "le"
      ],
      [
        "Ġa",
        "g"
      ],
      [
        "Ġt",
        "igh"
      ],
      [
        "Ġb",
        "urn"
      ],
      [
        "Ġb",
        "oule"
      ],
      [
        "Ġd",
        "ra"
      ],
      [
        "Ġto",
        "xic"
      ],
      [
        "Ġe",
        "inkorn"
      ],
      [
        "Ġ3",
        "5"
      ],
      [
        "Ġlo",
        "ading"
      ],
      [
        "Ġra",
        "te"
      ],
      [
        "Ġpre",
        "par"
      ],
      [
        "Ġpan",
        "c"
      ],
      [
        "ĠL",
        "et"
      ],
      [
        "Ġkeep",
        "ing"
      ],
      [
        "Ġacc",
        "ura"
      ],
      [
        "Ġroll",
        "s"
      ],
      [
        "Ġmedic",
        "al"
      ],
      [
        "Ġrep",
        "eat"
      ],
      [
        "Ġtigh",
        "ten"
      ],
      [
        "2",
        "5"
      ],
      [
        "on",
        "utrients"
      ],
      [
        "Ġc",
        "ur"
      ],
      [
        "Ġu",
        "nd"
      ],
      [
        "Ġ1",
        "4"
      ],
      [
        "ĠC",
        "alcul"
      ],
      [
        "Ġde",
        "c"
      ],
      [
        "Ġdis",
        "h"
      ],
      [
        "ell",
        "ow"
      ],
      [
        "Ġsti",
        "r"
      ],
      [
        "Ġch",
        "illed"
      ],
      [
        "Ġbuild",
        "ing"
      ],
      [
        "Ġcut",
        "ting"
      ],
      [
        "Ġfing",
        "er"
      ],
      [
        "Ġmicr",
        "onutrients"
      ],
      [
        "Ġleather",
        "y"
      ],
      [
        "t",
        "ually"
      ],
      [
        "Ġa",
        "pp"
      ],
      [
        "er",
        "ates"
      ],
      [
        "Ġb",
        "ar"
      ],
      [
        "Ġf",
        "e"
      ],
      [
        "Ġg",
        "o"
      ],
      [
        "id",
        "ent"
      ],
      [
        "Ġ7",
        "2"
      ],
      [
        "Ġspring",
        "s"
      ],
      [
        "Ġhard",
        "ens"
      ],
      [
        "ward",
        "s"
      ],
      [
        "Ġleav",
        "ing"
      ],
      [
        "Ġcav",
        "ern"
      ],
      [
        "Ġconf",
        "ident"
      ],
      [
        "Ġsod",
        "a"
      ],
      [
        "Ġag",
        "ain"
      ],
      [
        "Ġcavern",
        "ous"
      ],
      [
        "c",
        "ial"
      ],
      [
        "g",
        "ry"
      ],
      [
        "u",
        "ggish"
      ],
      [
        "in",
        "d"
      ],
      [
        "Ġt",
        "aking"
      ],
      [
        "Ġh",
        "un"
      ],
      [
        "ra",
        "ct"
      ],
      [
        "Ġfl",
        "uff"
      ],
      [
        "Ġ3",
        "3"
      ],
      [
        "am",
        "ine"
      ],
      [
        "Ġco",
        "mb"
      ],
      [
        "Ġco",
        "mmer"
      ],
      [
        "ĠS",
        "c"
      ],
      [
        "ĠS",
        "te"
      ],
      [
        "Ġsl",
        "uggish"
      ],
      [
        "ĠFor",
        "m"
      ],
      [
        "ant",
        "ly"
      ],
      [
        "asta",
        "tic"
      ],
      [
        "sid",
        "ed"
      ],
      [
        "Ġvi",
        "ol"
      ],
      [
        "Ġhun",
        "gry"
      ],
      [
        "Ġcommer",
        "cial"
      ],
      [
        "'",
        "t"
      ],
      [
        "R",
        "oom"
      ],
      [
        "f",
        "ool"
      ],
      [
        "m",
        "ature"
      ],
      [
        "Ġ",
        "-"
      ],
      [
        "Ġ",
        "id"
      ],
      [
        "en",
        "tical"
      ],
      [
        "Ġt",
        "ang"
      ],
      [
        "xt",
        "ure"
      ],
      [
        "le",
        "ases"
      ],
      [
        "ic",
        "ta"
      ],
      [
        "Ġg",
        "um"
      ],
      [
        "Ġre",
        "leases"
      ],
      [
        "et",
        "w"
      ],
      [
        "Ġth",
        "is"
      ],
      [
        "to",
        "se"
      ],
      [
        "ur",
        "al"
      ],
      [
        "ĠH",
        "ell"
      ],
      [
        "Ġte",
        "xture"
      ],
      [
        "ĠT",
        "arget"
      ],
      [
        "Ġlo",
        "ses"
      ],
      [
        "Ġle",
        "ast"
      ],
      [
        "ĠF",
        "ric"
      ],
      [
        "ĠF",
        "actor"
      ],
      [
        "Ġn",
        "etw"
      ],
      [
        "si",
        "le"
      ],
      [
        "Ġra",
        "d"
      ],
      [
        "Ġpre",
        "ss"
      ],
      [
        "Ġpre",
        "mature"
      ],
      [
        "ĠL",
        "ight"
      ],
      [
        "Ġten",
        "sile"
      ],
      [
        "if",
        "t"
      ],
      [
        "Ġkitch",
        "ens"
      ],
      [
        "Ġabsorb",
        "s"
      ],
      [
        "Ġstruct",
        "ural"
      ],
      [
        "Ġmad",
        "re"
      ],
      [
        "Ġincorpor",
        "ate"
      ],
      [
        "ĠSti",
        "r"
      ],
      [
        "Ġsw",
        "ift"
      ],
      [
        "Ġfermenta",
        "ble"
      ],
      [
        "Ġcollap",
        "ses"
      ],
      [
        "Ġid",
        "entical"
      ],
      [
        "ĠHell",
        "o"
      ],
      [
        "ĠFric",
        "tion"
      ],
      [
        "c",
        "ient"
      ],
      [
        "g",
        "en"
      ],
      [
        "en",
        "ing"
      ],
      [
        "Ġs",
        "tain"
      ],
      [
        "Ġa",
        "ssis"
      ],
      [
        "Ġin",
        "ten"
      ],
      [
        "Ġo",
        "xy"
      ],
      [
        "ac",
        "h"
      ],
      [
        "ap",
        "e"
      ],
      [
        "ĠC",
        "o"
      ],
      [
        "Ġli",
        "f"
      ],
      [
        "Ġpre",
        "ser"
      ],
      [
        "Ġdis",
        "sol"
      ],
      [
        "Ġsur",
        "round"
      ],
      [
        "Ġgra",
        "m"
      ],
      [
        "Ġscore",
        "d"
      ],
      [
        "ĠO",
        "n"
      ],
      [
        "Ġallow",
        "ing"
      ],
      [
        "Ġmeas",
        "ure"
      ],
      [
        "ĠDi",
        "vide"
      ],
      [
        "ĠWith",
        "out"
      ],
      [
        "uct",
        "s"
      ],
      [
        "Ġvir",
        "tually"
      ],
      [
        "Ġstain",
        "less"
      ],
      [
        "Ġinten",
        "se"
      ],
      [
        "Ġoxy",
        "gen"
      ],
      [
        "3",
        "0"
      ],
      [
        "m",
        "o"
      ],
      [
        "p",
        "le"
      ],
      [
        "t",
        "ro"
      ],
      [
        "an",
        "sion"
      ],
      [
        "ic",
        "ro"
      ],
      [
        "ĠD",
        "ro"
      ],
      [
        "Ġen",
        "c"
      ],
      [
        "ĠM",
        "icro"
      ],
      [
        "Ġhe",
        "y"
      ],
      [
        "Ġexp",
        "ansion"
      ],
      [
        "ĠL",
        "e"
      ],
      [
        "Ġkeep",
        "s"
      ],
      [
        "Ġru",
        "n"
      ],
      [
        "ĠDo",
        "ing"
      ],
      [
        "Ġdevelop",
        "s"
      ],
      [
        "ĠLo",
        "ad"
      ],
      [
        "Ġcyl",
        "inder"
      ],
      [
        "te",
        "in"
      ],
      [
        "Ġs",
        "ide"
      ],
      [
        "Ġd",
        "esired"
      ],
      [
        "ic",
        "ally"
      ],
      [
        "Ġ2",
        "10"
      ],
      [
        "et",
        "one"
      ],
      [
        "ĠA",
        "s"
      ],
      [
        "ĠF",
        "reeze"
      ],
      [
        "um",
        "ed"
      ],
      [
        "Ġover",
        "r"
      ],
      [
        "Ġcan",
        "e"
      ],
      [
        "tal",
        "ian"
      ],
      [
        "Ġ9",
        "9"
      ],
      [
        "velop",
        "ed"
      ],
      [
        "Ġcons",
        "umed"
      ],
      [
        "pro",
        "tein"
      ],
      [
        "rib",
        "ute"
      ],
      [
        "Ġassis",
        "t"
      ],
      [
        "ĠDro",
        "pping"
      ],
      [
        "a",
        "w"
      ],
      [
        "Ġs",
        "um"
      ],
      [
        "Ġa",
        "sh"
      ],
      [
        "Ġf",
        "eat"
      ],
      [
        "Ġm",
        "alt"
      ],
      [
        "ro",
        "xim"
      ],
      [
        "Ġ1",
        "7"
      ],
      [
        "ĠI",
        "talian"
      ],
      [
        "Ġ3",
        "8"
      ],
      [
        "Ġco",
        "re"
      ],
      [
        "ĠF",
        "ir"
      ],
      [
        "Ġfin",
        "ish"
      ],
      [
        "Ġquick",
        "ly"
      ],
      [
        "Ġlam",
        "ination"
      ],
      [
        "Ġaccel",
        "erates"
      ],
      [
        "Ġdiffer",
        "ence"
      ],
      [
        "Ġmod",
        "e"
      ],
      [
        "Ġbas",
        "k"
      ],
      [
        "Ġpanc",
        "akes"
      ],
      [
        "Ġapp",
        "roxim"
      ],
      [
        "ĠOn",
        "ce"
      ],
      [
        "Ġfeat",
        "ures"
      ],
      [
        "ĠFir",
        "st"
      ],
      [
        "Ġapproxim",
        "ately"
      ],
      [
        "o",
        "x"
      ],
      [
        "u",
        "ice"
      ],
      [
        "Ġm",
        "ild"
      ],
      [
        "ĠA",
        "void"
      ],
      [
        "ĠD",
        "O"
      ],
      [
        "ĠC",
        "on"
      ],
      [
        "Ġdi",
        "ox"
      ],
      [
        "Ġj",
        "uice"
      ],
      [
        "Ġcl",
        "oth"
      ],
      [
        "Ġfru",
        "it"
      ],
      [
        "Ġagain",
        "st"
      ],
      [
        "Ġrad",
        "iant"
      ],
      [
        "Ġdiox",
        "ide"
      ],
      [
        "9",
        "6"
      ],
      [
        "en",
        "ch"
      ],
      [
        "Ġb",
        "al"
      ],
      [
        "re",
        "m"
      ],
      [
        "Ġm",
        "an"
      ],
      [
        "Ġh",
        "al"
      ],
      [
        "ak",
        "er"
      ],
      [
        "ĠF",
        "r"
      ],
      [
        "Ġ4",
        "75"
      ],
      [
        "Ġhydra",
        "te"
      ],
      [
        "ĠB",
        "aker"
      ],
      [
        "Ġhigh",
        "er"
      ],
      [
        "Ġweight",
        "s"
      ],
      [
        "Ġexp",
        "lo"
      ],
      [
        "Ġcool",
        "s"
      ],
      [
        "Ġche",
        "w"
      ],
      [
        "Ġthin",
        "ly"
      ],
      [
        "ĠSp",
        "read"
      ],
      [
        "Ġdro",
        "ps"
      ],
      [
        "Ġrectan",
        "gle"
      ],
      [
        "Ġgrow",
        "th"
      ],
      [
        "Ġnetw",
        "ork"
      ],
      [
        "Ġpremature",
        "ly"
      ],
      [
        "Ġhal",
        "f"
      ],
      [
        "Ġexplo",
        "sive"
      ],
      [
        "c",
        "ap"
      ],
      [
        "k",
        "nead"
      ],
      [
        "o",
        "o"
      ],
      [
        "Ġp",
        "o"
      ],
      [
        "Ġm",
        "uff"
      ],
      [
        "ol",
        "or"
      ],
      [
        "Ġth",
        "ir"
      ],
      [
        "Ġac",
        "etone"
      ],
      [
        "Ġle",
        "aves"
      ],
      [
        "Ġn",
        "ec"
      ],
      [
        "Ġv",
        "ent"
      ],
      [
        "Ġcau",
        "se"
      ],
      [
        "ess",
        "ary"
      ],
      [
        "Ġpull",
        "man"
      ],
      [
        "ĠY",
        "ou"
      ],
      [
        "Ġes",
        "cap"
      ],
      [
        "oo",
        "ch"
      ],
      [
        "Ġmuff",
        "ins"
      ],
      [
        "Ġthir",
        "d"
      ],
      [
        "Ġnec",
        "essary"
      ],
      [
        "o",
        "g"
      ],
      [
        "in",
        "ch"
      ],
      [
        "Ġs",
        "til"
      ],
      [
        "on",
        "ost"
      ],
      [
        "Ġg",
        "ent"
      ],
      [
        "id",
        "d"
      ],
      [
        "Ġre",
        "l"
      ],
      [
        "Ġre",
        "s"
      ],
      [
        "Ġth",
        "ere"
      ],
      [
        "Ġsh",
        "aken"
      ],
      [
        "Ġsp",
        "ec"
      ],
      [
        "Ġbl",
        "oom"
      ],
      [
        "uc",
        "onost"
      ],
      [
        "Ġexc",
        "eed"
      ],
      [
        "Ġferment",
        "ing"
      ],
      [
        "Ġkn",
        "ow"
      ],
      [
        "Ġbre",
        "w"
      ],
      [
        "Ġbag",
        "s"
      ],
      [
        "Ġtransfer",
        "ring"
      ],
      [
        "Ġextensi",
        "ble"
      ],
      [
        "Ġfavor",
        "s"
      ],
      [
        "Ġjigg",
        "les"
      ],
      [
        "ĠLe",
        "uconost"
      ],
      [
        "Ġstil",
        "l"
      ],
      [
        "ĠLeuconost",
        "oc"
      ],
      [
        "v",
        "es"
      ],
      [
        "Ġa",
        "mb"
      ],
      [
        "Ġp",
        "ockets"
      ],
      [
        "Ġh",
        "one"
      ],
      [
        "Ġh",
        "ooch"
      ],
      [
        "ĠH",
        "i"
      ],
      [
        "ĠS",
        "l"
      ],
      [
        "Ġun",
        "f"
      ],
      [
        "Ġmin",
        "im"
      ],
      [
        "Ġcons",
        "ult"
      ],
      [
        "Ġcond",
        "ucts"
      ],
      [
        "Ġpat",
        "tern"
      ],
      [
        "Ġdisc",
        "olor"
      ],
      [
        "ĠFr",
        "ench"
      ],
      [
        "Ġhone",
        "y"
      ],
      [
        "Ġdiscolor",
        "ation"
      ],
      [
        "p",
        "ing"
      ],
      [
        "Ġd",
        "ust"
      ],
      [
        "Ġp",
        "ut"
      ],
      [
        "Ġstar",
        "ts"
      ],
      [
        "Ġe",
        "mmer"
      ],
      [
        "ĠH",
        "old"
      ],
      [
        "ĠA",
        "utolyse"
      ],
      [
        "ĠF",
        "DT"
      ],
      [
        "Ġn",
        "ut"
      ],
      [
        "Ġ4",
        "50"
      ],
      [
        "Ġbu",
        "ffer"
      ],
      [
        "Ġper",
        "form"
      ],
      [
        "Ġbacter",
        "ial"
      ],
      [
        "Ġlong",
        "er"
      ],
      [
        "Ġexc",
        "lu"
      ],
      [
        "sive",
        "ly"
      ],
      [
        "rib",
        "utes"
      ],
      [
        "Ġactiv",
        "ity"
      ],
      [
        "Ġactiv",
        "ating"
      ],
      [
        "Ġsoup",
        "y"
      ],
      [
        "Ġsub",
        "s"
      ],
      [
        "Ġdouble",
        "d"
      ],
      [
        "hydra",
        "tion"
      ],
      [
        "Ġbal",
        "ance"
      ],
      [
        "Ġexclu",
        "sively"
      ],
      [
        "7",
        "8"
      ],
      [
        "Ġg",
        "u"
      ],
      [
        "Ġ2",
        "6"
      ],
      [
        "ap",
        "ple"
      ],
      [
        "Ġris",
        "es"
      ],
      [
        "ine",
        "apple"
      ],
      [
        "Ġout",
        "side"
      ],
      [
        "Ġrefrig",
        "erated"
      ],
      [
        "Ġlam",
        "e"
      ],
      [
        "shap",
        "e"
      ],
      [
        "Ġsto",
        "re"
      ],
      [
        "ĠEx",
        "tend"
      ],
      [
        "ĠCo",
        "il"
      ],
      [
        "Ġthird",
        "s"
      ],
      [
        "g",
        "ile"
      ],
      [
        "l",
        "uc"
      ],
      [
        "p",
        "ur"
      ],
      [
        "p",
        "ose"
      ],
      [
        "Ġf",
        "ra"
      ],
      [
        "Ġp",
        "ineapple"
      ],
      [
        "ed",
        "uc"
      ],
      [
        "Ġdough",
        "s"
      ],
      [
        "Ġo",
        "iled"
      ],
      [
        "ĠA",
        "P"
      ],
      [
        "Ġse",
        "e"
      ],
      [
        "ĠR",
        "educ"
      ],
      [
        "Ġfil",
        "m"
      ],
      [
        "Ġtrans",
        "luc"
      ],
      [
        "ĠY",
        "east"
      ],
      [
        "Ġorg",
        "anic"
      ],
      [
        "Ġoverr",
        "ide"
      ],
      [
        "ĠSl",
        "ide"
      ],
      [
        "pur",
        "pose"
      ],
      [
        "Ġfra",
        "gile"
      ],
      [
        "ĠReduc",
        "e"
      ],
      [
        "Ġtransluc",
        "ent"
      ],
      [
        "n",
        "s"
      ],
      [
        "p",
        "l"
      ],
      [
        "r",
        "t"
      ],
      [
        "Ġa",
        "void"
      ],
      [
        "Ġa",
        "rt"
      ],
      [
        "Ġb",
        "ri"
      ],
      [
        "Ġf",
        "ool"
      ],
      [
        "ĠI",
        "ts"
      ],
      [
        "Ġcon",
        "ven"
      ],
      [
        "Ġle",
        "ft"
      ],
      [
        "ĠHow",
        "ever"
      ],
      [
        "Ġbet",
        "ter"
      ],
      [
        "Ġdegrad",
        "ed"
      ],
      [
        "ĠChe",
        "cking"
      ],
      [
        "Ġbri",
        "oche"
      ],
      [
        "Ġconven",
        "tional"
      ],
      [
        "Ġf",
        "ermented"
      ],
      [
        "Ġw",
        "as"
      ],
      [
        "Ġc",
        "ra"
      ],
      [
        "Ġg",
        "iant"
      ],
      [
        "ĠW",
        "ondering"
      ],
      [
        "Ġro",
        "le"
      ],
      [
        "Ġbe",
        "er"
      ],
      [
        "Ġbl",
        "ack"
      ],
      [
        "Ġsta",
        "y"
      ],
      [
        "Ġlet",
        "ter"
      ],
      [
        "Ġallow",
        "s"
      ],
      [
        "Ġimp",
        "ro"
      ],
      [
        "Ġph",
        "ys"
      ],
      [
        "Ġchlor",
        "amine"
      ],
      [
        "Ġaccura",
        "tely"
      ],
      [
        "Ġcra",
        "ck"
      ],
      [
        "h",
        "er"
      ],
      [
        "in",
        "ess"
      ],
      [
        "Ġf",
        "ail"
      ],
      [
        "Ġd",
        "ay"
      ],
      [
        "Ġto",
        "get"
      ],
      [
        "ar",
        "p"
      ],
      [
        "Ġl",
        "ine"
      ],
      [
        "ĠW",
        "W"
      ],
      [
        "Ġcon",
        "vert"
      ],
      [
        "Ġsta",
        "le"
      ],
      [
        "Ġtra",
        "ck"
      ],
      [
        "Ġsupp",
        "ort"
      ],
      [
        "Ġtoget",
        "her"
      ],
      [
        "n",
        "ch"
      ],
      [
        "Ġf",
        "an"
      ],
      [
        "Ġm",
        "ot"
      ],
      [
        "Ġm",
        "eth"
      ],
      [
        "Ġl",
        "in"
      ],
      [
        "ul",
        "ti"
      ],
      [
        "Ġcru",
        "nch"
      ],
      [
        "am",
        "ut"
      ],
      [
        "Ġde",
        "ter"
      ],
      [
        "Ġhand",
        "le"
      ],
      [
        "ten",
        "ance"
      ],
      [
        "Ġprote",
        "olysis"
      ],
      [
        "Ġmain",
        "tenance"
      ],
      [
        "ĠSh",
        "ape"
      ],
      [
        "Ġtin",
        "y"
      ],
      [
        "Ġbask",
        "et"
      ],
      [
        "Ġspec",
        "ial"
      ],
      [
        "Ġmot",
        "or"
      ],
      [
        "Ġmeth",
        "od"
      ],
      [
        "6",
        "0"
      ],
      [
        "n",
        "ing"
      ],
      [
        "t",
        "retch"
      ],
      [
        "en",
        "ces"
      ],
      [
        "er",
        "o"
      ],
      [
        "er",
        "ation"
      ],
      [
        "Ġw",
        "aste"
      ],
      [
        "Ġp",
        "asta"
      ],
      [
        "ĠA",
        "dd"
      ],
      [
        "ĠS",
        "tretch"
      ],
      [
        "ĠC",
        "old"
      ],
      [
        "Ġro",
        "se"
      ],
      [
        "Ġbe",
        "en"
      ],
      [
        "Ġ100",
        "0"
      ],
      [
        "Ġstick",
        "ing"
      ],
      [
        "Ġturn",
        "ing"
      ],
      [
        "os",
        "ed"
      ],
      [
        "Ġchlor",
        "ine"
      ],
      [
        "Ġble",
        "ach"
      ],
      [
        "Ġz",
        "ero"
      ],
      [
        "ĠCon",
        "vection"
      ],
      [
        "Ġart",
        "is"
      ],
      [
        "a",
        "h"
      ],
      [
        "f",
        "ul"
      ],
      [
        "g",
        "er"
      ],
      [
        "w",
        "are"
      ],
      [
        "Ġa",
        "par"
      ],
      [
        "Ġc",
        "orn"
      ],
      [
        "or",
        "s"
      ],
      [
        "Ġm",
        "idd"
      ],
      [
        "Ġm",
        "ulti"
      ],
      [
        "Ġl",
        "ast"
      ],
      [
        "Ġsh",
        "arp"
      ],
      [
        "Ġsc",
        "ale"
      ],
      [
        "Ġlar",
        "ger"
      ],
      [
        "Ġgre",
        "y"
      ],
      [
        "Ġbat",
        "ter"
      ],
      [
        "Ġelimin",
        "ate"
      ],
      [
        "Ġrel",
        "ia"
      ],
      [
        "ah",
        "m"
      ],
      [
        "Ġapar",
        "t"
      ],
      [
        "Ġmidd",
        "le"
      ],
      [
        "2",
        "7"
      ],
      [
        "b",
        "it"
      ],
      [
        "h",
        "i"
      ],
      [
        "in",
        "u"
      ],
      [
        "Ġs",
        "ave"
      ],
      [
        "er",
        "ous"
      ],
      [
        "Ġc",
        "ol"
      ],
      [
        "Ġc",
        "ap"
      ],
      [
        "Ġc",
        "rown"
      ],
      [
        "Ġc",
        "akes"
      ],
      [
        "Ġp",
        "ast"
      ],
      [
        "Ġin",
        "hi"
      ],
      [
        "Ġh",
        "u"
      ],
      [
        "Ġl",
        "ess"
      ],
      [
        "Ġo",
        "d"
      ],
      [
        "ac",
        "ina"
      ],
      [
        "ch",
        "n"
      ],
      [
        "ĠA",
        "ll"
      ],
      [
        "ine",
        "gar"
      ],
      [
        "Ġprevent",
        "ing"
      ],
      [
        "Ġrim",
        "acina"
      ],
      [
        "Ġlam",
        "in"
      ],
      [
        "Ġtri",
        "p"
      ],
      [
        "Ġcrack",
        "ers"
      ],
      [
        "Ġpast",
        "ries"
      ],
      [
        "Ġinhi",
        "bit"
      ],
      [
        "Ġrimacina",
        "ta"
      ],
      [
        "c",
        "ed"
      ],
      [
        "c",
        "hed"
      ],
      [
        "d",
        "ay"
      ],
      [
        "l",
        "er"
      ],
      [
        "u",
        "le"
      ],
      [
        "v",
        "it"
      ],
      [
        "Ġs",
        "it"
      ],
      [
        "Ġs",
        "im"
      ],
      [
        "ou",
        "g"
      ],
      [
        "or",
        "y"
      ],
      [
        "Ġp",
        "le"
      ],
      [
        "Ġm",
        "el"
      ],
      [
        "as",
        "antly"
      ],
      [
        "ra",
        "tion"
      ],
      [
        "Ġcon",
        "vection"
      ],
      [
        "ri",
        "er"
      ],
      [
        "Ġde",
        "f"
      ],
      [
        "iz",
        "ed"
      ],
      [
        "ick",
        "s"
      ],
      [
        "Ġ12",
        "0"
      ],
      [
        "Ġset",
        "ting"
      ],
      [
        "os",
        "ing"
      ],
      [
        "ĠK",
        "ahm"
      ],
      [
        "grad",
        "e"
      ],
      [
        "Ġsafe",
        "ly"
      ],
      [
        "Ġfing",
        "ers"
      ],
      [
        "Ġens",
        "ures"
      ],
      [
        "Ġperson",
        "al"
      ],
      [
        "Ġble",
        "ached"
      ],
      [
        "Ġwee",
        "ks"
      ],
      [
        "Ġsched",
        "ule"
      ],
      [
        "Ġstir",
        "red"
      ],
      [
        "Ġbar",
        "rier"
      ],
      [
        "Ġgent",
        "ler"
      ],
      [
        "Ġbrew",
        "ing"
      ],
      [
        "Ġfail",
        "s"
      ],
      [
        "Ġcrunch",
        "y"
      ],
      [
        "Ġdeter",
        "g"
      ],
      [
        "Ġspecial",
        "ized"
      ],
      [
        "Ġtrip",
        "les"
      ],
      [
        "vit",
        "o"
      ],
      [
        "Ġsim",
        "ulate"
      ],
      [
        "Ġple",
        "asantly"
      ],
      [
        "c",
        "tions"
      ],
      [
        "e",
        "f"
      ],
      [
        "Ġs",
        "ides"
      ],
      [
        "of",
        "es"
      ],
      [
        "Ġw",
        "rap"
      ],
      [
        "Ġh",
        "inder"
      ],
      [
        "el",
        "iz"
      ],
      [
        "enta",
        "l"
      ],
      [
        "mp",
        "les"
      ],
      [
        "am",
        "eliz"
      ],
      [
        "Ġgl",
        "ide"
      ],
      [
        "Ġde",
        "ta"
      ],
      [
        "Ġpre",
        "heat"
      ],
      [
        "Ġ7",
        "20"
      ],
      [
        "Ġacid",
        "s"
      ],
      [
        "Ġ9",
        "70"
      ],
      [
        "ne",
        "ading"
      ],
      [
        "Ġcomple",
        "x"
      ],
      [
        "Ġbond",
        "ing"
      ],
      [
        "Ġsmooth",
        "ly"
      ],
      [
        "Ġpr",
        "ofes"
      ],
      [
        "ĠFeed",
        "ing"
      ],
      [
        "ĠCh",
        "lor"
      ],
      [
        "Ġcar",
        "ameliz"
      ],
      [
        "Ġsourd",
        "oug"
      ],
      [
        "Ġpowder",
        "y"
      ],
      [
        "Ġpor",
        "tions"
      ],
      [
        "Ġchees",
        "e"
      ],
      [
        "Ġdra",
        "ft"
      ],
      [
        "chn",
        "iqu"
      ],
      [
        "Ġprofes",
        "sion"
      ],
      [
        "e",
        "ar"
      ],
      [
        "g",
        "ine"
      ],
      [
        "h",
        "ol"
      ],
      [
        "i",
        "ving"
      ],
      [
        "u",
        "ter"
      ],
      [
        "v",
        "ed"
      ],
      [
        "Ġs",
        "ound"
      ],
      [
        "Ġs",
        "ize"
      ],
      [
        "Ġd",
        "on"
      ],
      [
        "Ġc",
        "ir"
      ],
      [
        "Ġon",
        "ce"
      ],
      [
        "ĠH",
        "igh"
      ],
      [
        "ver",
        "ed"
      ],
      [
        "Ġal",
        "co"
      ],
      [
        "Ġsl",
        "ide"
      ],
      [
        "Ġen",
        "gine"
      ],
      [
        "ment",
        "s"
      ],
      [
        "Ġcl",
        "ay"
      ],
      [
        "Ġcl",
        "oche"
      ],
      [
        "Ġslic",
        "ing"
      ],
      [
        "Ġaccel",
        "erate"
      ],
      [
        "Ġcomp",
        "uter"
      ],
      [
        "Ġsound",
        "s"
      ],
      [
        "Ġcir",
        "cul"
      ],
      [
        "Ġalco",
        "hol"
      ],
      [
        "Ġengine",
        "ering"
      ],
      [
        "%",
        ")"
      ],
      [
        "1",
        "75"
      ],
      [
        "3",
        "8"
      ],
      [
        "i",
        "re"
      ],
      [
        "s",
        "ta"
      ],
      [
        "w",
        "age"
      ],
      [
        "z",
        "zy"
      ],
      [
        "Ġs",
        "ep"
      ],
      [
        "on",
        "y"
      ],
      [
        "ru",
        "mb"
      ],
      [
        "ac",
        "ed"
      ],
      [
        "ĠW",
        "ork"
      ],
      [
        "Ġun",
        "shape"
      ],
      [
        "ore",
        "d"
      ],
      [
        "ĠC",
        "ut"
      ],
      [
        "ĠC",
        "rumb"
      ],
      [
        "Ġex",
        "act"
      ],
      [
        "Ġv",
        "ia"
      ],
      [
        "Ġbl",
        "ock"
      ],
      [
        "Ġse",
        "wage"
      ],
      [
        "Ġstr",
        "ange"
      ],
      [
        "ĠR",
        "oll"
      ],
      [
        "Ġstiff",
        "ens"
      ],
      [
        "Ġgra",
        "in"
      ],
      [
        "Ġstrong",
        "ly"
      ],
      [
        "Ġflavor",
        "s"
      ],
      [
        "Ġmold",
        "y"
      ],
      [
        "Ġsour",
        "ness"
      ],
      [
        "Ġcult",
        "ure"
      ],
      [
        "Ġcult",
        "ures"
      ],
      [
        "Ġpreser",
        "ving"
      ],
      [
        "Ġman",
        "age"
      ],
      [
        "Ġartis",
        "an"
      ],
      [
        "Ġcol",
        "ony"
      ],
      [
        "Ġod",
        "ors"
      ],
      [
        "Ġsep",
        "ar"
      ],
      [
        "ĠWork",
        "ing"
      ],
      [
        "Ġunshape",
        "able"
      ],
      [
        "b",
        "ed"
      ],
      [
        "b",
        "ling"
      ],
      [
        "c",
        "y"
      ],
      [
        "i",
        "ac"
      ],
      [
        "s",
        "ub"
      ],
      [
        "z",
        "ed"
      ],
      [
        "Ġc",
        "el"
      ],
      [
        "Ġthe",
        "ir"
      ],
      [
        "Ġin",
        "qui"
      ],
      [
        "Ġh",
        "a"
      ],
      [
        "ro",
        "l"
      ],
      [
        "ar",
        "row"
      ],
      [
        "al",
        "ing"
      ],
      [
        "ic",
        "s"
      ],
      [
        "Ġg",
        "ood"
      ],
      [
        "ra",
        "pped"
      ],
      [
        "Ġo",
        "ptimal"
      ],
      [
        "et",
        "y"
      ],
      [
        "ur",
        "bed"
      ],
      [
        "Ġte",
        "chniqu"
      ],
      [
        "ĠT",
        "rapped"
      ],
      [
        "ĠD",
        "esired"
      ],
      [
        "ain",
        "tain"
      ],
      [
        "Ġn",
        "arrow"
      ],
      [
        "ut",
        "ing"
      ],
      [
        "Ġad",
        "min"
      ],
      [
        "Ġmin",
        "eral"
      ],
      [
        "ff",
        "icient"
      ],
      [
        "Ġdi",
        "es"
      ],
      [
        "ip",
        "per"
      ],
      [
        "Ġsu",
        "ch"
      ],
      [
        "Ġsu",
        "fficient"
      ],
      [
        "Ġlev",
        "el"
      ],
      [
        "ĠM",
        "aintain"
      ],
      [
        "Ġmix",
        "es"
      ],
      [
        "Ġk",
        "neading"
      ],
      [
        "ist",
        "ration"
      ],
      [
        "ist",
        "urbed"
      ],
      [
        "Ġthan",
        "ks"
      ],
      [
        "Ġscore",
        "s"
      ],
      [
        "Ġsaf",
        "ety"
      ],
      [
        "Ġsoft",
        "ware"
      ],
      [
        "ĠO",
        "ver"
      ],
      [
        "ĠO",
        "pen"
      ],
      [
        "Ġcont",
        "rol"
      ],
      [
        "Ġbreak",
        "down"
      ],
      [
        "Ġtender",
        "ize"
      ],
      [
        "Ġincorpor",
        "ates"
      ],
      [
        "Ġdro",
        "p"
      ],
      [
        "Ġevapor",
        "ates"
      ],
      [
        "Ġconsis",
        "tent"
      ],
      [
        "Ġthor",
        "ough"
      ],
      [
        "Ġburn",
        "s"
      ],
      [
        "Ġund",
        "isturbed"
      ],
      [
        "Ġ14",
        "0"
      ],
      [
        "Ġcrown",
        "s"
      ],
      [
        "Ġmel",
        "ted"
      ],
      [
        "Ġcarameliz",
        "ation"
      ],
      [
        "Ġprofession",
        "al"
      ],
      [
        "Ġcel",
        "iac"
      ],
      [
        "Ġinqui",
        "ries"
      ],
      [
        "Ġadmin",
        "istration"
      ],
      [
        "a",
        "tive"
      ],
      [
        "o",
        "h"
      ],
      [
        "u",
        "ss"
      ],
      [
        "Ġs",
        "aves"
      ],
      [
        "Ġa",
        "eration"
      ],
      [
        "Ġt",
        "u"
      ],
      [
        "Ġb",
        "ad"
      ],
      [
        "Ġf",
        "ix"
      ],
      [
        "re",
        "ak"
      ],
      [
        "is",
        "ten"
      ],
      [
        "Ġp",
        "u"
      ],
      [
        "ra",
        "per"
      ],
      [
        "tar",
        "ter"
      ],
      [
        "Ġre",
        "lease"
      ],
      [
        "Ġre",
        "sid"
      ],
      [
        "ul",
        "es"
      ],
      [
        "Ġth",
        "inner"
      ],
      [
        "Ġsp",
        "aced"
      ],
      [
        "ri",
        "al"
      ],
      [
        "Ġdi",
        "a"
      ],
      [
        "Ġsc",
        "raper"
      ],
      [
        "Ġacid",
        "ic"
      ],
      [
        "Ġj",
        "ust"
      ],
      [
        "ĠTh",
        "en"
      ],
      [
        "Ġup",
        "wards"
      ],
      [
        "if",
        "orm"
      ],
      [
        "Ġtop",
        "ics"
      ],
      [
        "Ġbo",
        "ost"
      ],
      [
        "ust",
        "rial"
      ],
      [
        "Ġrefrig",
        "erate"
      ],
      [
        "Ġind",
        "ustrial"
      ],
      [
        "Ġremain",
        "der"
      ],
      [
        "Ġdegrad",
        "ation"
      ],
      [
        "Ġsuppress",
        "es"
      ],
      [
        "Ġgen",
        "erate"
      ],
      [
        "Ġextend",
        "ed"
      ],
      [
        "Ġdisc",
        "uss"
      ],
      [
        "us",
        "ually"
      ],
      [
        "Ġmass",
        "ive"
      ],
      [
        "rap",
        "e"
      ],
      [
        "oss",
        "ible"
      ],
      [
        "Ġtighten",
        "s"
      ],
      [
        "Ġsubs",
        "tan"
      ],
      [
        "Ġdeta",
        "ch"
      ],
      [
        "Ġresid",
        "ual"
      ],
      [
        "%",
        "+"
      ],
      [
        "b",
        "e"
      ],
      [
        "b",
        "aking"
      ],
      [
        "f",
        "ts"
      ],
      [
        "o",
        "lyse"
      ],
      [
        "p",
        "ass"
      ],
      [
        "te",
        "olysis"
      ],
      [
        "Ġs",
        "er"
      ],
      [
        "er",
        "g"
      ],
      [
        "Ġb",
        "es"
      ],
      [
        "Ġl",
        "ittle"
      ],
      [
        "Ġo",
        "th"
      ],
      [
        "ac",
        "id"
      ],
      [
        "Ġy",
        "ellow"
      ],
      [
        "Ġpro",
        "per"
      ],
      [
        "Ġcon",
        "ta"
      ],
      [
        "Ġlo",
        "ok"
      ],
      [
        "ĠD",
        "ust"
      ],
      [
        "Ġan",
        "cient"
      ],
      [
        "Ġun",
        "less"
      ],
      [
        "Ġun",
        "co"
      ],
      [
        "um",
        "in"
      ],
      [
        "um",
        "ul"
      ],
      [
        "Ġbe",
        "ginner"
      ],
      [
        "Ġunder",
        "baking"
      ],
      [
        "Ġsu",
        "dd"
      ],
      [
        "ĠL",
        "am"
      ],
      [
        "Ġprote",
        "ases"
      ],
      [
        "Ġch",
        "ill"
      ],
      [
        "Ġform",
        "ing"
      ],
      [
        "Ġexc",
        "ess"
      ],
      [
        "Ġgas",
        "es"
      ],
      [
        "Ġacc",
        "umul"
      ],
      [
        "Ġdevelop",
        "ment"
      ],
      [
        "Ġcomple",
        "te"
      ],
      [
        "ĠPre",
        "fermented"
      ],
      [
        "Ġpull",
        "ing"
      ],
      [
        "ĠPro",
        "teolysis"
      ],
      [
        "Ġbr",
        "ittle"
      ],
      [
        "ress",
        "es"
      ],
      [
        "Ġneed",
        "ed"
      ],
      [
        "Ġcont",
        "inu"
      ],
      [
        "Ġrelax",
        "es"
      ],
      [
        "Ġsoften",
        "s"
      ],
      [
        "Ġz",
        "ipper"
      ],
      [
        "Ġfu",
        "zzy"
      ],
      [
        "Ġexperi",
        "ences"
      ],
      [
        "Ġtrigger",
        "ed"
      ],
      [
        "Ġfluff",
        "y"
      ],
      [
        "Ġcomb",
        "o"
      ],
      [
        "Ġviol",
        "ent"
      ],
      [
        "Ġlif",
        "ting"
      ],
      [
        "ĠAdd",
        "ing"
      ],
      [
        "Ġcircul",
        "ar"
      ],
      [
        "ĠCut",
        "ting"
      ],
      [
        "Ġcontrol",
        "s"
      ],
      [
        "Ġsubstan",
        "ces"
      ],
      [
        "Ġbes",
        "ide"
      ],
      [
        "Ġoth",
        "er"
      ],
      [
        "Ġunco",
        "vered"
      ],
      [
        "Ġsudd",
        "en"
      ],
      [
        "6",
        "4"
      ],
      [
        "7",
        "1"
      ],
      [
        "a",
        "it"
      ],
      [
        "b",
        "s"
      ],
      [
        "b",
        "es"
      ],
      [
        "b",
        "ak"
      ],
      [
        "e",
        "ase"
      ],
      [
        "f",
        "ree"
      ],
      [
        "l",
        "av"
      ],
      [
        "n",
        "g"
      ],
      [
        "o",
        "gh"
      ],
      [
        "s",
        "um"
      ],
      [
        "s",
        "ted"
      ],
      [
        "t",
        "ract"
      ],
      [
        "u",
        "ild"
      ],
      [
        "u",
        "ogh"
      ],
      [
        "v",
        "iron"
      ],
      [
        "w",
        "he"
      ],
      [
        "in",
        "whe"
      ],
      [
        "Ġa",
        "erate"
      ],
      [
        "Ġb",
        "and"
      ],
      [
        "Ġb",
        "ased"
      ],
      [
        "ta",
        "te"
      ],
      [
        "re",
        "t"
      ],
      [
        "Ġd",
        "ental"
      ],
      [
        "Ġw",
        "ire"
      ],
      [
        "nd",
        "ard"
      ],
      [
        "or",
        "ten"
      ],
      [
        "our",
        "ish"
      ],
      [
        "Ġp",
        "erm"
      ],
      [
        "Ġp",
        "lease"
      ],
      [
        "Ġp",
        "inwhe"
      ],
      [
        "an",
        "ently"
      ],
      [
        "as",
        "h"
      ],
      [
        "Ġth",
        "aw"
      ],
      [
        "to",
        "tal"
      ],
      [
        "enta",
        "tion"
      ],
      [
        "ap",
        "s"
      ],
      [
        "ĠA",
        "I"
      ],
      [
        "Ġ3",
        "6"
      ],
      [
        "im",
        "als"
      ],
      [
        "ĠD",
        "ense"
      ],
      [
        "Ġn",
        "ourish"
      ],
      [
        "Ġro",
        "tate"
[...]
