{
  "version": "1.0",
  "truncation": null,
  "padding": null,
  "added_tokens": [
    {
      "id": 0,
      "content": "<|endoftext|>",
      "single_word": false,
      "lstrip": false,
      "rstrip": false,
      "normalized": false,
      "special": true
    }
  ],
  "normalizer": null,
  "pre_tokenizer": {
    "type": "ByteLevel",
    "add_prefix_space": false,
    "trim_offsets": true,
    "use_regex": true
  },
  "post_processor": null,
  "decoder": {
    "type": "ByteLevel",
    "add_prefix_space": true,
    "trim_offsets": true,
    "use_regex": true
  },
  "model": {
    "type": "BPE",
    "dropout": null,
    "unk_token": null,
    "continuing_subword_prefix": null,
    "end_of_word_suffix": null,
    "fuse_unk": false,
    "byte_fallback": false,
    "ignore_merges": false,
    "vocab": {
      "<|endoftext|>": 0,
      "!": 1,
      "\"": 2,
      "#": 3,
      "$": 4,
      "%": 5,
      "&": 6,
      "'": 7,
      "(": 8,
      ")": 9,
      "*": 10,
      "+": 11,
      ",": 12,
      "-": 13,
      ".": 14,
      "/": 15,
      "0": 16,
      "1": 17,
      "2": 18,
      "3": 19,
      "4": 20,
      "5": 21,
      "6": 22,
      "7": 23,
      "8": 24,
      "9": 25,
      ":": 26,
      ";": 27,
      "<": 28,
      "=": 29,
      ">": 30,
      "?": 31,
      "@": 32,
      "A": 33,
      "B": 34,
      "C": 35,
      "D": 36,
      "E": 37,
      "F": 38,
      "G": 39,
      "H": 40,
      "I": 41,
      "J": 42,
      "K": 43,
      "L": 44,
      "M": 45,
      "N": 46,
      "O": 47,
      "P": 48,
      "Q": 49,
      "R": 50,
      "S": 51,
      "T": 52,
      "U": 53,
      "V": 54,
      "W": 55,
      "X": 56,
      "Y": 57,
      "Z": 58,
      "[": 59,
      "\\": 60,
      "]": 61,
      "^": 62,
      "_": 63,
      "`": 64,
      "a": 65,
      "b": 66,
      "c": 67,
      "d": 68,
      "e": 69,
      "f": 70,
      "g": 71,
      "h": 72,
      "i": 73,
      "j": 74,
      "k": 75,
      "l": 76,
      "m": 77,
      "n": 78,
      "o": 79,
      "p": 80,
      "q": 81,
      "r": 82,
      "s": 83,
      "t": 84,
      "u": 85,
      "v": 86,
      "w": 87,
      "x": 88,
      "y": 89,
      "z": 90,
      "{": 91,
      "|": 92,
      "}": 93,
      "~": 94,
      "¡": 95,
      "¢": 96,
      "£": 97,
      "¤": 98,
      "¥": 99,
      "¦": 100,
      "§": 101,
      "¨": 102,
      "©": 103,
      "ª": 104,
      "«": 105,
      "¬": 106,
      "®": 107,
      "¯": 108,
      "°": 109,
      "±": 110,
      "²": 111,
      "³": 112,
      "´": 113,
      "µ": 114,
      "¶": 115,
      "·": 116,
      "¸": 117,
      "¹": 118,
      "º": 119,
      "»": 120,
      "¼": 121,
      "½": 122,
      "¾": 123,
      "¿": 124,
      "À": 125,
      "Á": 126,
      "Â": 127,
      "Ã": 128,
      "Ä": 129,
      "Å": 130,
      "Æ": 131,
      "Ç": 132,
      "È": 133,
      "É": 134,
      "Ê": 135,
      "Ë": 136,
      "Ì": 137,
      "Í": 138,
      "Î": 139,
      "Ï": 140,
      "Ð": 141,
      "Ñ": 142,
      "Ò": 143,
      "Ó": 144,
      "Ô": 145,
      "Õ": 146,
      "Ö": 147,
      "×": 148,
      "Ø": 149,
      "Ù": 150,
      "Ú": 151,
      "Û": 152,
      "Ü": 153,
      "Ý": 154,
      "Þ": 155,
      "ß": 156,
      "à": 157,
      "á": 158,
      "â": 159,
      "ã": 160,
      "ä": 161,
      "å": 162,
      "æ": 163,
      "ç": 164,
      "è": 165,
      "é": 166,
      "ê": 167,
      "ë": 168,
      "ì": 169,
      "í": 170,
      "î": 171,
      "ï": 172,
      "ð": 173,
      "ñ": 174,
      "ò": 175,
      "ó": 176,
      "ô": 177,
      "õ": 178,
      "ö": 179,
      "÷": 180,
      "ø": 181,
      "ù": 182,
      "ú": 183,
      "û": 184,
      "ü": 185,
      "ý": 186,
      "þ": 187,
      "ÿ": 188,
      "Ā": 189,
      "ā": 190,
      "Ă": 191,
      "ă": 192,
      "Ą": 193,
      "ą": 194,
      "Ć": 195,
      "ć": 196,
      "Ĉ": 197,
      "ĉ": 198,
      "Ċ": 199,
      "ċ": 200,
      "Č": 201,
      "č": 202,
      "Ď": 203,
      "ď": 204,
      "Đ": 205,
      "đ": 206,
      "Ē": 207,
      "ē": 208,
      "Ĕ": 209,
      "ĕ": 210,
      "Ė": 211,
      "ė": 212,
      "Ę": 213,
      "ę": 214,
      "Ě": 215,
      "ě": 216,
      "Ĝ": 217,
      "ĝ": 218,
      "Ğ": 219,
      "ğ": 220,
      "Ġ": 221,
      "ġ": 222,
      "Ģ": 223,
      "ģ": 224,
      "Ĥ": 225,
      "ĥ": 226,
      "Ħ": 227,
      "ħ": 228,
      "Ĩ": 229,
      "ĩ": 230,
      "Ī": 231,
      "ī": 232,
      "Ĭ": 233,
      "ĭ": 234,
      "Į": 235,
      "į": 236,
      "İ": 237,
      "ı": 238,
      "Ĳ": 239,
      "ĳ": 240,
      "Ĵ": 241,
      "ĵ": 242,
      "Ķ": 243,
      "ķ": 244,
      "ĸ": 245,
      "Ĺ": 246,
      "ĺ": 247,
      "Ļ": 248,
      "ļ": 249,
      "Ľ": 250,
      "ľ": 251,
      "Ŀ": 252,
      "ŀ": 253,
      "Ł": 254,
      "ł": 255,
      "Ń": 256,
      "te": 257,
      "in": 258,
      "en": 259,
      "Ġs": 260,
      "ou": 261,
      "Ġa": 262,
      "Ġt": 263,
      "er": 264,
      "Ġb": 265,
      "of": 266,
      "Ġf": 267,
      "ta": 268,
      "re": 269,
      "is": 270,
      "Ġd": 271,
      "on": 272,
      "Ġw": 273,
      "Ġc": 274,
      "end": 275,
      "ing": 276,
      "ofte": 277,
      "xt": 278,
      "<|": 279,
      "|>": 280,
      "endofte": 281,
      "endoftext": 282,
      "gh": 283,
      "nd": 284,
      "or": 285,
      "our": 286,
      "he": 287,
      "ti": 288,
      "ough": 289,
      "Ġto": 290,
      "le": 291,
      "ter": 292,
      "Ġand": 293,
      "Ġp": 294,
      "ss": 295,
      "Ġm": 296,
      "at": 297,
      "nt": 298,
      "Ġin": 299,
      "Us": 300,
      "it": 301,
      "tant": 302,
      "Ġh": 303,
      "ssis": 304,
      "Ġthe": 305,
      "ssistant": 306,
      "es": 307,
      "ro": 308,
      ".<|": 309,
      "Assistant": 310,
      "User": 311,
      "ak": 312,
      "ed": 313,
      "ar": 314,
      "ly": 315,
      "an": 316,
      "tion": 317,
      "Ġl": 318,
      "as": 319,
      "al": 320,
      "ourd": 321,
      "ourdough": 322,
      "ic": 323,
      "ow": 324,
      "ld": 325,
      "Ġg": 326,
      "ra": 327,
      "Ġsourdough": 328,
      "us": 329,
      "id": 330,
      "Ġ1": 331,
      "Ġdough": 332,
      "Ġfor": 333,
      "Ġfl": 334,
      "ĠI": 335,
      "Â°": 336,
      "tar": 337,
      "Ġo": 338,
      "Ġbak": 339,
      "ith": 340,
      "Ġwith": 341,
      "Ġre": 342,
      "ac": 343,
      "el": 344,
      "ad": 345,
      "Ġis": 346,
      "Ġor": 347,
      "Ġ2": 348,
      "Ġstar": 349,
      "ent": 350,
      "Ġflour": 351,
      "ul": 352,
      "ĠW": 353,
      "Ġe": 354,
      "Ġu": 355,
      "Ġr": 356,
      "et": 357,
      "Ġco": 358,
      "ch": 359,
      "ater": 360,
      "Ġov": 361,
      "Ġy": 362,
      "Ġth": 363,
      "Ġ(": 364,
      "Ġwh": 365,
      "to": 366,
      "Ġwater": 367,
      "erm": 368,
      "ate": 369,
      "ot": 370,
      "um": 371,
      "Ġcr": 372,
      "Ġstarter": 373,
      "Ġdo": 374,
      "ute": 375,
      "ur": 376,
      "mp": 377,
      "ĠWh": 378,
      "Ġsh": 379,
      "ĠH": 380,
      "Ġof": 381,
      "Ġon": 382,
      "read": 383,
      "enta": 384,
      "Ġte": 385,
      "ure": 386,
      "ap": 387,
      "igh": 388,
      "il": 389,
      "ĠA": 390,
      "Ġpro": 391,
      "ve": 392,
      "Ġac": 393,
      "Ġbread": 394,
      "tic": 395,
      "Ġbaking": 396,
      "qu": 397,
      "ĠT": 398,
      "Ġ3": 399,
      "Ġle": 400,
      "Ġst": 401,
      "Ġgl": 402,
      "ermenta": 403,
      "ust": 404,
      "Ġit": 405,
      "Ġcon": 406,
      "Ġ10": 407,
      "ermentation": 408,
      "ol": 409,
      "old": 410,
      "im": 411,
      "ĠF": 412,
      "am": 413,
      "ain": 414,
      "ĠD": 415,
      "uten": 416,
      "Ġgluten": 417,
      "Ġlo": 418,
      "ĠHow": 419,
      "ast": 420,
      "Ġus": 421,
      "ble": 422,
      "eed": 423,
      "ĠS": 424,
      "Ġn": 425,
      "Ġan": 426,
      "Ġsp": 427,
      "ight": 428,
      "Ġoven": 429,
      "Ġro": 430,
      "ir": 431,
      "dra": 432,
      "ut": 433,
      "ĠC": 434,
      "Ġat": 435,
      "ore": 436,
      "ydra": 437,
      "av": 438,
      "Ġ5": 439,
      "Ġste": 440,
      "Ġ20": 441,
      "ff": 442,
      "ard": 443,
      "Ġun": 444,
      "Ġcrust": 445,
      "Ġhydra": 446,
      "Ġad": 447,
      "af": 448,
      "ri": 449,
      "ge": 450,
      "Ġover": 451,
      "Ġbe": 452,
      "Ġmy": 453,
      "out": 454,
      "uc": 455,
      "ide": 456,
      "Ġfermentation": 457,
      "Ġhydration": 458,
      "and": 459,
      "ee": 460,
      "Ġbake": 461,
      "erat": 462,
      "ĠWhat": 463,
      "Ġby": 464,
      "se": 465,
      "Ġ4": 466,
      "Ġex": 467,
      "ck": 468,
      "ip": 469,
      "Ġinto": 470,
      "heat": 471,
      "ĠP": 472,
      "Ġtemp": 473,
      "ver": 474,
      "nder": 475,
      "Ġmin": 476,
      "Ġyour": 477,
      "Ġloaf": 478,
      "ix": 479,
      "ll": 480,
      "Ġuse": 481,
      "rom": 482,
      "Ġcold": 483,
      "Ġshap": 484,
      "Ġk": 485,
      "Ġqu": 486,
      "Ġi": 487,
      "Ġli": 488,
      "umb": 489,
      "Ġhour": 490,
      "Ġpre": 491,
      "ice": 492,
      "Ġdi": 493,
      "Ġra": 494,
      "ĠB": 495,
      "ulk": 496,
      "ns": 497,
      "Ġunder": 498,
      "erature": 499,
      "Ġfrom": 500,
      "east": 501,
      "ay": 502,
      "Ġwe": 503,
      "Ġv": 504,
      "ole": 505,
      "ild": 506,
      "Ġcan": 507,
      "Ġlev": 508,
      "Ġdur": 509,
      "Ġsl": 510,
      "Ġris": 511,
      "),": 512,
      "ong": 513,
      "Ġdis": 514,
      "Ġtemperature": 515,
      "om": 516,
      "Ġcrumb": 517,
      "ould": 518,
      "st": 519,
      "Ġyeast": 520,
      "Ġen": 521,
      "utes": 522,
      "eep": 523,
      "Ġlevain": 524,
      "tain": 525,
      "Ġbulk": 526,
      "Ġduring": 527,
      "Ġ8": 528,
      "Ġsu": 529,
      "Ġde": 530,
      "Ġmix": 531,
      "Ġ6": 532,
      "Ġbl": 533,
      "Ġsteam": 534,
      "Ġstr": 535,
      "all": 536,
      "Ġins": 537,
      "Ġminutes": 538,
      "ase": 539,
      "Ġ7": 540,
      "Ġdoes": 541,
      "Ġhours": 542,
      "Ġfold": 543,
      "Ġbu": 544,
      "pp": 545,
      "Ġpan": 546,
      "ĠM": 547,
      "red": 548,
      "ye": 549,
      "sh": 550,
      "Ġacid": 551,
      "Ġ100": 552,
      "Ġwhen": 553,
      "Ġthat": 554,
      "ĠWhy": 555,
      "fore": 556,
      "Ġfr": 557,
      "Ġshould": 558,
      "ation": 559,
      "ack": 560,
      "Ġab": 561,
      "ce": 562,
      "estion": 563,
      "Ġquestion": 564,
      "Ġsc": 565,
      "ted": 566,
      "Ġper": 567,
      "Ġ50": 568,
      "Ġbefore": 569,
      "Ġse": 570,
      "ile": 571,
      "ace": 572,
      "alt": 573,
      "tal": 574,
      "Ġ30": 575,
      "Ġrec": 576,
      "aus": 577,
      "ia": 578,
      "Ġrise": 579,
      "ct": 580,
      "ke": 581,
      "ient": 582,
      "duc": 583,
      "ring": 584,
      "arm": 585,
      "Ġadv": 586,
      "ine": 587,
      "ion": 588,
      "til": 589,
      "ated": 590,
      "ĠCan": 591,
      "ity": 592,
      "tard": 593,
      "Ġuntil": 594,
      "ive": 595,
      "ath": 596,
      "Ġsm": 597,
      "ĠR": 598,
      "Ġwithout": 599,
      "Ġhand": 600,
      "mple": 601,
      "iz": 602,
      "Ġmo": 603,
      "Ġspring": 604,
      "Ġbot": 605,
      "Ġsti": 606,
      "ake": 607,
      "Ġrye": 608,
      "Ġhe": 609,
      "Ġwarm": 610,
      "ist": 611,
      "tch": 612,
      "ts": 613,
      "card": 614,
      "rou": 615,
      "ĠIn": 616,
      "Ġhigh": 617,
      "Ġyou": 618,
      "tick": 619,
      "Ġj": 620,
      "ĠUs": 621,
      "Ġsta": 622,
      "Ġbaker": 623,
      "Ġrecip": 624,
      "Ġstick": 625,
      "Ġshaping": 626,
      "ĠTh": 627,
      "ich": 628,
      "Ġlike": 629,
      "ays": 630,
      "Ġwhole": 631,
      "pen": 632,
      "Ġpar": 633,
      "ally": 634,
      "Ġcontain": 635,
      "Ġroom": 636,
      "Ġfeed": 637,
      "Ġall": 638,
      "row": 639,
      "tom": 640,
      "ĠFor": 641,
      "up": 642,
      "os": 643,
      "Ġso": 644,
      "own": 645,
      "Ġsteel": 646,
      "Ġbottom": 647,
      "ĠL": 648,
      "Ġwheat": 649,
      "Ġperc": 650,
      "Ġhow": 651,
      "Ġproof": 652,
      "Ġme": 653,
      "Ġcaus": 654,
      "Ġsur": 655,
      "Ġacti": 656,
      "oo": 657,
      "Ġtra": 658,
      "Ġinc": 659,
      "Ġadd": 660,
      "oot": 661,
      "ick": 662,
      "cul": 663,
      "Ġweight": 664,
      "op": 665,
      "Ġthan": 666,
      "ates": 667,
      "Ġtim": 668,
      "Ġsticky": 669,
      "Ġal": 670,
      "umm": 671,
      "Ġadvice": 672,
      "Ġsalt": 673,
      "ently": 674,
      "Ġout": 675,
      "one": 676,
      "Ġup": 677,
      "ill": 678,
      "Ġpercenta": 679,
      "hed": 680,
      "ans": 681,
      "ave": 682,
      "Ġch": 683,
      "Ġ12": 684,
      "ell": 685,
      "Ġblis": 686,
      "aking": 687,
      "retch": 688,
      "Ġwet": 689,
      "Ġfolds": 690,
      "ne": 691,
      "Ġsk": 692,
      "Ġfir": 693,
      "led": 694,
      "Ġ9": 695,
      "Ġexp": 696,
      "Ġbut": 697,
      "idge": 698,
      "Ġfridge": 699,
      "Ġnot": 700,
      "Ġthen": 701,
      "Ġcre": 702,
      "ond": 703,
      "hes": 704,
      "Ġwhile": 705,
      "we": 706,
      "'s": 707,
      "Ġdiscard": 708,
      "med": 709,
      "ry": 710,
      "ĠUse": 711,
      "Ġba": 712,
      "Ġlow": 713,
      "ting": 714,
      "Ġwild": 715,
      "th": 716,
      "Ġmain": 717,
      "Ġcool": 718,
      "Ġsurf": 719,
      "Ġtotal": 720,
      "Ġstretch": 721,
      "Ġ/": 722,
      "acter": 723,
      "Ġam": 724,
      "ull": 725,
      "avor": 726,
      "vel": 727,
      "velop": 728,
      "un": 729,
      "ĠAn": 730,
      "Ġproduc": 731,
      "fter": 732,
      "fermentation": 733,
      "Ġrecipe": 734,
      "Ġbacter": 735,
      "ume": 736,
      "??": 737,
      "Ġheat": 738,
      "ub": 739,
      "erment": 740,
      "Ġrock": 741,
      "ten": 742,
      "Ġform": 743,
      "ary": 744,
      "gar": 745,
      "Ġbuild": 746,
      "utch": 747,
      "ĠE": 748,
      "Ġprote": 749,
      "ens": 750,
      "Ġcup": 751,
      "Ġsurface": 752,
      "ense": 753,
      "gg": 754,
      "Ġtur": 755,
      "Ġlac": 756,
      "Ġmoist": 757,
      "Ġstiff": 758,
      "ink": 759,
      "est": 760,
      "Ġgently": 761,
      "if": 762,
      "Ġtens": 763,
      "Ġhas": 764,
      "lyse": 765,
      "Ġlong": 766,
      "ĠIt": 767,
      "Ġref": 768,
      "sor": 769,
      "Ġabsor": 770,
      "ges": 771,
      "gra": 772,
      "Ġtop": 773,
      "uff": 774,
      "Ġ24": 775,
      "Ġgra": 776,
      "ĠDutch": 777,
      "Ġbub": 778,
      "bles": 779,
      "Ġdire": 780,
      "%,": 781,
      "Ġif": 782,
      "Ġdown": 783,
      "Ġcl": 784,
      "Ġretard": 785,
      "Ġusing": 786,
      "Ġkeep": 787,
      ").": 788,
      "Ġcontains": 789,
      "vide": 790,
      "Ġsugar": 791,
      "ning": 792,
      "Ġbo": 793,
      "Ġjar": 794,
      "Ġoff": 795,
      "not": 796,
      "Ġdense": 797,
      "Ġcannot": 798,
      "ĠK": 799,
      "Ġbacteria": 800,
      "ĠThis": 801,
      "Ġvol": 802,
      "pped": 803,
      "net": 804,
      "Ġban": 805,
      "Ġshape": 806,
      "neton": 807,
      "Ġbanneton": 808,
      "Ġpercentage": 809,
      "astic": 810,
      "aves": 811,
      "Ġmixing": 812,
      "Ġrocks": 813,
      "ric": 814,
      "Ġhave": 815,
      "ment": 816,
      "iron": 817,
      "mm": 818,
      "Ġear": 819,
      "Ġben": 820,
      "blesh": 821,
      "roublesh": 822,
      "ooting": 823,
      "roubleshooting": 824,
      "ĠN": 825,
      "Ġabsorb": 826,
      "ily": 827,
      "Ġbutter": 828,
      "Ġseed": 829,
      "Ġ25": 830,
      "ey": 831,
      "ree": 832,
      "Ġfirst": 833,
      "tered": 834,
      "Ġmic": 835,
      "Ġcomple": 836,
      "Ġset": 837,
      "ĠIf": 838,
      "uto": 839,
      "Ġcons": 840,
      "rig": 841,
      "Ġmoisture": 842,
      "utolyse": 843,
      "75": 844,
      "Ġas": 845,
      "Ġhot": 846,
      "Ġwhat": 847,
      "ĠTe": 848,
      "ĠDo": 849,
      "Ġbet": 850,
      "tions": 851,
      "ever": 852,
      "Ġflat": 853,
      "Ġlet": 854,
      "ather": 855,
      "Ġstand": 856,
      "Ġgas": 857,
      "ood": 858,
      "Ġrefrig": 859,
      "ers": 860,
      "Ġfin": 861,
      "rease": 862,
      "Ġskin": 863,
      "Ġtension": 864,
      "ĠTemp": 865,
      "ating": 866,
      "Ġdeep": 867,
      "Ġvolume": 868,
      "Ġreac": 869,
      "Ġprev": 870,
      "ie": 871,
      "Ġlactic": 872,
      "ven": 873,
      "Ġdirect": 874,
      "ale": 875,
      "Ġrack": 876,
      "inn": 877,
      "inter": 878,
      "Ġ15": 879,
      "Ġopen": 880,
      "Ġweak": 881,
      "Ġhands": 882,
      "Ġtrapped": 883,
      "Ġslow": 884,
      "ches": 885,
      "Ġ=": 886,
      "Ġare": 887,
      "Ġtear": 888,
      "Ġdry": 889,
      "Ġprevent": 890,
      "ere": 891,
      "ĠMy": 892,
      "50": 893,
      "immed": 894,
      "ove": 895,
      "Ġlid": 896,
      "ĠSourdough": 897,
      "Ġdevelop": 898,
      "ented": 899,
      "Ġche": 900,
      "ermented": 901,
      "Ġferment": 902,
      "Ġcle": 903,
      "Ġ40": 904,
      "Ġtime": 905,
      "Ġclean": 906,
      "ins": 907,
      "lace": 908,
      "ately": 909,
      "ĠHey": 910,
      "Ġscore": 911,
      "Ġsmell": 912,
      "Ġblistered": 913,
      "ant": 914,
      "der": 915,
      "Ġiron": 916,
      "Ġbest": 917,
      "ĠThe": 918,
      "Ġafter": 919,
      "itch": 920,
      "etic": 921,
      "Ġbr": 922,
      "Ġind": 923,
      "alcul": 924,
      "Ġacetic": 925,
      "akes": 926,
      "ides": 927,
      "elt": 928,
      "Ġdirectly": 929,
      "tead": 930,
      "Ġcast": 931,
      "aster": 932,
      "Ġgumm": 933,
      "lease": 934,
      "Ġflavor": 935,
      "Ġstrong": 936,
      "Ġinstead": 937,
      "Ġdays": 938,
      "Ġtoo": 939,
      "Ġgummy": 940,
      "iti": 941,
      "edic": 942,
      "Ġstarters": 943,
      "Ġliqu": 944,
      "Ġbrow": 945,
      "Ġmore": 946,
      "Ġoil": 947,
      "Ġcaused": 948,
      "ture": 949,
      "oft": 950,
      "ass": 951,
      "Ġwinter": 952,
      "ters": 953,
      "Ġquick": 954,
      "Ġfaster": 955,
      "pro": 956,
      "Ġwr": 957,
      "Ġmake": 958,
      "Ġonly": 959,
      "Ġ80": 960,
      "Ġ90": 961,
      "lus": 962,
      "Ġel": 963,
      "Ġinch": 964,
      "Ġstarches": 965,
      "Ġ85": 966,
      "zy": 967,
      "often": 968,
      "atin": 969,
      "elatin": 970,
      "Ġliquid": 971,
      "Ġimmed": 972,
      "als": 973,
      "Ġsupp": 974,
      "Ġactive": 975,
      "ĠAny": 976,
      "Ġimmedi": 977,
      "les": 978,
      "Ġinter": 979,
      "elow": 980,
      "tely": 981,
      "Ġrem": 982,
      "Ġkn": 983,
      "Ġstruc": 984,
      "Ġ78": 985,
      "Ġtin": 986,
      "Ġmold": 987,
      "Ġacc": 988,
      "Ġstone": 989,
      "Ġkitch": 990,
      "Ġ65": 991,
      "Ġsaf": 992,
      "ish": 993,
      "orn": 994,
      "gn": 995,
      "Ġbelow": 996,
      "Ġautolyse": 997,
      "Ġbow": 998,
      "ween": 999,
      "Ġbatard": 1000,
      "Ġbetween": 1001,
      "Ġbowl": 1002,
      "ible": 1003,
      "Ġpale": 1004,
      "Ġlar": 1005,
      "Ġgelatin": 1006,
      "illed": 1007,
      "oc": 1008,
      "Ġgre": 1009,
      "Ġeas": 1010,
      "de": 1011,
      "ps": 1012,
      "ways": 1013,
      "Ġ75": 1014,
      "ks": 1015,
      "cess": 1016,
      "Ġactiv": 1017,
      "Ġloaves": 1018,
      "Ġmicro": 1019,
      "ample": 1020,
      "ffer": 1021,
      "Ġallow": 1022,
      "fermented": 1023,
      "ĠO": 1024,
      "Ġsoft": 1025,
      "aste": 1026,
      "Ġproofing": 1027,
      "night": 1028,
      "Ġbre": 1029,
      "Ġovernight": 1030,
      "per": 1031,
      "Ġed": 1032,
      "ound": 1033,
      "ĠSh": 1034,
      "Ġexte": 1035,
      "ĠKeep": 1036,
      "Ġtr": 1037,
      "orm": 1038,
      "ark": 1039,
      "icient": 1040,
      "Ġwhich": 1041,
      "Ġlower": 1042,
      "ling": 1043,
      "Ġno": 1044,
      "Ġshe": 1045,
      "ok": 1046,
      "oid": 1047,
      "Ġbec": 1048,
      "Ġ60": 1049,
      "round": 1050,
      "la": 1051,
      "Ġfood": 1052,
      "Ġone": 1053,
      "Ġimmediately": 1054,
      "ite": 1055,
      "eng": 1056,
      "Ġlight": 1057,
      "Ġbubbles": 1058,
      "ial": 1059,
      "ips": 1060,
      "Ġfinal": 1061,
      "ect": 1062,
      "ous": 1063,
      "Ġstandard": 1064,
      "%),": 1065,
      "pid": 1066,
      "Ġmu": 1067,
      "Ġrapid": 1068,
      "ue": 1069,
      "Ġpull": 1070,
      "ĠInc": 1071,
      "Ġgelatiniz": 1072,
      "enter": 1073,
      "Ġdou": 1074,
      "Ġcenter": 1075,
      "Ġcris": 1076,
      "inkorn": 1077,
      "20": 1078,
      "Ġair": 1079,
      "Ġhold": 1080,
      "Ġdri": 1081,
      "allow": 1082,
      "Ġbran": 1083,
      "Ġback": 1084,
      "Ġmad": 1085,
      "ava": 1086,
      "ummer": 1087,
      "tan": 1088,
      "redient": 1089,
      "Ġsto": 1090,
      "Ġlava": 1091,
      "ents": 1092,
      "ures": 1093,
      "Ġsafe": 1094,
      "Ġing": 1095,
      "Ġthin": 1096,
      "Ġspelt": 1097,
      "ause": 1098,
      "Ġingredient": 1099,
      "Ġequ": 1100,
      "Ġadding": 1101,
      "Ġmuch": 1102,
      "ork": 1103,
      "Ġroll": 1104,
      "Ġenzy": 1105,
      "Ġbecause": 1106,
      "Ġenzym": 1107,
      "ort": 1108,
      "ased": 1109,
      "Ġonto": 1110,
      "Ġturn": 1111,
      "ies": 1112,
      "Ġsour": 1113,
      "Ġcalcul": 1114,
      "ĠTroubleshooting": 1115,
      "ĠPre": 1116,
      "Ġinside": 1117,
      "Ġlarge": 1118,
      "ft": 1119,
      "lour": 1120,
      "???": 1121,
      "Ġfat": 1122,
      "Ġwill": 1123,
      "get": 1124,
      "Ġbaked": 1125,
      "Ġsmall": 1126,
      "Ġcompletely": 1127,
      "tent": 1128,
      "Ġcoil": 1129,
      "ĠWhen": 1130,
      "Ġspread": 1131,
      "Ġscor": 1132,
      "ions": 1133,
      "lusions": 1134,
      "Ġ+": 1135,
      "Ġsi": 1136,
      "Ġtips": 1137,
      "Ġcul": 1138,
      "ached": 1139,
      "Ġwhy": 1140,
      "erator": 1141,
      "ĠPlace": 1142,
      "Ġrefrigerator": 1143,
      "Ġdark": 1144,
      "Ġwrong": 1145,
      "Ġsheet": 1146,
      "ber": 1147,
      "ĠDis": 1148,
      "Ġimp": 1149,
      "Ġ500": 1150,
      "Ġsugars": 1151,
      "ire": 1152,
      "ock": 1153,
      "act": 1154,
      "Ġany": 1155,
      "Ġres": 1156,
      "ĠAl": 1157,
      "ĠBaking": 1158,
      "Ġparts": 1159,
      "iqu": 1160,
      "lor": 1161,
      "Ġswe": 1162,
      "Ġsweet": 1163,
      "bly": 1164,
      "vides": 1165,
      "Ġwent": 1166,
      "Ġcut": 1167,
      "Ġprovides": 1168,
      "Ġstra": 1169,
      "Ġrati": 1170,
      "nead": 1171,
      "Ġscoring": 1172,
      "sw": 1173,
      "ula": 1174,
      "Ġassistant": 1175,
      "Ġbond": 1176,
      "less": 1177,
      "Ġpap": 1178,
      "Ġrest": 1179,
      "Ġheav": 1180,
      "Ġbench": 1181,
      "Ġpaper": 1182,
      "Ġrim": 1183,
      "Ġratio": 1184,
      "ool": 1185,
      "Ġfre": 1186,
      "iling": 1187,
      "ĠPlease": 1188,
      "Ġhel": 1189,
      "10": 1190,
      "wich": 1191,
      "Ġsand": 1192,
      "ilk": 1193,
      "Ġabove": 1194,
      "inner": 1195,
      "Ġelastic": 1196,
      "Ġsandwich": 1197,
      "eat": 1198,
      "ise": 1199,
      "ĠRye": 1200,
      "ĠNever": 1201,
      "Ġtap": 1202,
      "erated": 1203,
      "Ġpr": 1204,
      "Ġmilk": 1205,
      "ĠWhole": 1206,
      "Ġinsuff": 1207,
      "Ġcreates": 1208,
      "Ġprotein": 1209,
      "Ġstructure": 1210,
      "Ġinsufficient": 1211,
      ").<|": 1212,
      "par": 1213,
      "Ġbat": 1214,
      "Ġrub": 1215,
      "Ġshallow": 1216,
      "Ġeasily": 1217,
      "form": 1218,
      "rough": 1219,
      "ys": 1220,
      "Ġcar": 1221,
      "Ġthrough": 1222,
      "Ġtimes": 1223,
      "live": 1224,
      "ze": 1225,
      "Ġend": 1226,
      "Ġolive": 1227,
      "Ġits": 1228,
      "ĠFeed": 1229,
      "Ġeven": 1230,
      "ĠHand": 1231,
      "Ġneed": 1232,
      "ffect": 1233,
      "Ġ68": 1234,
      "Ġmaintain": 1235,
      "DT": 1236,
      "di": 1237,
      "Ġlam": 1238,
      "ĠTo": 1239,
      "Ġ375": 1240,
      "ield": 1241,
      "Ġsummer": 1242,
      "ĠpH": 1243,
      "Ġadvise": 1244,
      "Ġrecipes": 1245,
      "Ġfeeding": 1246,
      "Ġcreate": 1247,
      "mmer": 1248,
      "Ġbreak": 1249,
      "ocul": 1250,
      "Ġincrease": 1251,
      "Ġequal": 1252,
      "ired": 1253,
      "Ġsw": 1254,
      "Ġaffect": 1255,
      "Ġcou": 1256,
      "grad": 1257,
      "Ġsmells": 1258,
      "Ġindic": 1259,
      "gle": 1260,
      "man": 1261,
      "Ġhole": 1262,
      "ross": 1263,
      "chment": 1264,
      "Ġcont": 1265,
      "Ġparchment": 1266,
      "ĠAlways": 1267,
      "age": 1268,
      "ĠFlour": 1269,
      "rib": 1270,
      "ĠBe": 1271,
      "Ġ70": 1272,
      "Ġedges": 1273,
      "ĠCh": 1274,
      "Ġsmoot": 1275,
      "Ġinclusions": 1276,
      "Ġsmooth": 1277,
      "Ġsou": 1278,
      "erate": 1279,
      "heated": 1280,
      "Ġlack": 1281,
      "Ġprovide": 1282,
      "Ġproducing": 1283,
      "Ġingredients": 1284,
      "Ġsoup": 1285,
      "Ġiniti": 1286,
      "ully": 1287,
      "Ġcauses": 1288,
      "Ġbag": 1289,
      "ress": 1290,
      "Ġtearing": 1291,
      "Ġget": 1292,
      "Ġcook": 1293,
      "ĠPro": 1294,
      "Ġslic": 1295,
      "Ġslack": 1296,
      "Ġhelp": 1297,
      "Ġice": 1298,
      "inary": 1299,
      "ence": 1300,
      "esired": 1301,
      "Ġgold": 1302,
      "Ġmeas": 1303,
      "ife": 1304,
      "Ġearly": 1305,
      "Ġknife": 1306,
      "Ġgreased": 1307,
      "Ġgolden": 1308,
      "ving": 1309,
      "xim": 1310,
      "ering": 1311,
      "Ġcontent": 1312,
      "Ġspeed": 1313,
      "Ġkitchen": 1314,
      "oss": 1315,
      "void": 1316,
      "entos": 1317,
      "ĠFr": 1318,
      "Ġansw": 1319,
      "Ġtemperatures": 1320,
      "Ġholes": 1321,
      "entosans": 1322,
      "oom": 1323,
      "Ġtight": 1324,
      "Ġhap": 1325,
      "Ġformula": 1326,
      "ĠDiscard": 1327,
      "Ġrubber": 1328,
      "Ġhappen": 1329,
      "side": 1330,
      "Ġdel": 1331,
      "ang": 1332,
      "Ġflakes": 1333,
      "Ġrela": 1334,
      "ĠSp": 1335,
      "Ġexcess": 1336,
      "Ġinstant": 1337,
      "Ġfru": 1338,
      "ĠShould": 1339,
      "Ġtrans": 1340,
      "ward": 1341,
      "Ġpentosans": 1342,
      "Ġhard": 1343,
      "ult": 1344,
      "iant": 1345,
      "Ġboiling": 1346,
      "mol": 1347,
      "ina": 1348,
      "Ġpl": 1349,
      "oll": 1350,
      "ĠSti": 1351,
      "24": 1352,
      "Ġsample": 1353,
      "Ġcrisp": 1354,
      "65": 1355,
      "nal": 1356,
      "Ġmat": 1357,
      "Ġrequ": 1358,
      "Ġ45": 1359,
      "Ġshaped": 1360,
      "Ġdiffer": 1361,
      "shap": 1362,
      "ĠUsing": 1363,
      "Ġreach": 1364,
      "cient": 1365,
      "nter": 1366,
      "por": 1367,
      "ually": 1368,
      "orpor": 1369,
      "Ġpack": 1370,
      "Ġstart": 1371,
      "Ġeinkorn": 1372,
      "Ġtest": 1373,
      "Ġ48": 1374,
      "Ġbene": 1375,
      "Ġbonds": 1376,
      "Ġheavy": 1377,
      "Ġcounter": 1378,
      "ination": 1379,
      "Ġpour": 1380,
      "Ġmaking": 1381,
      "Ġblisters": 1382,
      "Ġremain": 1383,
      "Ġcalculate": 1384,
      "Ġsign": 1385,
      "Ġstraight": 1386,
      "cial": 1387,
      "ginner": 1388,
      "yl": 1389,
      "Ġ~": 1390,
      "very": 1391,
      "Ġgrains": 1392,
      "Ġextens": 1393,
      "Ġrapidly": 1394,
      "ĠIncrease": 1395,
      "Ġfresh": 1396,
      "dd": 1397,
      "ĠY": 1398,
      "Ġsourd": 1399,
      "Ġtang": 1400,
      "ĠIs": 1401,
      "Ġread": 1402,
      "Ġyield": 1403,
      "Ġdeg": 1404,
      "oculation": 1405,
      "Ġanswer": 1406,
      "oughly": 1407,
      "Ġ27": 1408,
      "Ġcondi": 1409,
      "alth": 1410,
      "Ġhealth": 1411,
      "Ġpercentages": 1412,
      "Ġconditions": 1413,
      "68": 1414,
      "Ġph": 1415,
      "Ġ16": 1416,
      "Ġ18": 1417,
      "Ġrising": 1418,
      "ĠNeed": 1419,
      "Ġaccel": 1420,
      "Ġturned": 1421,
      "ib": 1422,
      "Ġfavor": 1423,
      "Ġda": 1424,
      "Ġdedic": 1425,
      "ases": 1426,
      "Ġrice": 1427,
      "Ġprogra": 1428,
      "Ġfirm": 1429,
      "Ġdedicated": 1430,
      "26": 1431,
      "just": 1432,
      "atur": 1433,
      "ance": 1434,
      "bleached": 1435,
      "Ġnatur": 1436,
      "Ġexc": 1437,
      "Ġdegrad": 1438,
      "Ġexpand": 1439,
      "Ġrequire": 1440,
      "are": 1441,
      "ses": 1442,
      "Ġide": 1443,
      "ĠWith": 1444,
      "Ġbrown": 1445,
      "Ġbrowning": 1446,
      "ior": 1447,
      "mo": 1448,
      "nel": 1449,
      "und": 1450,
      "Ġpow": 1451,
      "Ġround": 1452,
      "Ġacross": 1453,
      "ome": 1454,
      "Ġenric": 1455,
      "ize": 1456,
      "Ġideal": 1457,
      "Ġenriched": 1458,
      "Ġstarch": 1459,
      "ĠDi": 1460,
      "Ġpart": 1461,
      "Ġslowly": 1462,
      "proof": 1463,
      "gul": 1464,
      "Ġsoften": 1465,
      "Ġactivity": 1466,
      "Ġhappens": 1467,
      "Ġnaturally": 1468,
      "Ġoften": 1469,
      "Ġcover": 1470,
      "Ġwhite": 1471,
      "ility": 1472,
      "Ġleav": 1473,
      "Ġens": 1474,
      "Ġchlor": 1475,
      "li": 1476,
      "Ġwee": 1477,
      "Ġpe": 1478,
      "reeze": 1479,
      "actor": 1480,
      "Ġlacks": 1481,
      "atic": 1482,
      "so": 1483,
      "Ġtroubleshooting": 1484,
      "Ġgen": 1485,
      "Ġrather": 1486,
      "Ġdid": 1487,
      "ĠAt": 1488,
      "Ġunbleached": 1489,
      "ĠBake": 1490,
      "Ġbatards": 1491,
      "%.": 1492,
      "80": 1493,
      "able": 1494,
      "co": 1495,
      "Ġtun": 1496,
      "Ġhum": 1497,
      "Ġstreng": 1498,
      "Ġalso": 1499,
      "Ġproduces": 1500,
      "Ġturns": 1501,
      "Ġsuppress": 1502,
      "Ġmade": 1503,
      "Ġtunnel": 1504,
      "Ġhumid": 1505,
      "Ġstrength": 1506,
      "bs": 1507,
      "tly": 1508,
      "Ġfully": 1509,
      "Ġcav": 1510,
      "ictly": 1511,
      "Ġshow": 1512,
      "ĠBulk": 1513,
      "Ġstrictly": 1514,
      "Ġacidity": 1515,
      "Ġinterior": 1516,
      "aill": 1517,
      "Ġmedic": 1518,
      "els": 1519,
      "Ġknead": 1520,
      "ĠMaill": 1521,
      "ĠLo": 1522,
      "iquot": 1523,
      "Ġrelax": 1524,
      "Ġpeak": 1525,
      "ĠMaillard": 1526,
      "bl": 1527,
      "Ġtall": 1528,
      "ĠAfter": 1529,
      "utri": 1530,
      "Ġdisc": 1531,
      "Ġabsorbs": 1532,
      "Ġtears": 1533,
      "bon": 1534,
      "ature": 1535,
      "lying": 1536,
      "Ġext": 1537,
      "Ġtender": 1538,
      "ĠDough": 1539,
      "Ġhydrate": 1540,
      "Ġcarbon": 1541,
      "Ġinitial": 1542,
      "Ġrubbery": 1543,
      "Ġbase": 1544,
      "isters": 1545,
      "ght": 1546,
      "tight": 1547,
      "Ġmon": 1548,
      "asta": 1549,
      "iction": 1550,
      "Ġreduc": 1551,
      "Ġfriction": 1552,
      "Ġairtight": 1553,
      "ction": 1554,
      "oth": 1555,
      "Ġancient": 1556,
      "Ġabund": 1557,
      "Ġbox": 1558,
      "Ġenzymes": 1559,
      "Ġplastic": 1560,
      "utrients": 1561,
      "Ġabundant": 1562,
      "Ġou": 1563,
      "Ġbou": 1564,
      "Ġble": 1565,
      "tive": 1566,
      "Ġflours": 1567,
      "Ġegg": 1568,
      "ĠMix": 1569,
      "ĠLet": 1570,
      "Ġbubbly": 1571,
      "Ġouter": 1572,
      "oly": 1573,
      "Ġcub": 1574,
      "anks": 1575,
      "Ġdivide": 1576,
      "alls": 1577,
      "ĠThanks": 1578,
      "Ġaliquot": 1579,
      "Ġdries": 1580,
      "Ġculinary": 1581,
      "proofed": 1582,
      "line": 1583,
      "sol": 1584,
      "Ġaround": 1585,
      "let": 1586,
      "Ġinoculation": 1587,
      "arget": 1588,
      "Ġtherm": 1589,
      "illet": 1590,
      "Ġload": 1591,
      "asting": 1592,
      "Ġroasting": 1593,
      "vert": 1594,
      "Ġminim": 1595,
      "Ġsemol": 1596,
      "Ġcontainer": 1597,
      "Ġskillet": 1598,
      "oche": 1599,
      "Ġyielding": 1600,
      "Ġreduce": 1601,
      "Ġev": 1602,
      "Ġevery": 1603,
      "Ġdomed": 1604,
      "Ġseam": 1605,
      "Ġrooms": 1606,
      "Ġgrain": 1607,
      "Ġexcessive": 1608,
      "ail": 1609,
      "mal": 1610,
      "son": 1611,
      "Ġfing": 1612,
      "Ġcyl": 1613,
      "vere": 1614,
      "Ġperson": 1615,
      "Ġsevere": 1616,
      "blisters": 1617,
      "Ġcylin": 1618,
      "ose": 1619,
      "ugg": 1620,
      "Ġmild": 1621,
      "Ġcomp": 1622,
      "ĠCold": 1623,
      "Ġkeeping": 1624,
      "ĠLoad": 1625,
      "Ġextra": 1626,
      "uggish": 1627,
      "Ġtake": 1628,
      "Ġfil": 1629,
      "Ġfoc": 1630,
      "acc": 1631,
      "ĠBF": 1632,
      "Ġenough": 1633,
      "ĠEx": 1634,
      "Ġevenly": 1635,
      "Ġspeeds": 1636,
      "Ġmonth": 1637,
      "32": 1638,
      "ces": 1639,
      "fer": 1640,
      "los": 1641,
      "mic": 1642,
      "Ġtri": 1643,
      "Ġfilled": 1644,
      "Ġdull": 1645,
      "Ġchemic": 1646,
      "Ġcleanly": 1647,
      "Ġgelatinized": 1648,
      "19": 1649,
      "zor": 1650,
      "ĠWater": 1651,
      "Ġrich": 1652,
      "ets": 1653,
      "Ġ350": 1654,
      "Ġrazor": 1655,
      "Ġunderne": 1656,
      "Ġweather": 1657,
      "ĠDoes": 1658,
      "Ġdouble": 1659,
      "ĠPreheat": 1660,
      "Ġprim": 1661,
      "ĠBeginner": 1662,
      "shaping": 1663,
      "190": 1664,
      "Ġunderneath": 1665,
      "SP": 1666,
      "min": 1667,
      "tle": 1668,
      "Ġdro": 1669,
      "Ġadjust": 1670,
      "Ġdist": 1671,
      "pping": 1672,
      "Ġrectan": 1673,
      "Ġhandling": 1674,
      "Ġincorpor": 1675,
      "Ġchilled": 1676,
      "ondering": 1677,
      "Ġbuilds": 1678,
      "ĠESP": 1679,
      "Ġbannetons": 1680,
      "antly": 1681,
      "Ġspreading": 1682,
      "Ġthermal": 1683,
      "apor": 1684,
      "vection": 1685,
      "Ġ32": 1686,
      "alleng": 1687,
      "Ġdaily": 1688,
      "like": 1689,
      "Ġcubes": 1690,
      "Ġmonths": 1691,
      "allenger": 1692,
      "ess": 1693,
      "Ġes": 1694,
      "ittle": 1695,
      "ĠDDT": 1696,
      "Ġfolding": 1697,
      "Ġsea": 1698,
      "Ġinternal": 1699,
      "bient": 1700,
      "peat": 1701,
      "Ġtaste": 1702,
      "Ġwork": 1703,
      "Ġconduc": 1704,
      "Ġne": 1705,
      "Ġpreheated": 1706,
      "Ġvir": 1707,
      "Ġslice": 1708,
      "Ġambient": 1709,
      "Ġsupport": 1710,
      "ollow": 1711,
      "Ġevapor": 1712,
      "axim": 1713,
      "Ġfra": 1714,
      "Ġmaxim": 1715,
      "Ġgrow": 1716,
      "Ġwhere": 1717,
      "Ġproble": 1718,
      "Ġ205": 1719,
      "Ġvent": 1720,
      "Ġmixed": 1721,
      "Ġbakers": 1722,
      "Ġquickly": 1723,
      "Ġremove": 1724,
      "Ġkitchens": 1725,
      "Ġstore": 1726,
      "ĠChallenger": 1727,
      "Ġbeneath": 1728,
      "Ġfocacc": 1729,
      "Ġproblem": 1730,
      "Ġfocaccia": 1731,
      "ian": 1732,
      "Ġtoward": 1733,
      "Ġpat": 1734,
      "tional": 1735,
      "Ġright": 1736,
      "rix": 1737,
      "ĠPer": 1738,
      "Ġquestions": 1739,
      "mming": 1740,
      "Ġscored": 1741,
      "Ġdried": 1742,
      "Ġmatrix": 1743,
      "Ġprogramming": 1744,
      "ox": 1745,
      "eral": 1746,
      "Ġfe": 1747,
      "ange": 1748,
      "ically": 1749,
      "Ġdiox": 1750,
      "izes": 1751,
      "Ġready": 1752,
      "Ġpowder": 1753,
      "Ġsemolina": 1754,
      "Ġchemicals": 1755,
      "Ġdioxide": 1756,
      "Qu": 1757,
      "ĠQu": 1758,
      "orten": 1759,
      "Ġcom": 1760,
      "Ġthor": 1761,
      "Ġseeds": 1762,
      "ĠProof": 1763,
      "Ġextensible": 1764,
      "ĠQuick": 1765,
      "gile": 1766,
      "Ġbur": 1767,
      "Ġpink": 1768,
      "Ġmass": 1769,
      "educ": 1770,
      "anic": 1771,
      "Ġvi": 1772,
      "Ġabout": 1773,
      "iled": 1774,
      "ĠReduc": 1775,
      "ness": 1776,
      "Ġextend": 1777,
      "Ġfats": 1778,
      "Ġbatch": 1779,
      "Ġfragile": 1780,
      "ĠReduce": 1781,
      "Room": 1782,
      "ital": 1783,
      "Ġ-": 1784,
      "Ġz": 1785,
      "Ġgent": 1786,
      "Ġroughly": 1787,
      "ĠFric": 1788,
      "ĠFactor": 1789,
      "Ġexample": 1790,
      "Ġbags": 1791,
      "Ġdifference": 1792,
      "gular": 1793,
      "ĠFriction": 1794,
      "ĠG": 1795,
      "Ġdra": 1796,
      "tire": 1797,
      "Ġplace": 1798,
      "aken": 1799,
      "eth": 1800,
      "Ġshorten": 1801,
      "Ġentire": 1802,
      "Ġstitch": 1803,
      "Ġreaches": 1804,
      "Ġcutting": 1805,
      "cc": 1806,
      "igg": 1807,
      "Ġflying": 1808,
      "rap": 1809,
      "Ġflo": 1810,
      "Ġwithin": 1811,
      "ĠAvoid": 1812,
      "amine": 1813,
      "Ġsec": 1814,
      "Ġjigg": 1815,
      "Ġtransfer": 1816,
      "Ġfreshly": 1817,
      "isten": 1818,
      "Ġdesired": 1819,
      "Ġcer": 1820,
      "Ġcinn": 1821,
      "Ġgive": 1822,
      "tical": 1823,
      "ĠFreeze": 1824,
      "amon": 1825,
      "Ġyeasts": 1826,
      "Ġmetal": 1827,
      "perly": 1828,
      "Ġpullman": 1829,
      "ockets": 1830,
      "Ġelasticity": 1831,
      "Ġfloat": 1832,
      "Ġcinnamon": 1833,
      "way": 1834,
      "Ġaerated": 1835,
      "Ġaway": 1836,
      "xture": 1837,
      "Ġhere": 1838,
      "Ġorg": 1839,
      "Ġtexture": 1840,
      "ĠFerment": 1841,
      "Ġuses": 1842,
      "Ġdurum": 1843,
      "ĠRe": 1844,
      "Ġhey": 1845,
      "Ġmadre": 1846,
      "Ġmeasures": 1847,
      "ual": 1848,
      "xic": 1849,
      "ening": 1850,
      "Ġcap": 1851,
      "Ġpaste": 1852,
      "icate": 1853,
      "Ġocc": 1854,
      "urs": 1855,
      "Ġ200": 1856,
      "ĠPour": 1857,
      "Ġoffline": 1858,
      "Ġconsume": 1859,
      "Ġdelicate": 1860,
      "Ġshows": 1861,
      "ĠPerform": 1862,
      "Ġsecond": 1863,
      "Ġoccurs": 1864,
      "down": 1865,
      "nous": 1866,
      "ty": 1867,
      "ernous": 1868,
      "rees": 1869,
      "Ġtoxic": 1870,
      "Ġrev": 1871,
      "Ġcommer": 1872,
      "Ġtell": 1873,
      "amic": 1874,
      "Ġcane": 1875,
      "Ġblend": 1876,
      "Ġproteoly": 1877,
      "Ġgram": 1878,
      "Ġchees": 1879,
      "Ġdegrees": 1880,
      "Ġcavernous": 1881,
      "Ġceramic": 1882,
      "Ġcommercial": 1883,
      "'t": 1884,
      "12": 1885,
      "iv": 1886,
      "pti": 1887,
      "Ġman": 1888,
      "ĠHi": 1889,
      "Ġleather": 1890,
      "ĠSl": 1891,
      "Ġangle": 1892,
      "ĠCr": 1893,
      "Ġcomplex": 1894,
      "Ġtrue": 1895,
      "Ġeggs": 1896,
      "Ġmaximum": 1897,
      "Ġcomb": 1898,
      "ptimal": 1899,
      "bility": 1900,
      "sis": 1901,
      "Ġfermenta": 1902,
      "Ġmath": 1903,
      "Ġhollow": 1904,
      "Ġgo": 1905,
      "Ġfluff": 1906,
      "Ġconf": 1907,
      "imin": 1908,
      "Ġpreheat": 1909,
      "Ġmeans": 1910,
      "Ġelimin": 1911,
      "Ġrolls": 1912,
      "Ġenzymatic": 1913,
      "Ġculture": 1914,
      "Ġfruity": 1915,
      "Ġ160": 1916,
      "38": 1917,
      "me": 1918,
      "mature": 1919,
      "ption": 1920,
      "tually": 1921,
      "Ġ0": 1922,
      "Ġassis": 1923,
      "Ġash": 1924,
      "eri": 1925,
      "Ġfeat": 1926,
      "Ġcur": 1927,
      "leases": 1928,
      "tern": 1929,
      "Ġreleases": 1930,
      "ulate": 1931,
      "Ġeff": 1932,
      "ĠCalcul": 1933,
      "Ġpremature": 1934,
      "Ġsluggish": 1935,
      "Ġseal": 1936,
      "Ġboth": 1937,
      "Ġsurround": 1938,
      "ellow": 1939,
      "Ġstiffens": 1940,
      "Ġrequires": 1941,
      "Ġmedical": 1942,
      "Ġfeatures": 1943,
      "tone": 1944,
      "Ġhal": 1945,
      "use": 1946,
      "iday": 1947,
      "ach": 1948,
      "Ġrun": 1949,
      "ettone": 1950,
      "tose": 1951,
      "Ġleast": 1952,
      "ĠPull": 1953,
      "Ġlif": 1954,
      "Ġrate": 1955,
      "Ġdissol": 1956,
      "Ġpanettone": 1957,
      "Ġstir": 1958,
      "Ġcooler": 1959,
      "Ġcloth": 1960,
      "ĠFriday": 1961,
      "Ġhalf": 1962,
      "ĠPullman": 1963,
      "tur": 1964,
      "xy": 1965,
      "za": 1966,
      "Ġsee": 1967,
      "Ġag": 1968,
      "erates": 1969,
      "Ġpiz": 1970,
      "Ġund": 1971,
      "umed": 1972,
      "ĠHell": 1973,
      "Ġvs": 1974,
      "ansion": 1975,
      "Ġexperi": 1976,
      "Ġexpansion": 1977,
      "Ġconsumed": 1978,
      "Ġdevelops": 1979,
      "Ġstructur": 1980,
      "Ġallows": 1981,
      "Ġdoubles": 1982,
      "Ġprimary": 1983,
      "Ġassist": 1984,
      "Ġpizza": 1985,
      "ĠHello": 1986,
      "Ġstructural": 1987,
      "27": 1988,
      "gry": 1989,
      "hydra": 1990,
      "ura": 1991,
      "tand": 1992,
      "Ġhun": 1993,
      "ract": 1994,
      "etw": 1995,
      "Ġnetw": 1996,
      "Ġpanc": 1997,
      "Ġmotions": 1998,
      "Ġclass": 1999,
      "ribute": 2000,
      "Ġboule": 2001,
      "Ġvirtually": 2002,
      "Ġgrowth": 2003,
      "Ġleathery": 2004,
      "Ġagain": 2005,
      "Ġhungry": 2006,
      "Ġclassic": 2007,
      "aw": 2008,
      "ec": 2009,
      "ench": 2010,
      "Ġarom": 2011,
      "oration": 2012,
      "Ġ210": 2013,
      "Ġcoll": 2014,
      "oloration": 2015,
      "Ġpres": 2016,
      "Ġprepar": 2017,
      "talian": 2018,
      "ook": 2019,
      "Ġ99": 2020,
      "veloped": 2021,
      "Ġmicr": 2022,
      "Ġ900": 2023,
      "Ġallowing": 2024,
      "Ġcontin": 2025,
      "Ġcovered": 2026,
      "Ġdiscoloration": 2027,
      "Ġcollap": 2028,
      "da": 2029,
      "zed": 2030,
      "Ġbas": 2031,
      "arse": 2032,
      "Ġgum": 2033,
      "ĠItalian": 2034,
      "ĠWondering": 2035,
      "ape": 2036,
      "ĠDO": 2037,
      "Ġstill": 2038,
      "Ġhigher": 2039,
      "Ġsoda": 2040,
      "Ġrefrigerated": 2041,
      "ĠDivide": 2042,
      "Ġleaving": 2043,
      "Ġkneading": 2044,
      "Ġprematurely": 2045,
      "96": 2046,
      "gla": 2047,
      "rt": 2048,
      "inch": 2049,
      "Ġart": 2050,
      "onutrients": 2051,
      "Ġcra": 2052,
      "tial": 2053,
      "icta": 2054,
      "Ġdoughs": 2055,
      "Ġthick": 2056,
      "Ġthere": 2057,
      "uring": 2058,
      "ĠCon": 2059,
      "Ġungla": 2060,
      "Ġlift": 2061,
      "Ġenc": 2062,
      "Ġmode": 2063,
      "ooch": 2064,
      "Ġalways": 2065,
      "Ġproteins": 2066,
      "Ġholds": 2067,
      "Ġstop": 2068,
      "Ġbreaks": 2069,
      "ĠYeast": 2070,
      "Ġfavors": 2071,
      "Ġweek": 2072,
      "Ġmicronutrients": 2073,
      "Ġcrack": 2074,
      "Ġunglazed": 2075,
      "tro": 2076,
      "Ġid": 2077,
      "entical": 2078,
      "Ġstain": 2079,
      "Ġhooch": 2080,
      "ĠTarget": 2081,
      "Ġ38": 2082,
      "Ġleft": 2083,
      "Ġoverr": 2084,
      "Ġsched": 2085,
      "Ġhandle": 2086,
      "ĠLe": 2087,
      "Ġtraps": 2088,
      "Ġbuilding": 2089,
      "ĠEinkorn": 2090,
      "Ġsets": 2091,
      "Ġchew": 2092,
      "ĠFrench": 2093,
      "Ġfruit": 2094,
      "Ġexceed": 2095,
      "Ġloading": 2096,
      "Ġmilder": 2097,
      "Ġventing": 2098,
      "Ġfermentable": 2099,
      "Ġnetwork": 2100,
      "Ġagainst": 2101,
      "Ġidentical": 2102,
      "Ġstainless": 2103,
      "Ġschedu": 2104,
      "72": 2105,
      "ential": 2106,
      "Ġside": 2107,
      "Ġbar": 2108,
      "ssential": 2109,
      "ided": 2110,
      "ident": 2111,
      "Ġ29": 2112,
      "ulti": 2113,
      "Ġessential": 2114,
      "Ġcoarse": 2115,
      "Ġgloss": 2116,
      "ĠDesired": 2117,
      "ĠCo": 2118,
      "Ġpress": 2119,
      "Ġdec": 2120,
      "Ġexplos": 2121,
      "Ġkeeps": 2122,
      "produc": 2123,
      "Ġslices": 2124,
      "ĠSpelt": 2125,
      "ĠYou": 2126,
      "Ġaccelerates": 2127,
      "Ġcylinder": 2128,
      "Ġviol": 2129,
      "Ġartis": 2130,
      "Ġglossy": 2131,
      "Ġexplosive": 2132,
      "%).": 2133,
      "94": 2134,
      "sided": 2135,
      "wo": 2136,
      "Ġapp": 2137,
      "rem": 2138,
      "orning": 2139,
      "Ġmuff": 2140,
      "Ġmorning": 2141,
      "Ġinten": 2142,
      "icro": 2143,
      "Ġcore": 2144,
      "Ġthis": 2145,
      "ĠAutolyse": 2146,
      "Ġ35": 2147,
      "Ġloses": 2148,
      "ĠSte": 2149,
      "Ġnon": 2150,
      "Ġ475": 2151,
      "ĠMicro": 2152,
      "Ġoutside": 2153,
      "ific": 2154,
      "Ġgelatinizes": 2155,
      "Ġthinly": 2156,
      "ĠSpread": 2157,
      "ĠStir": 2158,
      "Ġrectangle": 2159,
      "Ġmuffins": 2160,
      "Ġintense": 2161,
      "ful": 2162,
      "loid": 2163,
      "Ġbri": 2164,
      "Ġfu": 2165,
      "Ġdust": 2166,
      "Ġdip": 2167,
      "Ġmulti": 2168,
      "Ġlin": 2169,
      "ĠIts": 2170,
      "Ġrepeat": 2171,
      "ĠAs": 2172,
      "eeter": 2173,
      "Ġrises": 2174,
      "Ġtiny": 2175,
      "Ġaccura": 2176,
      "Ġbrew": 2177,
      "Ġends": 2178,
      "Ġlamination": 2179,
      "Ġsweeter": 2180,
      "Ġhardens": 2181,
      "Ġminimally": 2182,
      "Ġdrops": 2183,
      "Ġincorporate": 2184,
      "Ġconducts": 2185,
      "Ġconfident": 2186,
      "Ġpancakes": 2187,
      "Ġcollapses": 2188,
      "Ġdiploid": 2189,
      "30": 2190,
      "70": 2191,
      "az": 2192,
      "king": 2193,
      "knead": 2194,
      "ple": 2195,
      "Ġavoid": 2196,
      "Ġtigh": 2197,
      "Ġfool": 2198,
      "Ġrel": 2199,
      "chn": 2200,
      "aintain": 2201,
      "Ġglutenin": 2202,
      "Ġunf": 2203,
      "ĠMaintain": 2204,
      "ively": 2205,
      "ĠRH": 2206,
      "Ġsprings": 2207,
      "ĠForm": 2208,
      "ĠLight": 2209,
      "Ġconsult": 2210,
      "Ġbetter": 2211,
      "lusively": 2212,
      "Ġexclusively": 2213,
      "ĠWithout": 2214,
      "Ġchloramine": 2215,
      "Ġfinger": 2216,
      "Ġbrioche": 2217,
      "cap": 2218,
      "fool": 2219,
      "og": 2220,
      "uice": 2221,
      "Ġtwo": 2222,
      "Ġpor": 2223,
      "elp": 2224,
      "Ġthir": 2225,
      "ĠHelp": 2226,
      "Ġpromo": 2227,
      "Ġ33": 2228,
      "Ġdish": 2229,
      "Ġ72": 2230,
      "Ġjuice": 2231,
      "Ġcause": 2232,
      "Ġlonger": 2233,
      "Ġslows": 2234,
      "ĠOn": 2235,
      "Ġescap": 2236,
      "Ġthird": 2237,
      "Ġpromote": 2238,
      "gen": 2239,
      "luc": 2240,
      "Ġsum": 2241,
      "Ġpo": 2242,
      "arp": 2243,
      "Ġoxy": 2244,
      "Ġshaken": 2245,
      "ĠDro": 2246,
      "ĠSc": 2247,
      "Ġmixers": 2248,
      "Ġfermenting": 2249,
      "Ġactivating": 2250,
      "Ġtransluc": 2251,
      "Ġjiggles": 2252,
      "Ġpreser": 2253,
      "Ġcrackers": 2254,
      "Ġoverride": 2255,
      "Ġartisan": 2256,
      "chniqu": 2257,
      "Ġoxygen": 2258,
      "Ġtranslucent": 2259,
      "78": 2260,
      "her": 2261,
      "hong": 2262,
      "ping": 2263,
      "zhong": 2264,
      "tein": 2265,
      "Ġtaking": 2266,
      "onos": 2267,
      "Ġtoget": 2268,
      "Ġ26": 2269,
      "Ġstarts": 2270,
      "toc": 2271,
      "uconos": 2272,
      "Ġsubs": 2273,
      "Ġbloom": 2274,
      "Ġsticking": 2275,
      "gger": 2276,
      "ift": 2277,
      "Ġtensile": 2278,
      "protein": 2279,
      "Ġeasy": 2280,
      "Ġresult": 2281,
      "100": 2282,
      "Ġswift": 2283,
      "Ġsoupy": 2284,
      "Ġmeasure": 2285,
      "Ġtangzhong": 2286,
      "Ġphys": 2287,
      "Ġtrigger": 2288,
      "Ġdoubled": 2289,
      "ĠLeuconos": 2290,
      "ĠDropping": 2291,
      "Ġtogether": 2292,
      "ĠLeuconostoc": 2293,
      "au": 2294,
      "vit": 2295,
      "yp": 2296,
      "tend": 2297,
      "Ġday": 2298,
      "Ġgerm": 2299,
      "Ġ14": 2300,
      "Ġ17": 2301,
      "etone": 2302,
      "Ġ(>": 2303,
      "ĠHowever": 2304,
      "Ġrole": 2305,
      "Ġrose": 2306,
      "Ġstay": 2307,
      "Ġstale": 2308,
      "Ġcools": 2309,
      "Ġknow": 2310,
      "ĠOpen": 2311,
      "ributes": 2312,
      "Ġsignific": 2313,
      "astatic": 2314,
      "ĠExtend": 2315,
      "ĠOnce": 2316,
      "Ġthirds": 2317,
      "vito": 2318,
      "Ġsignificantly": 2319,
      "ecial": 2320,
      "ler": 2321,
      "Ġsit": 2322,
      "Ġbal": 2323,
      "Ġmot": 2324,
      "Ġsharp": 2325,
      "Ġspecial": 2326,
      "Ġbeer": 2327,
      "Ġdeter": 2328,
      "Ġhighly": 2329,
      "Ġmainten": 2330,
      "Ġclay": 2331,
      "Ġfinish": 2332,
      "Ġdegraded": 2333,
      "Ġbleached": 2334,
      "Ġmotor": 2335,
      "Ġmaintenance": 2336,
      "hib": 2337,
      "iving": 2338,
      "od": 2339,
      "ware": 2340,
      "Ġpure": 2341,
      "Ġmel": 2342,
      "Ġmeth": 2343,
      "Ġinhib": 2344,
      "Ġhone": 2345,
      "roxim": 2346,
      "aker": 2347,
      "Ġemmer": 2348,
      "Ġtechniqu": 2349,
      "ĠAdd": 2350,
      "Ġacetone": 2351,
      "Ġless": 2352,
      "Ġconven": 2353,
      "ĠFir": 2354,
      "amut": 2355,
      "Ġnut": 2356,
      "ĠBaker": 2357,
      "Ġbacterial": 2358,
      "Ġletter": 2359,
      "ĠHandling": 2360,
      "Ġlame": 2361,
      "Ġchlorine": 2362,
      "Ġdraft": 2363,
      "Ġapproxim": 2364,
      "Ġmethod": 2365,
      "Ġinhibit": 2366,
      "Ġhoney": 2367,
      "Ġconventional": 2368,
      "ĠFirst": 2369,
      "Ġapproximately": 2370,
      "diant": 2371,
      "Ġtyp": 2372,
      "Ġmalt": 2373,
      "Ġgood": 2374,
      "idd": 2375,
      "ĠHold": 2376,
      "ĠFDT": 2377,
      "fficient": 2378,
      "cking": 2379,
      "Ġradiant": 2380,
      "Ġsufficient": 2381,
      "Ġblock": 2382,
      "Ġtrack": 2383,
      "icks": 2384,
      "ĠDoing": 2385,
      "Ġweeks": 2386,
      "Ġbleach": 2387,
      "Ġorganic": 2388,
      "Ġbask": 2389,
      "Ġtypically": 2390,
      "ogh": 2391,
      "uogh": 2392,
      "zzy": 2393,
      "Ġsofte": 2394,
      "ofess": 2395,
      "Ġcakes": 2396,
      "Ġpast": 2397,
      "Ġpasta": 2398,
      "Ġpockets": 2399,
      "Ġgiant": 2400,
      "Ġcrun": 2401,
      "apple": 2402,
      "ĠChe": 2403,
      "ries": 2404,
      "Ġscale": 2405,
      "ineapple": 2406,
      "ized": 2407,
      "ments": 2408,
      "Ġprofess": 2409,
      "ĠChlor": 2410,
      "Ġsourduogh": 2411,
      "ĠCoil": 2412,
      "Ġpastries": 2413,
      "Ġcrunch": 2414,
      "Ġprofession": 2415,
      "day": 2416,
      "fts": 2417,
      "ÃĹ": 2418,
      "ĠÃĹ": 2419,
      "eration": 2420,
      "Ġwas": 2421,
      "Ġpineapple": 2422,
      "Ġlast": 2423,
      "Ġline": 2424,
      "ration": 2425,
      "Ġoiled": 2426,
      "acina": 2427,
      "ticles": 2428,
      "Ġleaves": 2429,
      "Ġbeen": 2430,
      "Ġdiff": 2431,
      "Ġblack": 2432,
      "Ġbuffer": 2433,
      "Ġparticles": 2434,
      "Ġweights": 2435,
      "cessary": 2436,
      "Ġimpro": 2437,
      "Ġrimacina": 2438,
      "Ġpersonal": 2439,
      "Ġnecessary": 2440,
      "Ġmanage": 2441,
      "Ġrimacinata": 2442,
      "bak": 2443,
      "ced": 2444,
      "ched": 2445,
      "gine": 2446,
      "hol": 2447,
      "ng": 2448,
      "olyse": 2449,
      "uter": 2450,
      "Ġsave": 2451,
      "Ġsides": 2452,
      "Ġfan": 2453,
      "ory": 2454,
      "Ġlittle": 2455,
      "Ġrelease": 2456,
      "ĠHigh": 2457,
      "Ġunheated": 2458,
      "Ġvia": 2459,
      "Ġengine": 2460,
      "Ġmixes": 2461,
      "Ġyoung": 2462,
      "Ġalco": 2463,
      "ĠTemperature": 2464,
      "ĠShape": 2465,
      "Ġsourness": 2466,
      "Ġcomputer": 2467,
      "Ġdissolv": 2468,
      "ĠConvection": 2469,
      "Ġfuzzy": 2470,
      "Ġbalance": 2471,
      "Ġdeterg": 2472,
      "baked": 2473,
      "Ġengineering": 2474,
      "Ġalcohol": 2475,
      "ply": 2476,
      "pur": 2477,
      "pose": 2478,
      "tretch": 2479,
      "Ġsim": 2480,
      "Ġapar": 2481,
      "ero": 2482,
      "Ġfermented": 2483,
      "ors": 2484,
      "Ġput": 2485,
      "eliz": 2486,
      "Ġonce": 2487,
      "ameliz": 2488,
      "ĠStretch": 2489,
      "Ġ450": 2490,
      "Ġmineral": 2491,
      "Ġperform": 2492,
      "Ġsepar": 2493,
      "Ġturning": 2494,
      "grade": 2495,
      "Ġabsorbing": 2496,
      "Ġsafely": 2497,
      "Ġcarameliz": 2498,
      "Ġzero": 2499,
      "ĠCrumb": 2500,
      "Ġaccurately": 2501,
      "Ġbrewing": 2502,
      "Ġspecialized": 2503,
      "purpose": 2504,
      "Ġsimulate": 2505,
      "Ġapart": 2506,
      "free": 2507,
      "iac": 2508,
      "ues": 2509,
      "viron": 2510,
      "Ġcel": 2511,
      "Ġinqu": 2512,
      "rate": 2513,
      "Ġod": 2514,
      "ĠWW": 2515,
      "Ġconvection": 2516,
      "iries": 2517,
      "Ġadmin": 2518,
      "Ġenviron": 2519,
      "Ġdep": 2520,
      "istration": 2521,
      "Ġ120": 2522,
      "Ġpreventing": 2523,
      "Ġflavors": 2524,
      "Ġsoftware": 2525,
      "Ġbreakdown": 2526,
      "Ġfeel": 2527,
      "Ġrelia": 2528,
      "Ġmelted": 2529,
      "Ġcrunchy": 2530,
      "Ġprofessional": 2531,
      "Ġceliac": 2532,
      "Ġinquiries": 2533,
      "Ġadministration": 2534,
      "175": 2535,
      "oh": 2536,
      "erous": 2537,
      "Ġwire": 2538,
      "Ġcrow": 2539,
      "aced": 2540,
      "Ġconvert": 2541,
      "iness": 2542,
      "Ġproduction": 2543,
      "Ġboard": 2544,
      "Ġbrittle": 2545,
      "Ġbatter": 2546,
      "Ġindicates": 2547,
      "Ġextensib": 2548,
      "Ġfilm": 2549,
      "Ġsealed": 2550,
      "Ġthoroughly": 2551,
      "ĠSlide": 2552,
      "Ġmultiply": 2553,
      "Ġpreserving": 2554,
      "Ġenvironment": 2555,
      "Ġextensibility": 2556,
      "cy": 2557,
      "iver": 2558,
      "Ġser": 2559,
      "Ġfail": 2560,
      "Ġdon": 2561,
      "Ġwrap": 2562,
      "Ġtheir": 2563,
      "arrow": 2564,
      "ics": 2565,
      "Ġthrow": 2566,
      "tore": 2567,
      "ental": 2568,
      "Ġ36": 2569,
      "Ġnight": 2570,
      "Ġnarrow": 2571,
      "ĠRoll": 2572,
      "Ġcloche": 2573,
      "Ġmoldy": 2574,
      "Ġsimple": 2575,
      "Ġlamin": 2576,
      "Ġbenef": 2577,
      "Ġsourdoh": 2578,
      "Ġburns": 2579,
      "Ġgentler": 2580,
      "Ġtransferring": 2581,
      "Ġproteolysis": 2582,
      "Ġcheese": 2583,
      "Ġeliminate": 2584,
      "Ġcurr": 2585,
      "ĠCalculating": 2586,
      "Ġsurrounded": 2587,
      "Ġtechnique": 2588,
      "Ġcaramelization": 2589,
      "Ġodors": 2590,
      "ah": 2591,
      "bes": 2592,
      "ger": 2593,
      "uss": 2594,
      "ĠU": 2595,
      "ences": 2596,
      "Ġfix": 2597,
      "ternal": 2598,
      "Ġpin": 2599,
      "Ġold": 2600,
      "Ġorange": 2601,
      "ĠAsh": 2602,
      "ĠTake": 2603,
      "Ġconta": 2604,
      "ored": 2605,
      "ipper": 2606,
      "ĠBl": 2607,
      "Ġacidic": 2608,
      "ĠInternal": 2609,
      "ifies": 2610,
      "Ġtopics": 2611,
      "Ġretarding": 2612,
      "Ġdeveloping": 2613,
      "Ġdeveloped": 2614,
      "Ġlarger": 2615,
      "Ġmicrobes": 2616,
      "Ġneeded": 2617,
      "ĠStiff": 2618,
      "Ġensuring": 2619,
      "Ġdiscuss": 2620,
      "Ġthorough": 2621,
      "Ġsubstan": 2622,
      "ahm": 2623,
      "165": 2624,
      "bed": 2625,
      "ease": 2626,
      "gital": 2627,
      "lic": 2628,
      "mary": 2629,
      "nutrients": 2630,
      "oak": 2631,
      "enet": 2632,
      "oux": 2633,
      "erbs": 2634,
      "Ġpenet": 2635,
      "Ġmidd": 2636,
      "Ġherbs": 2637,
      "idual": 2638,
      "acid": 2639,
      "Ġroux": 2640,
      "ety": 2641,
      "Ġthaw": 2642,
      "urbed": 2643,
      "ĠAP": 2644,
      "ustri": 2645,
      "ĠSoak": 2646,
      "Ġbyproduc": 2647,
      "Ġliving": 2648,
      "Ġdigital": 2649,
      "Ġslide": 2650,
      "Ġdisease": 2651,
      "Ġdeta": 2652,
      "Ġpans": 2653,
      "inegar": 2654,
      "isturbed": 2655,
      "osing": 2656,
      "Ġupward": 2657,
      "Ġproduced": 2658,
      "Ġconsisten": 2659,
      "Ġrefrigerate": 2660,
      "Ġindustri": 2661,
      "Ġsafety": 2662,
      "Ġpulling": 2663,
      "ortless": 2664,
      "Ġresidual": 2665,
      "Ġindicate": 2666,
      "Ġslicing": 2667,
      "Ġsliced": 2668,
      "Ġleavening": 2669,
      "Ġgeneral": 2670,
      "Ġfingers": 2671,
      "Ġtrip": 2672,
      "Ġ325": 2673,
      "Ġgentle": 2674,
      "ives": 2675,
      "Ġcultures": 2676,
      "Ġeffortless": 2677,
      "Ġlifting": 2678,
      "Ġundisturbed": 2679,
      "hydration": 2680,
      "Ġrosemary": 2681,
      "ĠAdding": 2682,
      "Ġsufficiently": 2683,
      "Ġsoftens": 2684,
      "Ġsubstances": 2685,
      "Ġpenetrate": 2686,
      "Ġmiddle": 2687,
      "Ġconsistency": 2688,
      "Ġindustrial": 2689,
      "dicta": 2690,
      "slic": 2691,
      "udd": 2692,
      "wage": 2693,
      "tens": 2694,
      "Ġaeration": 2695,
      "Ġwaste": 2696,
      "nds": 2697,
      "ourish": 2698,
      "leas": 2699,
      "Ġpudd": 2700,
      "Ġpleas": 2701,
      "Ġhus": 2702,
      "aniti": 2703,
      "ustic": 2704,
      "Ġ23": 2705,
      "Ġrustic": 2706,
      "Ġcomm": 2707,
      "Ġyellow": 2708,
      "total": 2709,
      "Ġshort": 2710,
      "Ġstre": 2711,
      "ĠStore": 2712,
      "Ġnourish": 2713,
      "Ġspaced": 2714,
      "Ġunfermented": 2715,
      "Ġcrusts": 2716,
      "Ġexact": 2717,
      "verns": 2718,
      "Ġpredicta": 2719,
      "Ġacids": 2720,
      "Ġsewage": 2721,
      "ĠRest": 2722,
      "ĠThen": 2723,
      "ĠKahm": 2724,
      "Ġresul": 2725,
      "Ġstrands": 2726,
      "Ġrestric": 2727,
      "ossible": 2728,
      "Ġsamples": 2729,
      "Ġpacked": 2730,
      "Ġremainder": 2731,
      "Ġsuppresses": 2732,
      "Ġricher": 2733,
      "italizes": 2734,
      "Ġrevitalizes": 2735,
      "Ġgrams": 2736,
      "Ġcombination": 2737,
      "Ġgoverns": 2738,
      "Ġrunning": 2739,
      "Ġstirred": 2740,
      "ĠHigher": 2741,
      "Ġfails": 2742,
      "Ġtriples": 2743,
      "sliced": 2744,
      "Ġpleasantly": 2745,
      "Ġhusk": 2746,
      "Ġpredictable": 2747,
      "even": 2748,
      "lav": 2749,
      "tract": 2750,
      "whe": 2751,
      "Ġsound": 2752,
      "Ġtarget": 2753,
      "erg": 2754,
      "Ġbes": 2755,
      "Ġfuse": 2756,
      "Ġdental": 2757,
      "Ġcake": 2758,
      "Ġhome": 2759,
      "raper": 2760,
      "Ġfloss": 2761,
      "Ġoptimal": 2762,
      "Ġcol": 2763,
      "ĠWhite": 2764,
      "ĠAI": 2765,
      "ĠCut": 2766,
      "Ġuneven": 2767,
      "Ġdia": 2768,
      "sting": 2769,
      "Ġsub": 2770,
      "Ġscraper": 2771,
      "Ġtrap": 2772,
      "Ġweakens": 2773,
      "ĠThey": 2774,
      "Ġstrongly": 2775,
      "Ġgrey": 2776,
      "developed": 2777,
      "ĠIncorpor": 2778,
      "Ġtightly": 2779,
      "shape": 2780,
      "Ġaccelerate": 2781,
      "Ġdegrades": 2782,
      "Ġsoftened": 2783,
      "Ġensure": 2784,
      "Ġensures": 2785,
      "Ġschedule": 2786,
      "Ġliner": 2787,
      "Ġunflav": 2788,
      "ĠChecking": 2789,
      "Ġdissolved": 2790,
      "ĠCrumbly": 2791,
      "Ġcrowns": 2792,
      "Ġpinwhe": 2793,
      "anitize": 2794,
      "Ġsounds": 2795,
      "Ġbeside": 2796,
      "Ġunflavored": 2797,
      "Ġpinwheels": 2798,
      "29": 2799,
      "bling": 2800,
      "dric": 2801,
      "lled": 2802,
      "set": 2803,
      "sub": 2804,
      "vail": 2805,
      "wan": 2806,
      "Ġsol": 2807,
      "Ġsize": 2808,
      "Ġavail": 2809,
      "Ġbased": 2810,
      "Ġfreeze": 2811,
      "Ġcir": 2812,
      "ending": 2813,
      "Ġinver": 2814,
      "aries": 2815,
      "Ġoth": 2816,
      "umul": 2817,
      "Ġdome": 2818,
      "Ġlook": 2819,
      "ĠSummer": 2820,
      "Ġspot": 2821,
      "Ġrolled": 2822,
      "ĠCook": 2823,
      "Ġunco": 2824,
      "Ġunwan": 2825,
      "Ġadhes": 2826,
      "rier": 2827,
      "vered": 2828,
      "Ġvaries": 2829,
      "Ġcrumbly": 2830,
      "Ġsuch": 2831,
      "Ġstability": 2832,
      "Ġincre": 2833,
      "Ġthanks": 2834,
      "Ġblister": 2835,
      "Ġlowers": 2836,
      "Ġoffset": 2837,
      "Ġaccumul": 2838,
      "ĠOver": 2839,
      "ĠOptimal": 2840,
      "Ġedible": 2841,
      "Ġdeliver": 2842,
      "240": 2843,
      "Ġpacking": 2844,
      "Ġprogram": 2845,
      "Ġgenerate": 2846,
      "Ġcylindric": 2847,
      "Ġevaporating": 2848,
      "Ġzipper": 2849,
      "125": 2850,
      "Ġfluffy": 2851,
      "Ġfluffed": 2852,
      "Ġexperience": 2853,
      "Ġpreparation": 2854,
      "Ġexceeding": 2855,
      "Ġbarrier": 2856,
      "Ġviability": 2857,
      "Ġdetergents": 2858,
      "Ġdepending": 2859,
      "Ġthrowing": 2860,
      "acidifies": 2861,
      "Ġpuddle": 2862,
      "Ġ236": 2863,
      "Ġunevenly": 2864,
      "Ġsolid": 2865,
      "Ġavailable": 2866,
      "Ġcircul": 2867,
      "Ġother": 2868,
      "Ġuncovered": 2869,
      "Ġunwanted": 2870,
      "Ġadhesives": 2871,
      "Ġcylindrical": 2872,
      "%)": 2873,
      "60": 2874,
      "ative": 2875,
      "baking": 2876,
      "bub": 2877,
      "con": 2878,
      "iature": 2879,
      "mix": 2880,
      "pass": 2881,
      "vice": 2882,
      "Ġown": 2883,
      "inder": 2884,
      "Ġsing": 2885,
      "oug": 2886,
      "Ġtough": 2887,
      "Ġboo": 2888,
      "Ġwon": 2889,
      "Ġtoss": 2890,
      "Ġplease": 2891,
      "Ġmal": 2892,
      "ator": 2893,
      "atch": 2894,
      "Ġhinder": 2895,
      "estand": 2896,
      "rol": 2897,
      "ical": 2898,
      "ush": 2899,
      "Ġregul": 2900,
      "elastic": 2901,
      "ĠWet": 2902,
      "Ġcoat": 2903,
      "ĠHarm": 2904,
      "Ġglide": 2905,
      "imne": 2906,
      "ĠSanitize": 2907,
      "Ġspore": 2908,
      "Ġsteak": 2909,
      "uctose": 2910,
      "Ġbypass": 2911,
      "Ġminiature": 2912,
      "Ġunderbaking": 2913,
      "Ġfructose": 2914,
      "ĠRun": 2915,
      "Ġhandled": 2916,
      "Ġmoisten": 2917,
      "ĠInvert": 2918,
      "Ġjust": 2919,
      "Ġchimne": 2920,
      "Ġexpect": 2921,
      "Ġcomplete": 2922,
      "Ġsetting": 2923,
      "ities": 2924,
      "Ġknown": 2925,
      "Ġcrisps": 2926,
      "Ġbonding": 2927,
      "Ġheavily": 2928,
      "Ġfreestand": 2929,
      "ĠHandle": 2930,
      "Ġindicator": 2931,
      "Ġcontrol": 2932,
      "Ġsmoothly": 2933,
      "Ġinitiate": 2934,
      "Ġcooking": 2935,
      "Ġcookies": 2936,
      "Ġsourdoug": 2937,
      "Ġgenerous": 2938,
      "Ġcavities": 2939,
      "Ġboules": 2940,
      "Ġpersonas": 2941,
      "Ġdistribute": 2942,
      "Ġtastes": 2943,
      "Ġpowdery": 2944,
      "ĠGiant": 2945,
      "Ġcombo": 2946,
      "Ġcontinues": 2947,
      "troll": 2948,
      "Ġescapes": 2949,
      "Ġphysically": 2950,
      "Ġbasket": 2951,
      "Ġsubtract": 2952,
      "bubbles": 2953,
      "controll": 2954,
      "Ġsingle": 2955,
      "Ġmaltose": 2956,
      "ĠHarmful": 2957,
      "Ġspores": 2958,
      "Ġchimneys": 2959,
      "Ġfreestanding": 2960,
      "Ġdistributed": 2961,
      "aul": 2962,
      "be": 2963,
      "bor": 2964,
      "bac": 2965,
      "ctions": 2966,
      "ear": 2967,
      "gin": 2968,
      "mall": 2969,
      "walls": 2970,
      "Ġx": 2971,
      "ind": 2972,
      "Ġbad": 2973,
      "Ġbound": 2974,
      "isk": 2975,
      "istent": 2976,
      "ony": 2977,
      "Ġpath": 2978,
      "Ġpie": 2979,
      "Ġmed": 2980,
      "attan": 2981,
      "Ġhaz": 2982,
      "ash": 2983,
      "rafts": 2984,
      "aces": 2985,
      "Ġ28": 2986,
      "Ġrattan": 2987,
      "Ġthri": 2988,
      "Ġthree": 2989,
      "Ġthinner": 2990,
      "tobac": 2991,
      "ĠAll": 2992,
      "Ġproper": 2993,
      "Ġbreads": 2994,
      "Ġleave": 2995,
      "ĠFully": 2996,
      "ĠDrafts": 2997,
      "ĠSalt": 2998,
      "ĠSever": 2999,
      "ĠSmall": 3000,
      "Ġnumb": 3001,
      "Ġbeginner": 3002,
      "ĠBey": 3003,
      "Ġvis": 3004,
      "Ġvaul": 3005,
      "Ġlevel": 3006,
      "Ġlevels": 3007,
      "Ġrisking": 3008,
      "Ġ82": 3009,
      "Ġ1000": 3010,
      "Ġstagn": 3011,
      "ĠLam": 3012,
      "ĠLie": 3013,
      "illi": 3014,
      "rying": 3015,
      "Ġsurfaces": 3016,
      "Ġforms": 3017,
      "Ġlactobac": 3018,
      "Ġabsorption": 3019,
      "Ġdirections": 3020,
      "Ġconsistent": 3021,
      "Ġweakening": 3022,
      "Ġdevelopment": 3023,
      "Ġferments": 3024,
      "Ġwrist": 3025,
      "Ġshear": 3026,
      "Ġfoodbor": 3027,
      "Ġcalculated": 3028,
      "ĠPrefermented": 3029,
      "Ġmaintained": 3030,
      "Ġpower": 3031,
      "Ġshower": 3032,
      "minated": 3033,
      "Ġmassive": 3034,
      "ĠGently": 3035,
      "Ġaromas": 3036,
      "Ġsidewalls": 3037,
      "ĠSteam": 3038,
      "Ġtightens": 3039,
      "ogens": 3040,
      "Ġnutty": 3041,
      "Ġimproperly": 3042,
      "Ġcurrents": 3043,
      "Ġcontaminated": 3044,
      "ĠBlend": 3045,
      "Ġdetach": 3046,
      "Ġrestricts": 3047,
      "Ġcolony": 3048,
      "ĠCutting": 3049,
      "Ġcircular": 3050,
      "Ġpathogens": 3051,
      "Ġpiece": 3052,
      "Ġmedi": 3053,
      "Ġthrive": 3054,
      "ĠSevere": 3055,
      "Ġnumber": 3056,
      "ĠBeyond": 3057,
      "Ġvaulted": 3058,
      "Ġstagnant": 3059,
      "ĠLievito": 3060,
      "Ġlactobacilli": 3061,
      "Ġfoodborne": 3062,
      "15": 3063,
      "49": 3064,
      "ait": 3065,
      "emol": 3066,
      "hor": 3067,
      "hour": 3068,
      "hical": 3069,
      "some": 3070,
      "tched": 3071,
      "yellow": 3072,
      "eness": 3073,
      "Ġsole": 3074,
      "Ġsaves": 3075,
      "Ġfactor": 3076,
      "ings": 3077,
      "ingy": 3078,
      "Ġtooth": 3079,
      "asing": 3080,
      "asan": 3081,
      "rated": 3082,
      "rapped": 3083,
      "usually": 3084,
      "Ġforced": 3085,
      "ĠWinter": 3086,
      "Ġemo": 3087,
      "top": 3088,
      "ilos": 3089,
      "ĠTrapped": 3090,
      "ĠFold": 3091,
      "ains": 3092,
      "ĠDist": 3093,
      "Ġusual": 3094,
      "ĠSemol": 3095,
      "Ġunless": 3096,
      "Ġdies": 3097,
      "Ġdiges": 3098,
      "Ġvom": 3099,
      "Ġsudd": 3100,
      "Ġdef": 3101,
      "Ġblow": 3102,
      "Ġstrange": 3103,
      "Ġstringy": 3104,
      "Ġstatic": 3105,
      "Ġfeeds": 3106,
      "ophical": 3107,
      "Ġchains": 3108,
      "Ġskip": 3109,
      "Ġamber": 3110,
      "Ġforming": 3111,
      "Ġoffer": 3112,
      "device": 3113,
      "cessive": 3114,
      "Ġmicrocontroll": 3115,
      "Ġlowering": 3116,
      "Ġgelatinization": 3117,
      "Ġimpossible": 3118,
      "Ġresting": 3119,
      "Ġcookers": 3120,
      "Ġcookie": 3121,
      "Ġphilos": 3122,
      "Ġsuppressing": 3123,
      "ĠExcessive": 3124,
      "losed": 3125,
      "Ġdrop": 3126,
      "Ġincorporates": 3127,
      "Ġevaporates": 3128,
      "Ġextended": 3129,
      "Ġproteolytic": 3130,
      "Ġcheesy": 3131,
      "Ġexperiences": 3132,
      "tandard": 3133,
      "Ġenclosed": 3134,
      "Ġviolent": 3135,
      "remilled": 3136,
      "Ġ140": 3137,
      "Ġdiffuse": 3138,
      "Ġdoneness": 3139,
      "Ġupwards": 3140,
      "Ġstretched": 3141,
      "Ġaccumulated": 3142,
      "Ġgenerously": 3143,
      "horasan": 3144,
      "Ġsolely": 3145,
      "Ġtoothsome": 3146,
      "Ġemotional": 3147,
      "ĠDistribute": 3148,
      "ĠSemola": 3149,
      "Ġdigested": 3150,
      "Ġvomit": 3151,
      "Ġsudden": 3152,
      "Ġmicrocontroller": 3153,
      "Ġphilosophical": 3154,
      "230": 3155,
      "flour": 3156,
      "muc": 3157,
      "pl": 3158,
      "standard": 3159,
      "tem": 3160,
      "tate": 3161,
      "Ġdes": 3162,
      "Ġdutch": 3163,
      "orative": 3164,
      "Ġpill": 3165,
      "ede": 3166,
      "owy": 3167,
      "Ġgiving": 3168,
      "acity": 3169,
      "Ġemp": 3170,
      "mpt": 3171,
      "entation": 3172,
      "ilage": 3173,
      "Ġprompt": 3174,
      "ĠCup": 3175,
      "Ġ550": 3176,
      "eek": 3177,
      "Ġexce": 3178,
      "ipid": 3179,
      "Ġinsipid": 3180,
      "tching": 3181,
      "ĠThat": 3182,
      "Ġstretching": 3183,
      "Ġformation": 3184,
      "ĠKhorasan": 3185,
      "Ġgases": 3186,
      "Ġweaken": 3187,
      "Ġdoubling": 3188,
      "Ġimpede": 3189,
      "Ġbatches": 3190,
      "ystem": 3191,
      "Ġindicating": 3192,
      "ĠStitching": 3193,
      "Ġdifferent": 3194,
      "Ġcountertop": 3195,
      "Ġdamp": 3196,
      "Ġdegradation": 3197,
      "Ġrounded": 3198,
      "Ġhumidity": 3199,
      "Ġtenderize": 3200,
      "Ġhydrates": 3201,
      "tively": 3202,
      "Ġrectangular": 3203,
      "rape": 3204,
      "Ġcapacity": 3205,
      "ptionally": 3206,
      "Ġeffec": 3207,
      "Ġgums": 3208,
      "Ġencour": 3209,
      "Ġdecorative": 3210,
      "ĠUn": 3211,
      "Ġbyproduct": 3212,
      "Ġdiagn": 3213,
      "ĠIncorporate": 3214,
      "Ġincreasing": 3215,
      "Ġregulates": 3216,
      "mucilage": 3217,
      "Ġpillowy": 3218,
      "Ġempty": 3219,
      "Ġexceptionally": 3220,
      "Ġeffectively": 3221,
      "64": 3222,
      "ginn": 3223,
      "sum": 3224,
      "uild": 3225,
      "xible": 3226,
      "Ġver": 3227,
      "Ġtuc": 3228,
      "ert": 3229,
      "Ġband": 3230,
      "Ġfle": 3231,
      "Ġfed": 3232,
      "Ġmark": 3233,
      "Ġharm": 3234,
      "aps": 3235,
      "imates": 3236,
      "imals": 3237,
      "ame": 3238,
      "Ġrotate": 3239,
      "Ġ464": 3240,
      "ĠBuild": 3241,
      "omb": 3242,
      "Ġenerg": 3243,
      "Ġaltern": 3244,
      "Ġupside": 3245,
      "Ġchill": 3246,
      "Ġ93": 3247,
      "Ġrefract": 3248,
      "Ġclimates": 3249,
      "Ġreaction": 3250,
      "Ġdrying": 3251,
      "Ġscores": 3252,
      "Ġsupple": 3253,
      "Ġgreater": 3254,
      "Ġactivated": 3255,
      "Ġspreads": 3256,
      "ĠDissol": 3257,
      "ĠFeeding": 3258,
      "Ġdegree": 3259,
      "Ġphase": 3260,
      "Ġrelaxes": 3261,
      "Ġminimize": 3262,
      "Ġfeels": 3263,
      "Ġeliminates": 3264,
      "Ġlife": 3265,
      "Ġpreparing": 3266,
      "Ġdecimals": 3267,
      "Ġ334": 3268,
      "Ġinverted": 3269,
      "Ġdelivering": 3270,
      "Ġcontrols": 3271,
      "ears": 3272,
      "Ġvisible": 3273,
      "Ġconsistently": 3274,
      "ginners": 3275,
      "Ġflexible": 3276,
      "Ġenergy": 3277,
      "Ġrefractory": 3278,
      "ĠDissolve": 3279,
      "',": 3280,
      "149": 3281,
      "71": 3282,
      "djust": 3283,
      "eveloped": 3284,
      "rin": 3285,
      "Ġ'": 3286,
      "Ġir": 3287,
      "inal": 3288,
      "Ġballs": 3289,
      "Ġfive": 3290,
      "tale": 3291,
      "retard": 3292,
      "regular": 3293,
      "Ġdue": 3294,
      "Ġwind": 3295,
      "Ġcorn": 3296,
      "Ġperm": 3297,
      "anently": 3298,
      "icip": 3299,
      "ĠIns": 3300,
      "Ġretain": 3301,
      "Ġrimmed": 3302,
      "Ġ(<": 3303,
      "umin": 3304,
      "ĠWhisk": 3305,
      "Ġteeth": 3306,
      "ĠAdjust": 3307,
      "ĠFinal": 3308,
      "Ġspr": 3309,
      "ightly": 3310,
      "ĠCool": 3311,
      "ĠPockets": 3312,
      "Ġslash": 3313,
      "Ġslightly": 3314,
      "Ġ720": 3315,
      "Ġmotion": 3316,
      "Ġproofed": 3317,
      "Ġ970": 3318,
      "Ġcreation": 3319,
      "Ġamyl": 3320,
      "unicip": 3321,
      "iform": 3322,
      "Ġ240": 3323,
      "Ġdeeply": 3324,
      "Ġreacts": 3325,
      "Ġindentation": 3326,
      "ĠOven": 3327,
      "ĠInclusions": 3328,
      "Ġequals": 3329,
      "Ġmaintaining": 3330,
      "Ġremained": 3331,
      "Ġexpanded": 3332,
      "osely": 3333,
      "Ġfiltered": 3334,
      "ĠRepeat": 3335,
      "Ġsecondary": 3336,
      "Ġtelltale": 3337,
      "ĠCalculate": 3338,
      "Ġsurrounding": 3339,
      "Ġundeveloped": 3340,
      "Ġviolently": 3341,
      "ĠFormula": 3342,
      "Ġportions": 3343,
      "Ġpromotes": 3344,
      "aud": 3345,
      "Ġreliably": 3346,
      "Ġserrated": 3347,
      "Ġirregular": 3348,
      "retarded": 3349,
      "Ġwindow": 3350,
      "Ġpermanently": 3351,
      "ĠAdjusting": 3352,
      "Ġamylase": 3353,
      "unicipal": 3354,
      "%+": 3355,
      "ag": 3356,
      "ailing": 3357,
      "canic": 3358,
      "comb": 3359,
      "mallow": 3360,
      "perm": 3361,
      "sip": 3362,
      "Ġvery": 3363,
      "Ġaerate": 3364,
      "Ġtrem": 3365,
      "Ġfib": 3366,
      "Ġfailing": 3367,
      "reak": 3368,
      "endous": 3369,
      "Ġpuff": 3370,
      "Ġmar": 3371,
      "Ġmunicipal": 3372,
      "ane": 3373,
      "usted": 3374,
      "tarter": 3375,
      "Ġretro": 3376,
      "ĠWork": 3377,
      "ĠWait": 3378,
      "ĠWeek": 3379,
      "Ġru": 3380,
      "Ġshine": 3381,
      "Ġprobe": 3382,
      "ĠDense": 3383,
      "Ġunsw": 3384,
      "Ġunshape": 3385,
      "Ġuniform": 3386,
      "rite": 3387,
      "eeten": 3388,
      "Ġtemps": 3389,
      "oled": 3390,
      "Ġdissip": 3391,
      "Ġlevains": 3392,
      "shmallow": 3393,
      "rous": 3394,
      "osperm": 3395,
      "ĠLook": 3396,
      "Ġpercent": 3397,
      "Ġalumin": 3398,
      "Ġlowest": 3399,
      "inkled": 3400,
      "Ġclock": 3401,
      "Ġboiled": 3402,
      "Ġvolcanic": 3403,
      "Ġbuttery": 3404,
      "Ġwrinkled": 3405,
      "Ġimmediate": 3406,
      "oking": 3407,
      "Ġtapping": 3408,
      "Ġendosperm": 3409,
      "gradation": 3410,
      "resses": 3411,
      "Ġexpands": 3412,
      "Ġexpanding": 3413,
      "cooled": 3414,
      "Ġtunneling": 3415,
      "Ġdistributes": 3416,
      "Ġaromatic": 3417,
      "Ġpressing": 3418,
      "Ġportion": 3419,
      "Ġblooms": 3420,
      "Ġhoneycomb": 3421,
      "ĠChlorine": 3422,
      "Ġresulting": 3423,
      "ĠLamination": 3424,
      "Ġencourag": 3425,
      "ĠInsert": 3426,
      "Ġtremendous": 3427,
      "Ġfibrous": 3428,
      "Ġpuffy": 3429,
      "Ġmarshmallow": 3430,
      "Ġretrogradation": 3431,
      "ĠWorking": 3432,
      "ĠWeekend": 3433,
      "Ġunsweeten": 3434,
      "Ġunshapeable": 3435,
      "Ġdissipate": 3436,
      "Ġaluminum": 3437,
      "Ġencouraging": 3438,
      "Ġmarshmallowy": 3439,
      "Ġunsweetened": 3440,
      "cross": 3441,
      "fat": 3442,
      "hard": 3443,
      "ig": 3444,
      "lim": 3445,
      "nut": 3446,
      "teoly": 3447,
      "only": 3448,
      "Ġwondering": 3449,
      "orary": 3450,
      "Ġpot": 3451,
      "Ġmust": 3452,
      "Ġmist": 3453,
      "Ġthese": 3454,
      "esting": 3455,
      "arro": 3456,
      "anizes": 3457,
      "aling": 3458,
      "ĠWatch": 3459,
      "ĠAim": 3460,
      "ĠTips": 3461,
      "Ġlets": 3462,
      "Ġloosely": 3463,
      "Ġ41": 3464,
      "Ġtemporary": 3465,
      "Ġprelim": 3466,
      "Ġunderlying": 3467,
      "Ġdispl": 3468,
      "Ġ67": 3469,
      "allop": 3470,
      "Ġscallop": 3471,
      "ĠResting": 3472,
      "osure": 3473,
      "Ġchoking": 3474,
      "Ġexposure": 3475,
      "Ġcreating": 3476,
      "Ġproteases": 3477,
      "Ġ245": 3478,
      "ĠKamut": 3479,
      "Ġedge": 3480,
      "Ġcriss": 3481,
      "Ġstopping": 3482,
      "ĠBeginners": 3483,
      "ĠProteoly": 3484,
      "Ġrelative": 3485,
      "Ġhealthy": 3486,
      "ĠDiffer": 3487,
      "Ġadjustments": 3488,
      "Ġesp": 3489,
      "Ġconducted": 3490,
      "Ġtowards": 3491,
      "Ġpattern": 3492,
      "Ġorganizes": 3493,
      "Ġcomplexity": 3494,
      "Ġcurl": 3495,
      "Ġcontinue": 3496,
      "ĠScrape": 3497,
      "Ġtriggered": 3498,
      "Ġmanageable": 3499,
      "Ġseparating": 3500,
      "Ġcommonly": 3501,
      "mixed": 3502,
      "ushing": 3503,
      "Ġharmless": 3504,
      "Ġalternate": 3505,
      "ĠCooler": 3506,
      "Ġpreliminary": 3507,
      "Ġdisplays": 3508,
      "Ġscalloped": 3509,
      "ĠProteolysis": 3510,
      "cer": 3511,
      "etar": 3512,
      "gree": 3513,
      "ground": 3514,
      "pred": 3515,
      "pane": 3516,
      "uge": 3517,
      "uals": 3518,
      "Ġve": 3519,
      "inct": 3520,
      "Ġwide": 3521,
      "ley": 3522,
      "Ġpace": 3523,
      "ssel": 3524,
      "Ġhit": 3525,
      "Ġhuge": 3526,
      "iduals": 3527,
      "Ġopp": 3528,
      "Ġrip": 3529,
      "Ġsho": 3530,
      "Ġglass": 3531,
      "ĠDust": 3532,
      "Ġusually": 3533,
      "Ġspir": 3534,
      "uting": 3535,
      "Ġunpred": 3536,
      "ĠPure": 3537,
      "Ġkicks": 3538,
      "Ġdimple": 3539,
      "Ġdietar": 3540,
      "ĠBread": 3541,
      "ĠBare": 3542,
      "Ġslides": 3543,
      "Ġwhenever": 3544,
      "ĠRice": 3545,
      "Ġmoder": 3546,
      "ĠInoculation": 3547,
      "Ġalmo": 3548,
      "ĠAncient": 3549,
      "ĠEnd": 3550,
      "ĠEmmer": 3551,
      "Ġlacing": 3552,
      "Ġsetup": 3553,
      "Ġlids": 3554,
      "Ġindiv": 3555,
      "Ġstoneground": 3556,
      "degree": 3557,
      "Ġswitch": 3558,
      "ĠProperly": 3559,
      "Ġslacks": 3560,
      "Ġyields": 3561,
      "Ġfirmly": 3562,
      "ĠDiastatic": 3563,
      "Ġmedically": 3564,
      "Ġdistinct": 3565,
      "Ġstitching": 3566,
      "ĠFermentolyse": 3567,
      "Ġmany": 3568,
      "ĠSluggish": 3569,
      "ictably": 3570,
      "Ġexceeds": 3571,
      "Ġschedules": 3572,
      "Ġbarley": 3573,
      "ĠMaintaining": 3574,
      "Ġwindowpane": 3575,
      "Ġvessel": 3576,
      "Ġopposing": 3577,
      "Ġripping": 3578,
      "Ġunpredictably": 3579,
      "Ġkickstar": 3580,
      "Ġdietary": 3581,
      "Ġmoderate": 3582,
      "Ġalmost": 3583,
      "Ġindividuals": 3584,
      "13": 3585,
      "85": 3586,
      "ef": 3587,
      "ially": 3588,
      "kes": 3589,
      "vic": 3590,
      "inted": 3591,
      "Ġtaken": 3592,
      "Ġbases": 3593,
      "Ġfine": 3594,
      "Ġdusted": 3595,
      "Ġwalls": 3596,
      "Ġwicks": 3597,
      "tiful": 3598,
      "terns": 3599,
      "ssing": 3600,
      "Ġinocul": 3601,
      "rokes": 3602,
      "Ġgue": 3603,
      "Ġflaps": 3604,
      "Ġstarting": 3605,
      "Ġyears": 3606,
      "Ġcrushing": 3607,
      "ĠWhile": 3608,
      "Ġstrokes": 3609,
      "ĠSaw": 3610,
      "Ġunre": 3611,
      "Ġbeau": 3612,
      "erating": 3613,
      "Ġdiastatic": 3614,
      "Ġenvelop": 3615,
      "Ġblast": 3616,
      "Ġblaz": 3617,
      "Ġ74": 3618,
      "Ġscat": 3619,
      "Ġexpresses": 3620,
      "Ġcrevic": 3621,
      "Ġretardation": 3622,
      "itive": 3623,
      "Ġinterv": 3624,
      "Ġcenterline": 3625,
      "Ġsheets": 3626,
      "Ġimprin": 3627,
      "ĠBefore": 3628,
      "Ġaccelerating": 3629,
      "malted": 3630,
      "Ġprimitive": 3631,
      "Ġpatterns": 3632,
      "Ġburning": 3633,
      "ĠCrust": 3634,
      "ecially": 3635,
      "Ġchewy": 3636,
      "Ġtighten": 3637,
      "Ġpointed": 3638,
      "Ġlaminate": 3639,
      "Ġprogrammed": 3640,
      "Ġboosting": 3641,
      "Ġsteaks": 3642,
      "Ġtucking": 3643,
      "%+),": 3644,
      "Ġespecially": 3645,
      "Ġshoes": 3646,
      "Ġspirals": 3647,
      "Ġinoculate": 3648,
      "Ġguessing": 3649,
      "Ġbeautiful": 3650,
      "Ġenvelope": 3651,
      "Ġblazing": 3652,
      "Ġcrevices": 3653,
      "Ġimprints": 3654,
      "farro": 3655,
      "nr": 3656,
      "open": 3657,
      "pite": 3658,
      "vinegar": 3659,
      "yog": 3660,
      "Ġsqu": 3661,
      "ouer": 3662,
      "Ġbus": 3663,
      "Ġtow": 3664,
      "lect": 3665,
      "atul": 3666,
      "Ġloft": 3667,
      "elnut": 3668,
      "Ġdock": 3669,
      "urt": 3670,
      "ĠTip": 3671,
      "Ġspatul": 3672,
      "stric": 3673,
      "Ġ62": 3674,
      "ations": 3675,
      "ĠRub": 3676,
      "ĠEnr": 3677,
      "inkle": 3678,
      "Ġearli": 3679,
      "Ġ250": 3680,
      "Ġ400": 3681,
      "gnore": 3682,
      "forming": 3683,
      "Ġrelaxed": 3684,
      "Ġmildness": 3685,
      "meal": 3686,
      "Ġ00": 3687,
      "Ġdissolve": 3688,
      "ĠFormulate": 3689,
      "ĠLightly": 3690,
      "Ġpoke": 3691,
      "ĠExtended": 3692,
      "Ġhazelnut": 3693,
      "Ġmedio": 3694,
      "Ġdeflect": 3695,
      "Ġdespite": 3696,
      "Ġcornmeal": 3697,
      "Ġsprinkle": 3698,
      "Ġkickstarting": 3699,
      "Ġunrestric": 3700,
      "Ġscatter": 3701,
      "Ġintervals": 3702,
      "yogurt": 3703,
      "Ġbusiness": 3704,
      "ĠTipo": 3705,
      "Ġspatulas": 3706,
      "ĠRubaud": 3707,
      "ĠEnrich": 3708,
      "Ġearlier": 3709,
      "Ġunrestricted": 3710,
      "Kamut": 3711,
      "aff": 3712,
      "ferment": 3713,
      "reate": 3714,
      "Ġwaff": 3715,
      "tips": 3716,
      "Ġinvert": 3717,
      "Ġhue": 3718,
      "icial": 3719,
      "Ġflouer": 3720,
      "Ġdoing": 3721,
      "Ġshot": 3722,
      "olate": 3723,
      "Ġ87": 3724,
      "Ġdehydra": 3725,
      "Ġblond": 3726,
      "ĠMaking": 3727,
      "Ġrecreate": 3728,
      "Ġchip": 3729,
      "Ġchoc": 3730,
      "Ġproduce": 3731,
      "Ġshallowly": 3732,
      "Ġcontrib": 3733,
      "Ġcontributes": 3734,
      "Ġseams": 3735,
      "Ġfingertips": 3736,
      "Ġescaping": 3737,
      "Ġbeneficial": 3738,
      "ĠDifference": 3739,
      "Ġchocolate": 3740,
      "Ġcontributing": 3741,
      "bo": 3742,
      "gor": 3743,
      "rs": 3744,
      "yield": 3745,
      "Ġsome": 3746,
      "Ġbul": 3747,
      "Ġball": 3748,
      "Ġfree": 3749,
      "Ġway": 3750,
      "terday": 3751,
      "Ġhrs": 3752,
      "esterday": 3753,
      "aky": 3754,
      "Ġ11": 3755,
      "Ġflaky": 3756,
      "Ġregular": 3757,
      "Ġeat": 3758,
      "Ġyesterday": 3759,
      "Ġthough": 3760,
      "Ġbeh": 3761,
      "ĠBreak": 3762,
      "Ġcrumbs": 3763,
      "ĠThere": 3764,
      "Ġcupbo": 3765,
      "Ġseedling": 3766,
      "Ġfermentolyse": 3767,
      "Ġhelps": 3768,
      "Ġmatch": 3769,
      "Ġvirgin": 3770,
      "Ġvigor": 3771,
      "Ġjiggly": 3772,
      "Ġrevive": 3773,
      "Ġgoing": 3774,
      "Ġlinen": 3775,
      "Ġunfed": 3776,
      "ĠChloramine": 3777,
      "Ġtowel": 3778,
      "yields": 3779,
      "Ġbulb": 3780,
      "Ġcupboard": 3781,
      "evito": 3782,
      "sus": 3783,
      "wheat": 3784,
      "Ġach": 3785,
      "Ġwave": 3786,
      "Ġcare": 3787,
      "Ġtool": 3788,
      "Ġlic": 3789,
      "ician": 3790,
      "Ġgu": 3791,
      "ulled": 3792,
      "Ġconcer": 3793,
      "ĠStarter": 3794,
      "verting": 3795,
      "Ġmins": 3796,
      "llo": 3797,
      "Ġlievito": 3798,
      "ĠMake": 3799,
      "Ġhello": 3800,
      "Ġwarmer": 3801,
      "Ġstays": 3802,
      "ensed": 3803,
      "Ġbecome": 3804,
      "Ġholding": 3805,
      "Ġcount": 3806,
      "Ġdelay": 3807,
      "Ġrounding": 3808,
      "Ġdidn": 3809,
      "ĠMixing": 3810,
      "Ġfilter": 3811,
      "Ġevaporate": 3812,
      "Ġphysician": 3813,
      "Ġbenefit": 3814,
      "ĠUnlike": 3815,
      "Ġdiagnose": 3816,
      "Ġversus": 3817,
      "ĠAiming": 3818,
      "Ġachie": 3819,
      "Ġlicensed": 3820,
      "Ġconcerns": 3821,
      "ati": 3822,
      "ep": 3823,
      "lu": 3824,
      "no": 3825,
      "tled": 3826,
      "Ã±": 3827,
      "Ġsame": 3828,
      "Ġfro": 3829,
      "tages": 3830,
      "Ġwood": 3831,
      "Ġthey": 3832,
      "antages": 3833,
      "alape": 3834,
      "Ġreproduc": 3835,
      "eline": 3836,
      "Ġproperly": 3837,
      "Ġcrusty": 3838,
      "Ġprefermented": 3839,
      "Ġadvantages": 3840,
      "tarding": 3841,
      "Ġbottled": 3842,
      "Ġjalape": 3843,
      "Ġinclu": 3844,
      "Ġfinis": 3845,
      "Ġafterno": 3846,
      "Ġcrispy": 3847,
      "ĠRetarding": 3848,
      "Ġweekend": 3849,
      "ĠScaling": 3850,
      "Ġsitting": 3851,
      "Ġinhibits": 3852,
      "Ġseparate": 3853,
      "Ġreproduction": 3854,
      "ĠjalapeÃ±": 3855,
      "Ġafternoon": 3856,
      "ared": 3857,
      "long": 3858,
      "Ġwor": 3859,
      "Ġwell": 3860,
      "Ġpol": 3861,
      "around": 3862,
      "ĠTrying": 3863,
      "uck": 3864,
      "cked": 3865,
      "nsure": 3866,
      "Ġtray": 3867,
      "Ġalong": 3868,
      "ĠEnsure": 3869,
      "Ġcompared": 3870,
      "Ġworking": 3871,
      "Ġnuts": 3872,
      "Ġbehave": 3873,
      "Ġfinished": 3874,
      "18": 3875,
      "bing": 3876,
      "ding": 3877,
      "ious": 3878,
      "ruc": 3879,
      "viving": 3880,
      "tes": 3881,
      "Ġtrying": 3882,
      "Ġbf": 3883,
      "Ġbring": 3884,
      "onal": 3885,
      "Ġwrite": 3886,
      "Ġinst": 3887,
      "asonal": 3888,
      "Ġprolong": 3889,
      "ĠSystem": 3890,
      "Ġnorm": 3891,
      "Ġspace": 3892,
      "ĠPulled": 3893,
      "Ġkill": 3894,
      "Ġquer": 3895,
      "Ġvinegar": 3896,
      "Ġsuper": 3897,
      "ĠMore": 3898,
      "ĠMath": 3899,
      "Ġseasonal": 3900,
      "Ġcups": 3901,
      "Ġgray": 3902,
      "Ġclos": 3903,
      "Ġfeedings": 3904,
      "Ġreadings": 3905,
      "ĠReviving": 3906,
      "Ġachieve": 3907,
      "ructions": 3908,
      "Ġinstructions": 3909,
      "Ġnormal": 3910,
      "dt": 3911,
      "pt": 3912,
      "yth": 3913,
      "zing": 3914,
      "Ġter": 3915,
      "Ġsystem": 3916,
      "Ġhi": 3917,
      "Ġhack": 3918,
      "icult": 3919,
      "uses": 3920,
      "Ġact": 3921,
      "Ġstuck": 3922,
      "ĠDuring": 3923,
      "Ġspra": 3924,
      "Ġovens": 3925,
      "Ġstep": 3926,
      "Ġraw": 3927,
      "Ġweigh": 3928,
      "Ġwebs": 3929,
      "Ġslap": 3930,
      "Ġbare": 3931,
      "Ġformul": 3932,
      "tance": 3933,
      "Ġcalculating": 3934,
      "Ġrubbing": 3935,
      "Ġthroughout": 3936,
      "Ġdegas": 3937,
      "Ġsemola": 3938,
      "Ġbaskets": 3939,
      "Ġdifficult": 3940,
      "Ġreliable": 3941,
      "Ġruin": 3942,
      "fermenting": 3943,
      "Ġdehydrated": 3944,
      "Ġguar": 3945,
      "ython": 3946,
      "Ġwebsite": 3947,
      "ded": 3948,
      "nced": 3949,
      "ves": 3950,
      "Ġsort": 3951,
      "ounced": 3952,
      "onounced": 3953,
      "tit": 3954,
      "leep": 3955,
      "Ġgr": 3956,
      "Ġoval": 3957,
      "cks": 3958,
      "Ġignore": 3959,
      "Ġweb": 3960,
      "Ġadded": 3961,
      "ĠAltern": 3962,
      "Ġpronounced": 3963,
      "Ġdrafts": 3964,
      "Ġsubstit": 3965,
      "Ġimprove": 3966,
      "Ġexactly": 3967,
      "igns": 3968,
      "Ġswitching": 3969,
      "Ġwaffles": 3970,
      "atives": 3971,
      ")?": 3972,
      "bu": 3973,
      "brow": 3974,
      "cre": 3975,
      "mine": 3976,
      "matic": 3977,
      "over": 3978,
      "iny": 3979,
      "Ġbir": 3980,
      "Ġcor": 3981,
      "ortant": 3982,
      "Ġmach": 3983,
      "arning": 3984,
      "anill": 3985,
      "Ġlay": 3986,
      "alk": 3987,
      "Ġrever": 3988,
      "aping": 3989,
      "Ġproxy": 3990,
      "tics": 3991,
      "Ġlearning": 3992,
      "ĠFermentation": 3993,
      "Ġnail": 3994,
      "Ġngin": 3995,
      "ript": 3996,
      "ĠPython": 3997,
      "Ġminute": 3998,
      "Ġvanill": 3999,
      "Ġdebu": 4000,
      "Ġmixer": 4001,
      "Ġscript": 4002,
      "Ġjo": 4003,
      "Ġmean": 4004,
      "thday": 4005,
      "Ġprotease": 4006,
      "Ġbuttercre": 4007,
      "Ġchecking": 4008,
      "Ġremover": 4009,
      "ĠShaping": 4010,
      "Ġimportant": 4011,
      "Ġplay": 4012,
      "Ġremaining": 4013,
      "Ġburnt": 4014,
      "Ġdramatic": 4015,
      "Ġconfig": 4016,
      "Ġfuel": 4017,
      "Ġpreserve": 4018,
      "Ġserver": 4019,
      "Ġlaminated": 4020,
      "Ġvigorous": 4021,
      "Ġfrosting": 4022,
      "Ġpolish": 4023,
      "brown": 4024,
      "Ġbirthday": 4025,
      "Ġmachine": 4026,
      "Ġreverse": 4027,
      "Ġnginx": 4028,
      "Ġvanilla": 4029,
      "Ġdebug": 4030,
      "Ġbuttercream": 4031,
      "Ġconfigure": 4032,
      "++": 4033,
      "gelatin": 4034,
      "here": 4035,
      "ier": 4036,
      "ied": 4037,
      "mend": 4038,
      "put": 4039,
      "Ġap": 4040,
      "Ġta": 4041,
      "Ġtre": 4042,
      "Ġtree": 4043,
      "Ġbinary": 4044,
      "resh": 4045,
      "istics": 4046,
      "Ġdam": 4047,
      "Ġdens": 4048,
      "Ġpool": 4049,
      "Ġmis": 4050,
      "itor": 4051,
      "arch": 4052,
      "aracter": 4053,
      "rac": 4054,
      "Ġforget": 4055,
      "acing": 4056,
      "ĠWrite": 4057,
      "Ġele": 4058,
      "ils": 4059,
      "drails": 4060,
      "Ġunbrown": 4061,
      "rible": 4062,
      "ommend": 4063,
      "Ġsearch": 4064,
      "Ġrecommend": 4065,
      "Ġsticks": 4066,
      "Ġsodi": 4067,
      "Ġoutput": 4068,
      "Ġcharacter": 4069,
      "Ġdirection": 4070,
      "Ġprevious": 4071,
      "Ġanswers": 4072,
      "Ġharder": 4073,
      "Ġstartr": 4074,
      "Ġreadiness": 4075,
      "ĠLoaf": 4076,
      "Ġnear": 4077,
      "Ġmaximize": 4078,
      "Ġweekly": 4079,
      "ĠStep": 4080,
      "Ġaccurate": 4081,
      "Ġmeasurements": 4082,
      "ĠChecked": 4083,
      "Ġcommand": 4084,
      "Ġcareer": 4085,
      "Ġincluding": 4086,
      "ĠjalapeÃ±o": 4087,
      "Ġworks": 4088,
      "Ġterrible": 4089,
      "Ġweighed": 4090,
      "Ġguardrails": 4091,
      "Ġlayer": 4092,
      "gelatinizes": 4093,
      "Ġtreat": 4094,
      "Ġdamage": 4095
    },
    "merges": [
      [
        "t",
        "e"
      ],
      [
        "i",
        "n"
      ],
      [
        "e",
        "n"
      ],
      [
        "Ġ",
        "s"
      ],
      [
        "o",
        "u"
      ],
      [
        "Ġ",
        "a"
      ],
      [
        "Ġ",
        "t"
      ],
      [
        "e",
        "r"
      ],
      [
        "Ġ",
        "b"
      ],
      [
        "o",
        "f"
      ],
      [
        "Ġ",
        "f"
      ],
      [
        "t",
        "a"
      ],
      [
        "r",
        "e"
      ],
      [
        "i",
        "s"
      ],
      [
        "Ġ",
        "d"
      ],
      [
        "o",
        "n"
      ],
      [
        "Ġ",
        "w"
      ],
      [
        "Ġ",
        "c"
      ],
      [
        "en",
        "d"
      ],
      [
        "in",
        "g"
      ],
      [
        "of",
        "te"
      ],
      [
        "x",
        "t"
      ],
      [
        "<",
        "|"
      ],
      [
        "|",
        ">"
      ],
      [
        "end",
        "ofte"
      ],
      [
        "endofte",
        "xt"
      ],
      [
        "g",
        "h"
      ],
      [
        "n",
        "d"
      ],
      [
        "o",
        "r"
      ],
      [
        "ou",
        "r"
      ],
      [
        "h",
        "e"
      ],
      [
        "t",
        "i"
      ],
      [
        "ou",
        "gh"
      ],
      [
        "Ġt",
        "o"
      ],
      [
        "l",
        "e"
      ],
      [
        "te",
        "r"
      ],
      [
        "Ġa",
        "nd"
      ],
      [
        "Ġ",
        "p"
      ],
      [
        "s",
        "s"
      ],
      [
        "Ġ",
        "m"
      ],
      [
        "a",
        "t"
      ],
      [
        "n",
        "t"
      ],
      [
        "Ġ",
        "in"
      ],
      [
        "U",
        "s"
      ],
      [
        "i",
        "t"
      ],
      [
        "ta",
        "nt"
      ],
      [
        "Ġ",
        "h"
      ],
      [
        "ss",
        "is"
      ],
      [
        "Ġt",
        "he"
      ],
      [
        "ssis",
        "tant"
      ],
      [
        "e",
        "s"
      ],
      [
        "r",
        "o"
      ],
      [
        ".",
        "<|"
      ],
      [
        "A",
        "ssistant"
      ],
      [
        "Us",
        "er"
      ],
      [
        "a",
        "k"
      ],
      [
        "e",
        "d"
      ],
      [
        "a",
        "r"
      ],
      [
        "l",
        "y"
      ],
      [
        "a",
        "n"
      ],
      [
        "ti",
        "on"
      ],
      [
        "Ġ",
        "l"
      ],
      [
        "a",
        "s"
      ],
      [
        "a",
        "l"
      ],
      [
        "our",
        "d"
      ],
      [
        "ourd",
        "ough"
      ],
      [
        "i",
        "c"
      ],
      [
        "o",
        "w"
      ],
      [
        "l",
        "d"
      ],
      [
        "Ġ",
        "g"
      ],
      [
        "r",
        "a"
      ],
      [
        "Ġs",
        "ourdough"
      ],
      [
        "u",
        "s"
      ],
      [
        "i",
        "d"
      ],
      [
        "Ġ",
        "1"
      ],
      [
        "Ġd",
        "ough"
      ],
      [
        "Ġf",
        "or"
      ],
      [
        "Ġf",
        "l"
      ],
      [
        "Ġ",
        "I"
      ],
      [
        "Â",
        "°"
      ],
      [
        "ta",
        "r"
      ],
      [
        "Ġ",
        "o"
      ],
      [
        "Ġb",
        "ak"
      ],
      [
        "it",
        "h"
      ],
      [
        "Ġw",
        "ith"
      ],
      [
        "Ġ",
        "re"
      ],
      [
        "a",
        "c"
      ],
      [
        "e",
        "l"
      ],
      [
        "a",
        "d"
      ],
      [
        "Ġ",
        "is"
      ],
      [
        "Ġ",
        "or"
      ],
      [
        "Ġ",
        "2"
      ],
      [
        "Ġs",
        "tar"
      ],
      [
        "en",
        "t"
      ],
      [
        "Ġfl",
        "our"
      ],
      [
        "u",
        "l"
      ],
      [
        "Ġ",
        "W"
      ],
      [
        "Ġ",
        "e"
      ],
      [
        "Ġ",
        "u"
      ],
      [
        "Ġ",
        "r"
      ],
      [
        "e",
        "t"
      ],
      [
        "Ġc",
        "o"
      ],
      [
        "c",
        "h"
      ],
      [
        "a",
        "ter"
      ],
      [
        "Ġo",
        "v"
      ],
      [
        "Ġ",
        "y"
      ],
      [
        "Ġt",
        "h"
      ],
      [
        "Ġ",
        "("
      ],
      [
        "Ġw",
        "h"
      ],
      [
        "t",
        "o"
      ],
      [
        "Ġw",
        "ater"
      ],
      [
        "er",
        "m"
      ],
      [
        "a",
        "te"
      ],
      [
        "o",
        "t"
      ],
      [
        "u",
        "m"
      ],
      [
        "Ġc",
        "r"
      ],
      [
        "Ġstar",
        "ter"
      ],
      [
        "Ġd",
        "o"
      ],
      [
        "u",
        "te"
      ],
      [
        "u",
        "r"
      ],
      [
        "m",
        "p"
      ],
      [
        "ĠW",
        "h"
      ],
      [
        "Ġs",
        "h"
      ],
      [
        "Ġ",
        "H"
      ],
      [
        "Ġ",
        "of"
      ],
      [
        "Ġ",
        "on"
      ],
      [
        "re",
        "ad"
      ],
      [
        "en",
        "ta"
      ],
      [
        "Ġ",
        "te"
      ],
      [
        "u",
        "re"
      ],
      [
        "a",
        "p"
      ],
      [
        "i",
        "gh"
      ],
      [
        "i",
        "l"
      ],
      [
        "Ġ",
        "A"
      ],
      [
        "Ġp",
        "ro"
      ],
      [
        "v",
        "e"
      ],
      [
        "Ġa",
        "c"
      ],
      [
        "Ġb",
        "read"
      ],
      [
        "ti",
        "c"
      ],
      [
        "Ġbak",
        "ing"
      ],
      [
        "q",
        "u"
      ],
      [
        "Ġ",
        "T"
      ],
      [
        "Ġ",
        "3"
      ],
      [
        "Ġ",
        "le"
      ],
      [
        "Ġs",
        "t"
      ],
      [
        "Ġg",
        "l"
      ],
      [
        "erm",
        "enta"
      ],
      [
        "us",
        "t"
      ],
      [
        "Ġ",
        "it"
      ],
      [
        "Ġc",
        "on"
      ],
      [
        "Ġ1",
        "0"
      ],
      [
        "ermenta",
        "tion"
      ],
      [
        "o",
        "l"
      ],
      [
        "o",
        "ld"
      ],
      [
        "i",
        "m"
      ],
      [
        "Ġ",
        "F"
      ],
      [
        "a",
        "m"
      ],
      [
        "a",
        "in"
      ],
      [
        "Ġ",
        "D"
      ],
      [
        "ute",
        "n"
      ],
      [
        "Ġgl",
        "uten"
      ],
      [
        "Ġl",
        "o"
      ],
      [
        "ĠH",
        "ow"
      ],
      [
        "as",
        "t"
      ],
      [
        "Ġ",
        "us"
      ],
      [
        "b",
        "le"
      ],
      [
        "e",
        "ed"
      ],
      [
        "Ġ",
        "S"
      ],
      [
        "Ġ",
        "n"
      ],
      [
        "Ġa",
        "n"
      ],
      [
        "Ġs",
        "p"
      ],
      [
        "igh",
        "t"
      ],
      [
        "Ġov",
        "en"
      ],
      [
        "Ġ",
        "ro"
      ],
      [
        "i",
        "r"
      ],
      [
        "d",
        "ra"
      ],
      [
        "u",
        "t"
      ],
      [
        "Ġ",
        "C"
      ],
      [
        "Ġa",
        "t"
      ],
      [
        "o",
        "re"
      ],
      [
        "y",
        "dra"
      ],
      [
        "a",
        "v"
      ],
      [
        "Ġ",
        "5"
      ],
      [
        "Ġs",
        "te"
      ],
      [
        "Ġ2",
        "0"
      ],
      [
        "f",
        "f"
      ],
      [
        "ar",
        "d"
      ],
      [
        "Ġu",
        "n"
      ],
      [
        "Ġcr",
        "ust"
      ],
      [
        "Ġh",
        "ydra"
      ],
      [
        "Ġa",
        "d"
      ],
      [
        "a",
        "f"
      ],
      [
        "r",
        "i"
      ],
      [
        "g",
        "e"
      ],
      [
        "Ġov",
        "er"
      ],
      [
        "Ġb",
        "e"
      ],
      [
        "Ġm",
        "y"
      ],
      [
        "ou",
        "t"
      ],
      [
        "u",
        "c"
      ],
      [
        "id",
        "e"
      ],
      [
        "Ġf",
        "ermentation"
      ],
      [
        "Ġhydra",
        "tion"
      ],
      [
        "a",
        "nd"
      ],
      [
        "e",
        "e"
      ],
      [
        "Ġbak",
        "e"
      ],
      [
        "er",
        "at"
      ],
      [
        "ĠWh",
        "at"
      ],
      [
        "Ġb",
        "y"
      ],
      [
        "s",
        "e"
      ],
      [
        "Ġ",
        "4"
      ],
      [
        "Ġe",
        "x"
      ],
      [
        "c",
        "k"
      ],
      [
        "i",
        "p"
      ],
      [
        "Ġin",
        "to"
      ],
      [
        "he",
        "at"
      ],
      [
        "Ġ",
        "P"
      ],
      [
        "Ġte",
        "mp"
      ],
      [
        "v",
        "er"
      ],
      [
        "nd",
        "er"
      ],
      [
        "Ġm",
        "in"
      ],
      [
        "Ġy",
        "our"
      ],
      [
        "Ġlo",
        "af"
      ],
      [
        "i",
        "x"
      ],
      [
        "l",
        "l"
      ],
      [
        "Ġus",
        "e"
      ],
      [
        "ro",
        "m"
      ],
      [
        "Ġco",
        "ld"
      ],
      [
        "Ġsh",
        "ap"
      ],
      [
        "Ġ",
        "k"
      ],
      [
        "Ġ",
        "qu"
      ],
      [
        "Ġ",
        "i"
      ],
      [
        "Ġl",
        "i"
      ],
      [
        "um",
        "b"
      ],
      [
        "Ġh",
        "our"
      ],
      [
        "Ġp",
        "re"
      ],
      [
        "ic",
        "e"
      ],
      [
        "Ġd",
        "i"
      ],
      [
        "Ġ",
        "ra"
      ],
      [
        "Ġ",
        "B"
      ],
      [
        "ul",
        "k"
      ],
      [
        "n",
        "s"
      ],
      [
        "Ġu",
        "nder"
      ],
      [
        "erat",
        "ure"
      ],
      [
        "Ġf",
        "rom"
      ],
      [
        "e",
        "ast"
      ],
      [
        "a",
        "y"
      ],
      [
        "Ġw",
        "e"
      ],
      [
        "Ġ",
        "v"
      ],
      [
        "o",
        "le"
      ],
      [
        "i",
        "ld"
      ],
      [
        "Ġc",
        "an"
      ],
      [
        "Ġle",
        "v"
      ],
      [
        "Ġd",
        "ur"
      ],
      [
        "Ġs",
        "l"
      ],
      [
        "Ġr",
        "is"
      ],
      [
        ")",
        ","
      ],
      [
        "on",
        "g"
      ],
      [
        "Ġd",
        "is"
      ],
      [
        "Ġtemp",
        "erature"
      ],
      [
        "o",
        "m"
      ],
      [
        "Ġcr",
        "umb"
      ],
      [
        "ou",
        "ld"
      ],
      [
        "s",
        "t"
      ],
      [
        "Ġy",
        "east"
      ],
      [
        "Ġ",
        "en"
      ],
      [
        "ute",
        "s"
      ],
      [
        "ee",
        "p"
      ],
      [
        "Ġlev",
        "ain"
      ],
      [
        "ta",
        "in"
      ],
      [
        "Ġb",
        "ulk"
      ],
      [
        "Ġdur",
        "ing"
      ],
      [
        "Ġ",
        "8"
      ],
      [
        "Ġs",
        "u"
      ],
      [
        "Ġd",
        "e"
      ],
      [
        "Ġm",
        "ix"
      ],
      [
        "Ġ",
        "6"
      ],
      [
        "Ġb",
        "l"
      ],
      [
        "Ġste",
        "am"
      ],
      [
        "Ġst",
        "r"
      ],
      [
        "al",
        "l"
      ],
      [
        "Ġin",
        "s"
      ],
      [
        "Ġmin",
        "utes"
      ],
      [
        "as",
        "e"
      ],
      [
        "Ġ",
        "7"
      ],
      [
        "Ġdo",
        "es"
      ],
      [
        "Ġhour",
        "s"
      ],
      [
        "Ġf",
        "old"
      ],
      [
        "Ġb",
        "u"
      ],
      [
        "p",
        "p"
      ],
      [
        "Ġp",
        "an"
      ],
      [
        "Ġ",
        "M"
      ],
      [
        "re",
        "d"
      ],
      [
        "y",
        "e"
      ],
      [
        "s",
        "h"
      ],
      [
        "Ġac",
        "id"
      ],
      [
        "Ġ10",
        "0"
      ],
      [
        "Ġwh",
        "en"
      ],
      [
        "Ġth",
        "at"
      ],
      [
        "ĠWh",
        "y"
      ],
      [
        "f",
        "ore"
      ],
      [
        "Ġf",
        "r"
      ],
      [
        "Ġsh",
        "ould"
      ],
      [
        "a",
        "tion"
      ],
      [
        "ac",
        "k"
      ],
      [
        "Ġa",
        "b"
      ],
      [
        "c",
        "e"
      ],
      [
        "es",
        "tion"
      ],
      [
        "Ġqu",
        "estion"
      ],
      [
        "Ġs",
        "c"
      ],
      [
        "te",
        "d"
      ],
      [
        "Ġp",
        "er"
      ],
      [
        "Ġ5",
        "0"
      ],
      [
        "Ġbe",
        "fore"
      ],
      [
        "Ġs",
        "e"
      ],
      [
        "i",
        "le"
      ],
      [
        "ac",
        "e"
      ],
      [
        "al",
        "t"
      ],
      [
        "ta",
        "l"
      ],
      [
        "Ġ3",
        "0"
      ],
      [
        "Ġre",
        "c"
      ],
      [
        "a",
        "us"
      ],
      [
        "i",
        "a"
      ],
      [
        "Ġris",
        "e"
      ],
      [
        "c",
        "t"
      ],
      [
        "k",
        "e"
      ],
      [
        "i",
        "ent"
      ],
      [
        "d",
        "uc"
      ],
      [
        "r",
        "ing"
      ],
      [
        "ar",
        "m"
      ],
      [
        "Ġad",
        "v"
      ],
      [
        "in",
        "e"
      ],
      [
        "i",
        "on"
      ],
      [
        "ti",
        "l"
      ],
      [
        "ate",
        "d"
      ],
      [
        "ĠC",
        "an"
      ],
      [
        "it",
        "y"
      ],
      [
        "tar",
        "d"
      ],
      [
        "Ġun",
        "til"
      ],
      [
        "i",
        "ve"
      ],
      [
        "at",
        "h"
      ],
      [
        "Ġs",
        "m"
      ],
      [
        "Ġ",
        "R"
      ],
      [
        "Ġwith",
        "out"
      ],
      [
        "Ġh",
        "and"
      ],
      [
        "mp",
        "le"
      ],
      [
        "i",
        "z"
      ],
      [
        "Ġm",
        "o"
      ],
      [
        "Ġsp",
        "ring"
      ],
      [
        "Ġb",
        "ot"
      ],
      [
        "Ġs",
        "ti"
      ],
      [
        "ak",
        "e"
      ],
      [
        "Ġr",
        "ye"
      ],
      [
        "Ġ",
        "he"
      ],
      [
        "Ġw",
        "arm"
      ],
      [
        "is",
        "t"
      ],
      [
        "t",
        "ch"
      ],
      [
        "t",
        "s"
      ],
      [
        "c",
        "ard"
      ],
      [
        "r",
        "ou"
      ],
      [
        "ĠI",
        "n"
      ],
      [
        "Ġh",
        "igh"
      ],
      [
        "Ġy",
        "ou"
      ],
      [
        "tic",
        "k"
      ],
      [
        "Ġ",
        "j"
      ],
      [
        "Ġ",
        "Us"
      ],
      [
        "Ġs",
        "ta"
      ],
      [
        "Ġbak",
        "er"
      ],
      [
        "Ġrec",
        "ip"
      ],
      [
        "Ġs",
        "tick"
      ],
      [
        "Ġshap",
        "ing"
      ],
      [
        "ĠT",
        "h"
      ],
      [
        "ic",
        "h"
      ],
      [
        "Ġli",
        "ke"
      ],
      [
        "ay",
        "s"
      ],
      [
        "Ġwh",
        "ole"
      ],
      [
        "p",
        "en"
      ],
      [
        "Ġp",
        "ar"
      ],
      [
        "al",
        "ly"
      ],
      [
        "Ġcon",
        "tain"
      ],
      [
        "Ġro",
        "om"
      ],
      [
        "Ġf",
        "eed"
      ],
      [
        "Ġa",
        "ll"
      ],
      [
        "ro",
        "w"
      ],
      [
        "to",
        "m"
      ],
      [
        "ĠF",
        "or"
      ],
      [
        "u",
        "p"
      ],
      [
        "o",
        "s"
      ],
      [
        "Ġs",
        "o"
      ],
      [
        "ow",
        "n"
      ],
      [
        "Ġste",
        "el"
      ],
      [
        "Ġbot",
        "tom"
      ],
      [
        "Ġ",
        "L"
      ],
      [
        "Ġw",
        "heat"
      ],
      [
        "Ġper",
        "c"
      ],
      [
        "Ġh",
        "ow"
      ],
      [
        "Ġpro",
        "of"
      ],
      [
        "Ġm",
        "e"
      ],
      [
        "Ġc",
        "aus"
      ],
      [
        "Ġs",
        "ur"
      ],
      [
        "Ġac",
        "ti"
      ],
      [
        "o",
        "o"
      ],
      [
        "Ġt",
        "ra"
      ],
      [
        "Ġin",
        "c"
      ],
      [
        "Ġad",
        "d"
      ],
      [
        "o",
        "ot"
      ],
      [
        "ic",
        "k"
      ],
      [
        "c",
        "ul"
      ],
      [
        "Ġwe",
        "ight"
      ],
      [
        "o",
        "p"
      ],
      [
        "Ġth",
        "an"
      ],
      [
        "ate",
        "s"
      ],
      [
        "Ġt",
        "im"
      ],
      [
        "Ġstick",
        "y"
      ],
      [
        "Ġa",
        "l"
      ],
      [
        "um",
        "m"
      ],
      [
        "Ġadv",
        "ice"
      ],
      [
        "Ġs",
        "alt"
      ],
      [
        "ent",
        "ly"
      ],
      [
        "Ġ",
        "out"
      ],
      [
        "on",
        "e"
      ],
      [
        "Ġu",
        "p"
      ],
      [
        "il",
        "l"
      ],
      [
        "Ġperc",
        "enta"
      ],
      [
        "he",
        "d"
      ],
      [
        "an",
        "s"
      ],
      [
        "a",
        "ve"
      ],
      [
        "Ġc",
        "h"
      ],
      [
        "Ġ1",
        "2"
      ],
      [
        "el",
        "l"
      ],
      [
        "Ġbl",
        "is"
      ],
      [
        "ak",
        "ing"
      ],
      [
        "re",
        "tch"
      ],
      [
        "Ġw",
        "et"
      ],
      [
        "Ġfold",
        "s"
      ],
      [
        "n",
        "e"
      ],
      [
        "Ġs",
        "k"
      ],
      [
        "Ġf",
        "ir"
      ],
      [
        "le",
        "d"
      ],
      [
        "Ġ",
        "9"
      ],
      [
        "Ġex",
        "p"
      ],
      [
        "Ġb",
        "ut"
      ],
      [
        "id",
        "ge"
      ],
      [
        "Ġfr",
        "idge"
      ],
      [
        "Ġn",
        "ot"
      ],
      [
        "Ġth",
        "en"
      ],
      [
        "Ġc",
        "re"
      ],
      [
        "on",
        "d"
      ],
      [
        "he",
        "s"
      ],
      [
        "Ġwh",
        "ile"
      ],
      [
        "w",
        "e"
      ],
      [
        "'",
        "s"
      ],
      [
        "Ġdis",
        "card"
      ],
      [
        "m",
        "ed"
      ],
      [
        "r",
        "y"
      ],
      [
        "ĠUs",
        "e"
      ],
      [
        "Ġb",
        "a"
      ],
      [
        "Ġl",
        "ow"
      ],
      [
        "t",
        "ing"
      ],
      [
        "Ġw",
        "ild"
      ],
      [
        "t",
        "h"
      ],
      [
        "Ġm",
        "ain"
      ],
      [
        "Ġco",
        "ol"
      ],
      [
        "Ġsur",
        "f"
      ],
      [
        "Ġto",
        "tal"
      ],
      [
        "Ġst",
        "retch"
      ],
      [
        "Ġ",
        "/"
      ],
      [
        "ac",
        "ter"
      ],
      [
        "Ġa",
        "m"
      ],
      [
        "ul",
        "l"
      ],
      [
        "av",
        "or"
      ],
      [
        "v",
        "el"
      ],
      [
        "vel",
        "op"
      ],
      [
        "u",
        "n"
      ],
      [
        "ĠA",
        "n"
      ],
      [
        "Ġpro",
        "duc"
      ],
      [
        "f",
        "ter"
      ],
      [
        "f",
        "ermentation"
      ],
      [
        "Ġrecip",
        "e"
      ],
      [
        "Ġb",
        "acter"
      ],
      [
        "um",
        "e"
      ],
      [
        "?",
        "?"
      ],
      [
        "Ġ",
        "heat"
      ],
      [
        "u",
        "b"
      ],
      [
        "erm",
        "ent"
      ],
      [
        "Ġro",
        "ck"
      ],
      [
        "te",
        "n"
      ],
      [
        "Ġfor",
        "m"
      ],
      [
        "ar",
        "y"
      ],
      [
        "g",
        "ar"
      ],
      [
        "Ġbu",
        "ild"
      ],
      [
        "ut",
        "ch"
      ],
      [
        "Ġ",
        "E"
      ],
      [
        "Ġpro",
        "te"
      ],
      [
        "en",
        "s"
      ],
      [
        "Ġc",
        "up"
      ],
      [
        "Ġsurf",
        "ace"
      ],
      [
        "en",
        "se"
      ],
      [
        "g",
        "g"
      ],
      [
        "Ġt",
        "ur"
      ],
      [
        "Ġl",
        "ac"
      ],
      [
        "Ġmo",
        "ist"
      ],
      [
        "Ġsti",
        "ff"
      ],
      [
        "in",
        "k"
      ],
      [
        "es",
        "t"
      ],
      [
        "Ġg",
        "ently"
      ],
      [
        "i",
        "f"
      ],
      [
        "Ġte",
        "ns"
      ],
      [
        "Ġh",
        "as"
      ],
      [
        "ly",
        "se"
      ],
      [
        "Ġl",
        "ong"
      ],
      [
        "ĠI",
        "t"
      ],
      [
        "Ġre",
        "f"
      ],
      [
        "s",
        "or"
      ],
      [
        "Ġab",
        "sor"
      ],
      [
        "g",
        "es"
      ],
      [
        "g",
        "ra"
      ],
      [
        "Ġto",
        "p"
      ],
      [
        "u",
        "ff"
      ],
      [
        "Ġ2",
        "4"
      ],
      [
        "Ġg",
        "ra"
      ],
      [
        "ĠD",
        "utch"
      ],
      [
        "Ġbu",
        "b"
      ],
      [
        "ble",
        "s"
      ],
      [
        "Ġdi",
        "re"
      ],
      [
        "%",
        ","
      ],
      [
        "Ġi",
        "f"
      ],
      [
        "Ġd",
        "own"
      ],
      [
        "Ġc",
        "l"
      ],
      [
        "Ġre",
        "tard"
      ],
      [
        "Ġus",
        "ing"
      ],
      [
        "Ġk",
        "eep"
      ],
      [
        ")",
        "."
      ],
      [
        "Ġcontain",
        "s"
      ],
      [
        "v",
        "ide"
      ],
      [
        "Ġsu",
        "gar"
      ],
      [
        "n",
        "ing"
      ],
      [
        "Ġb",
        "o"
      ],
      [
        "Ġj",
        "ar"
      ],
      [
        "Ġof",
        "f"
      ],
      [
        "n",
        "ot"
      ],
      [
        "Ġd",
        "ense"
      ],
      [
        "Ġcan",
        "not"
      ],
      [
        "Ġ",
        "K"
      ],
      [
        "Ġbacter",
        "ia"
      ],
      [
        "ĠTh",
        "is"
      ],
      [
        "Ġv",
        "ol"
      ],
      [
        "pp",
        "ed"
      ],
      [
        "n",
        "et"
      ],
      [
        "Ġb",
        "an"
      ],
      [
        "Ġshap",
        "e"
      ],
      [
        "net",
        "on"
      ],
      [
        "Ġban",
        "neton"
      ],
      [
        "Ġpercenta",
        "ge"
      ],
      [
        "as",
        "tic"
      ],
      [
        "av",
        "es"
      ],
      [
        "Ġmix",
        "ing"
      ],
      [
        "Ġrock",
        "s"
      ],
      [
        "r",
        "ic"
      ],
      [
        "Ġh",
        "ave"
      ],
      [
        "m",
        "ent"
      ],
      [
        "ir",
        "on"
      ],
      [
        "m",
        "m"
      ],
      [
        "Ġe",
        "ar"
      ],
      [
        "Ġb",
        "en"
      ],
      [
        "ble",
        "sh"
      ],
      [
        "rou",
        "blesh"
      ],
      [
        "oot",
        "ing"
      ],
      [
        "roublesh",
        "ooting"
      ],
      [
        "Ġ",
        "N"
      ],
      [
        "Ġabsor",
        "b"
      ],
      [
        "i",
        "ly"
      ],
      [
        "Ġbut",
        "ter"
      ],
      [
        "Ġs",
        "eed"
      ],
      [
        "Ġ2",
        "5"
      ],
      [
        "e",
        "y"
      ],
      [
        "re",
        "e"
      ],
      [
        "Ġfir",
        "st"
      ],
      [
        "te",
        "red"
      ],
      [
        "Ġm",
        "ic"
      ],
      [
        "Ġco",
        "mple"
      ],
      [
        "Ġs",
        "et"
      ],
      [
        "ĠI",
        "f"
      ],
      [
        "u",
        "to"
      ],
      [
        "Ġcon",
        "s"
      ],
      [
        "ri",
        "g"
      ],
      [
        "Ġmoist",
        "ure"
      ],
      [
        "uto",
        "lyse"
      ],
      [
        "7",
        "5"
      ],
      [
        "Ġa",
        "s"
      ],
      [
        "Ġh",
        "ot"
      ],
      [
        "Ġwh",
        "at"
      ],
      [
        "ĠT",
        "e"
      ],
      [
        "ĠD",
        "o"
      ],
      [
        "Ġb",
        "et"
      ],
      [
        "tion",
        "s"
      ],
      [
        "e",
        "ver"
      ],
      [
        "Ġfl",
        "at"
      ],
      [
        "Ġle",
        "t"
      ],
      [
        "ath",
        "er"
      ],
      [
        "Ġsta",
        "nd"
      ],
      [
        "Ġg",
        "as"
      ],
      [
        "oo",
        "d"
      ],
      [
        "Ġref",
        "rig"
      ],
      [
        "er",
        "s"
      ],
      [
        "Ġf",
        "in"
      ],
      [
        "re",
        "ase"
      ],
      [
        "Ġsk",
        "in"
      ],
      [
        "Ġtens",
        "ion"
      ],
      [
        "ĠTe",
        "mp"
      ],
      [
        "at",
        "ing"
      ],
      [
        "Ġd",
        "eep"
      ],
      [
        "Ġvol",
        "ume"
      ],
      [
        "Ġre",
        "ac"
      ],
      [
        "Ġpre",
        "v"
      ],
      [
        "i",
        "e"
      ],
      [
        "Ġlac",
        "tic"
      ],
      [
        "v",
        "en"
      ],
      [
        "Ġdire",
        "ct"
      ],
      [
        "a",
        "le"
      ],
      [
        "Ġra",
        "ck"
      ],
      [
        "in",
        "n"
      ],
      [
        "in",
        "ter"
      ],
      [
        "Ġ1",
        "5"
      ],
      [
        "Ġo",
        "pen"
      ],
      [
        "Ġwe",
        "ak"
      ],
      [
        "Ġhand",
        "s"
      ],
      [
        "Ġtra",
        "pped"
      ],
      [
        "Ġsl",
        "ow"
      ],
      [
        "c",
        "hes"
      ],
      [
        "Ġ",
        "="
      ],
      [
        "Ġa",
        "re"
      ],
      [
        "Ġte",
        "ar"
      ],
      [
        "Ġd",
        "ry"
      ],
      [
        "Ġprev",
        "ent"
      ],
      [
        "er",
        "e"
      ],
      [
        "ĠM",
        "y"
      ],
      [
        "5",
        "0"
      ],
      [
        "im",
        "med"
      ],
      [
        "o",
        "ve"
      ],
      [
        "Ġl",
        "id"
      ],
      [
        "ĠS",
        "ourdough"
      ],
      [
        "Ġde",
        "velop"
      ],
      [
        "en",
        "ted"
      ],
      [
        "Ġc",
        "he"
      ],
      [
        "erm",
        "ented"
      ],
      [
        "Ġf",
        "erment"
      ],
      [
        "Ġc",
        "le"
      ],
      [
        "Ġ4",
        "0"
      ],
      [
        "Ġtim",
        "e"
      ],
      [
        "Ġcle",
        "an"
      ],
      [
        "in",
        "s"
      ],
      [
        "l",
        "ace"
      ],
      [
        "ate",
        "ly"
      ],
      [
        "ĠH",
        "ey"
      ],
      [
        "Ġsc",
        "ore"
      ],
      [
        "Ġsm",
        "ell"
      ],
      [
        "Ġblis",
        "tered"
      ],
      [
        "a",
        "nt"
      ],
      [
        "d",
        "er"
      ],
      [
        "Ġ",
        "iron"
      ],
      [
        "Ġb",
        "est"
      ],
      [
        "ĠT",
        "he"
      ],
      [
        "Ġa",
        "fter"
      ],
      [
        "it",
        "ch"
      ],
      [
        "e",
        "tic"
      ],
      [
        "Ġb",
        "r"
      ],
      [
        "Ġin",
        "d"
      ],
      [
        "al",
        "cul"
      ],
      [
        "Ġac",
        "etic"
      ],
      [
        "ak",
        "es"
      ],
      [
        "id",
        "es"
      ],
      [
        "el",
        "t"
      ],
      [
        "Ġdirect",
        "ly"
      ],
      [
        "te",
        "ad"
      ],
      [
        "Ġc",
        "ast"
      ],
      [
        "as",
        "ter"
      ],
      [
        "Ġg",
        "umm"
      ],
      [
        "le",
        "ase"
      ],
      [
        "Ġfl",
        "avor"
      ],
      [
        "Ġstr",
        "ong"
      ],
      [
        "Ġins",
        "tead"
      ],
      [
        "Ġd",
        "ays"
      ],
      [
        "Ġto",
        "o"
      ],
      [
        "Ġgumm",
        "y"
      ],
      [
        "i",
        "ti"
      ],
      [
        "ed",
        "ic"
      ],
      [
        "Ġstarter",
        "s"
      ],
      [
        "Ġli",
        "qu"
      ],
      [
        "Ġb",
        "row"
      ],
      [
        "Ġm",
        "ore"
      ],
      [
        "Ġo",
        "il"
      ],
      [
        "Ġcaus",
        "ed"
      ],
      [
        "t",
        "ure"
      ],
      [
        "of",
        "t"
      ],
      [
        "a",
        "ss"
      ],
      [
        "Ġw",
        "inter"
      ],
      [
        "ter",
        "s"
      ],
      [
        "Ġqu",
        "ick"
      ],
      [
        "Ġf",
        "aster"
      ],
      [
        "p",
        "ro"
      ],
      [
        "Ġw",
        "r"
      ],
      [
        "Ġm",
        "ake"
      ],
      [
        "Ġon",
        "ly"
      ],
      [
        "Ġ8",
        "0"
      ],
      [
        "Ġ9",
        "0"
      ],
      [
        "l",
        "us"
      ],
      [
        "Ġ",
        "el"
      ],
      [
        "Ġin",
        "ch"
      ],
      [
        "Ġstar",
        "ches"
      ],
      [
        "Ġ8",
        "5"
      ],
      [
        "z",
        "y"
      ],
      [
        "ofte",
        "n"
      ],
      [
        "at",
        "in"
      ],
      [
        "el",
        "atin"
      ],
      [
        "Ġliqu",
        "id"
      ],
      [
        "Ġ",
        "immed"
      ],
      [
        "al",
        "s"
      ],
      [
        "Ġsu",
        "pp"
      ],
      [
        "Ġacti",
        "ve"
      ],
      [
        "ĠAn",
        "y"
      ],
      [
        "Ġimmed",
        "i"
      ],
      [
        "le",
        "s"
      ],
      [
        "Ġin",
        "ter"
      ],
      [
        "el",
        "ow"
      ],
      [
        "te",
        "ly"
      ],
      [
        "Ġre",
        "m"
      ],
      [
        "Ġk",
        "n"
      ],
      [
        "Ġstr",
        "uc"
      ],
      [
        "Ġ7",
        "8"
      ],
      [
        "Ġt",
        "in"
      ],
      [
        "Ġm",
        "old"
      ],
      [
        "Ġac",
        "c"
      ],
      [
        "Ġst",
        "one"
      ],
      [
        "Ġk",
        "itch"
      ],
      [
        "Ġ6",
        "5"
      ],
      [
        "Ġs",
        "af"
      ],
      [
        "is",
        "h"
      ],
      [
        "or",
        "n"
      ],
      [
        "g",
        "n"
      ],
      [
        "Ġb",
        "elow"
      ],
      [
        "Ġa",
        "utolyse"
      ],
      [
        "Ġb",
        "ow"
      ],
      [
        "we",
        "en"
      ],
      [
        "Ġba",
        "tard"
      ],
      [
        "Ġbet",
        "ween"
      ],
      [
        "Ġbow",
        "l"
      ],
      [
        "i",
        "ble"
      ],
      [
        "Ġp",
        "ale"
      ],
      [
        "Ġl",
        "ar"
      ],
      [
        "Ġg",
        "elatin"
      ],
      [
        "il",
        "led"
      ],
      [
        "o",
        "c"
      ],
      [
        "Ġg",
        "re"
      ],
      [
        "Ġe",
        "as"
      ],
      [
        "d",
        "e"
      ],
      [
        "p",
        "s"
      ],
      [
        "w",
        "ays"
      ],
      [
        "Ġ7",
        "5"
      ],
      [
        "k",
        "s"
      ],
      [
        "ce",
        "ss"
      ],
      [
        "Ġacti",
        "v"
      ],
      [
        "Ġlo",
        "aves"
      ],
      [
        "Ġmic",
        "ro"
      ],
      [
        "a",
        "mple"
      ],
      [
        "ff",
        "er"
      ],
      [
        "Ġall",
        "ow"
      ],
      [
        "f",
        "ermented"
      ],
      [
        "Ġ",
        "O"
      ],
      [
        "Ġs",
        "oft"
      ],
      [
        "as",
        "te"
      ],
      [
        "Ġproof",
        "ing"
      ],
      [
        "n",
        "ight"
      ],
      [
        "Ġb",
        "re"
      ],
      [
        "Ġover",
        "night"
      ],
      [
        "p",
        "er"
      ],
      [
        "Ġ",
        "ed"
      ],
      [
        "ou",
        "nd"
      ],
      [
        "ĠS",
        "h"
      ],
      [
        "Ġex",
        "te"
      ],
      [
        "ĠK",
        "eep"
      ],
      [
        "Ġt",
        "r"
      ],
      [
        "or",
        "m"
      ],
      [
        "ar",
        "k"
      ],
      [
        "ic",
        "ient"
      ],
      [
        "Ġwh",
        "ich"
      ],
      [
        "Ġlow",
        "er"
      ],
      [
        "l",
        "ing"
      ],
      [
        "Ġn",
        "o"
      ],
      [
        "Ġs",
        "he"
      ],
      [
        "o",
        "k"
      ],
      [
        "o",
        "id"
      ],
      [
        "Ġbe",
        "c"
      ],
      [
        "Ġ6",
        "0"
      ],
      [
        "rou",
        "nd"
      ],
      [
        "l",
        "a"
      ],
      [
        "Ġf",
        "ood"
      ],
      [
        "Ġon",
        "e"
      ],
      [
        "Ġimmedi",
        "ately"
      ],
      [
        "i",
        "te"
      ],
      [
        "en",
        "g"
      ],
      [
        "Ġl",
        "ight"
      ],
      [
        "Ġbub",
        "bles"
      ],
      [
        "i",
        "al"
      ],
      [
        "ip",
        "s"
      ],
      [
        "Ġfin",
        "al"
      ],
      [
        "e",
        "ct"
      ],
      [
        "ou",
        "s"
      ],
      [
        "Ġstand",
        "ard"
      ],
      [
        "%",
        "),"
      ],
      [
        "p",
        "id"
      ],
      [
        "Ġm",
        "u"
      ],
      [
        "Ġra",
        "pid"
      ],
      [
        "u",
        "e"
      ],
      [
        "Ġp",
        "ull"
      ],
      [
        "ĠIn",
        "c"
      ],
      [
        "Ġgelatin",
        "iz"
      ],
      [
        "en",
        "ter"
      ],
      [
        "Ġd",
        "ou"
      ],
      [
        "Ġc",
        "enter"
      ],
      [
        "Ġcr",
        "is"
      ],
      [
        "ink",
        "orn"
      ],
      [
        "2",
        "0"
      ],
      [
        "Ġa",
        "ir"
      ],
      [
        "Ġh",
        "old"
      ],
      [
        "Ġd",
        "ri"
      ],
      [
        "all",
        "ow"
      ],
      [
        "Ġbr",
        "an"
      ],
      [
        "Ġb",
        "ack"
      ],
      [
        "Ġm",
        "ad"
      ],
      [
        "av",
        "a"
      ],
      [
        "umm",
        "er"
      ],
      [
        "ta",
        "n"
      ],
      [
        "red",
        "ient"
      ],
      [
        "Ġs",
        "to"
      ],
      [
        "Ġl",
        "ava"
      ],
      [
        "ent",
        "s"
      ],
      [
        "ure",
        "s"
      ],
      [
        "Ġsaf",
        "e"
      ],
      [
        "Ġ",
        "ing"
      ],
      [
        "Ġth",
        "in"
      ],
      [
        "Ġsp",
        "elt"
      ],
      [
        "aus",
        "e"
      ],
      [
        "Ġing",
        "redient"
      ],
      [
        "Ġe",
        "qu"
      ],
      [
        "Ġadd",
        "ing"
      ],
      [
        "Ġmu",
        "ch"
      ],
      [
        "or",
        "k"
      ],
      [
        "Ġro",
        "ll"
      ],
      [
        "Ġen",
        "zy"
      ],
      [
        "Ġbec",
        "ause"
      ],
      [
        "Ġenzy",
        "m"
      ],
      [
        "or",
        "t"
      ],
      [
        "as",
        "ed"
      ],
      [
        "Ġon",
        "to"
      ],
      [
        "Ġtur",
        "n"
      ],
      [
        "i",
        "es"
      ],
      [
        "Ġs",
        "our"
      ],
      [
        "Ġc",
        "alcul"
      ],
      [
        "ĠT",
        "roubleshooting"
      ],
      [
        "ĠP",
        "re"
      ],
      [
        "Ġins",
        "ide"
      ],
      [
        "Ġlar",
        "ge"
      ],
      [
        "f",
        "t"
      ],
      [
        "l",
        "our"
      ],
      [
        "??",
        "?"
      ],
      [
        "Ġf",
        "at"
      ],
      [
        "Ġw",
        "ill"
      ],
      [
        "g",
        "et"
      ],
      [
        "Ġbak",
        "ed"
      ],
      [
        "Ġsm",
        "all"
      ],
      [
        "Ġcomple",
        "tely"
      ],
      [
        "te",
        "nt"
      ],
      [
        "Ġco",
        "il"
      ],
      [
        "ĠWh",
        "en"
      ],
      [
        "Ġsp",
        "read"
      ],
      [
        "Ġsc",
        "or"
      ],
      [
        "ion",
        "s"
      ],
      [
        "lus",
        "ions"
      ],
      [
        "Ġ",
        "+"
      ],
      [
        "Ġs",
        "i"
      ],
      [
        "Ġt",
        "ips"
      ],
      [
        "Ġc",
        "ul"
      ],
      [
        "ac",
        "hed"
      ],
      [
        "Ġwh",
        "y"
      ],
      [
        "erat",
        "or"
      ],
      [
        "ĠP",
        "lace"
      ],
      [
        "Ġrefrig",
        "erator"
      ],
      [
        "Ġd",
        "ark"
      ],
      [
        "Ġwr",
        "ong"
      ],
      [
        "Ġshe",
        "et"
      ],
      [
        "b",
        "er"
      ],
      [
        "ĠD",
        "is"
      ],
      [
        "Ġi",
        "mp"
      ],
      [
        "Ġ50",
        "0"
      ],
      [
        "Ġsugar",
        "s"
      ],
      [
        "i",
        "re"
      ],
      [
        "o",
        "ck"
      ],
      [
        "ac",
        "t"
      ],
      [
        "Ġan",
        "y"
      ],
      [
        "Ġre",
        "s"
      ],
      [
        "ĠA",
        "l"
      ],
      [
        "ĠB",
        "aking"
      ],
      [
        "Ġpar",
        "ts"
      ],
      [
        "i",
        "qu"
      ],
      [
        "l",
        "or"
      ],
      [
        "Ġs",
        "we"
      ],
      [
        "Ġswe",
        "et"
      ],
      [
        "b",
        "ly"
      ],
      [
        "v",
        "ides"
      ],
      [
        "Ġw",
        "ent"
      ],
      [
        "Ġc",
        "ut"
      ],
      [
        "Ġpro",
        "vides"
      ],
      [
        "Ġst",
        "ra"
      ],
      [
        "Ġra",
        "ti"
      ],
      [
        "ne",
        "ad"
      ],
      [
        "Ġscor",
        "ing"
      ],
      [
        "s",
        "w"
      ],
      [
        "ul",
        "a"
      ],
      [
        "Ġa",
        "ssistant"
      ],
      [
        "Ġb",
        "ond"
      ],
      [
        "le",
        "ss"
      ],
      [
        "Ġp",
        "ap"
      ],
      [
        "Ġre",
        "st"
      ],
      [
        "Ġhe",
        "av"
      ],
      [
        "Ġben",
        "ch"
      ],
      [
        "Ġpap",
        "er"
      ],
      [
        "Ġr",
        "im"
      ],
      [
        "Ġrati",
        "o"
      ],
      [
        "o",
        "ol"
      ],
      [
        "Ġf",
        "re"
      ],
      [
        "il",
        "ing"
      ],
      [
        "ĠP",
        "lease"
      ],
      [
        "Ġhe",
        "l"
      ],
      [
        "1",
        "0"
      ],
      [
        "w",
        "ich"
      ],
      [
        "Ġs",
        "and"
      ],
      [
        "il",
        "k"
      ],
      [
        "Ġab",
        "ove"
      ],
      [
        "inn",
        "er"
      ],
      [
        "Ġel",
        "astic"
      ],
      [
        "Ġsand",
        "wich"
      ],
      [
        "e",
        "at"
      ],
      [
        "is",
        "e"
      ],
      [
        "ĠR",
        "ye"
      ],
      [
        "ĠN",
        "ever"
      ],
      [
        "Ġt",
        "ap"
      ],
      [
        "er",
        "ated"
      ],
      [
        "Ġp",
        "r"
      ],
      [
        "Ġm",
        "ilk"
      ],
      [
        "ĠWh",
        "ole"
      ],
      [
        "Ġins",
        "uff"
      ],
      [
        "Ġcre",
        "ates"
      ],
      [
        "Ġprote",
        "in"
      ],
      [
        "Ġstruc",
        "ture"
      ],
      [
        "Ġinsuff",
        "icient"
      ],
      [
        ")",
        ".<|"
      ],
      [
        "p",
        "ar"
      ],
      [
        "Ġb",
        "at"
      ],
      [
        "Ġr",
        "ub"
      ],
      [
        "Ġsh",
        "allow"
      ],
      [
        "Ġeas",
        "ily"
      ],
      [
        "f",
        "orm"
      ],
      [
        "r",
        "ough"
      ],
      [
        "y",
        "s"
      ],
      [
        "Ġc",
        "ar"
      ],
      [
        "Ġth",
        "rough"
      ],
      [
        "Ġtim",
        "es"
      ],
      [
        "l",
        "ive"
      ],
      [
        "z",
        "e"
      ],
      [
        "Ġ",
        "end"
      ],
      [
        "Ġo",
        "live"
      ],
      [
        "Ġit",
        "s"
      ],
      [
        "ĠF",
        "eed"
      ],
      [
        "Ġe",
        "ven"
      ],
      [
        "ĠH",
        "and"
      ],
      [
        "Ġn",
        "eed"
      ],
      [
        "ff",
        "ect"
      ],
      [
        "Ġ6",
        "8"
      ],
      [
        "Ġmain",
        "tain"
      ],
      [
        "D",
        "T"
      ],
      [
        "d",
        "i"
      ],
      [
        "Ġl",
        "am"
      ],
      [
        "ĠT",
        "o"
      ],
      [
        "Ġ3",
        "75"
      ],
      [
        "ie",
        "ld"
      ],
      [
        "Ġs",
        "ummer"
      ],
      [
        "Ġp",
        "H"
      ],
      [
        "Ġadv",
        "ise"
      ],
      [
        "Ġrecip",
        "es"
      ],
      [
        "Ġfeed",
        "ing"
      ],
      [
        "Ġcre",
        "ate"
      ],
      [
        "mm",
        "er"
      ],
      [
        "Ġbre",
        "ak"
      ],
      [
        "o",
        "cul"
      ],
      [
        "Ġinc",
        "rease"
      ],
      [
        "Ġequ",
        "al"
      ],
      [
        "i",
        "red"
      ],
      [
        "Ġs",
        "w"
      ],
      [
        "Ġa",
        "ffect"
      ],
      [
        "Ġc",
        "ou"
      ],
      [
        "gra",
        "d"
      ],
      [
        "Ġsmell",
        "s"
      ],
      [
        "Ġind",
        "ic"
      ],
      [
        "g",
        "le"
      ],
      [
        "m",
        "an"
      ],
      [
        "Ġh",
        "ole"
      ],
      [
        "ro",
        "ss"
      ],
      [
        "ch",
        "ment"
      ],
      [
        "Ġcon",
        "t"
      ],
      [
        "Ġpar",
        "chment"
      ],
      [
        "ĠAl",
        "ways"
      ],
      [
        "a",
        "ge"
      ],
      [
        "ĠF",
        "lour"
      ],
      [
        "ri",
        "b"
      ],
      [
        "ĠB",
        "e"
      ],
      [
        "Ġ7",
        "0"
      ],
      [
        "Ġed",
        "ges"
      ],
      [
        "ĠC",
        "h"
      ],
      [
        "Ġsm",
        "oot"
      ],
      [
        "Ġinc",
        "lusions"
      ],
      [
        "Ġsmoot",
        "h"
      ],
      [
        "Ġs",
        "ou"
      ],
      [
        "er",
        "ate"
      ],
      [
        "he",
        "ated"
      ],
      [
        "Ġl",
        "ack"
      ],
      [
        "Ġpro",
        "vide"
      ],
      [
        "Ġproduc",
        "ing"
      ],
      [
        "Ġingredient",
        "s"
      ],
      [
        "Ġsou",
        "p"
      ],
      [
        "Ġin",
        "iti"
      ],
      [
        "ul",
        "ly"
      ],
      [
        "Ġcaus",
        "es"
      ],
      [
        "Ġba",
        "g"
      ],
      [
        "re",
        "ss"
      ],
      [
        "Ġtear",
        "ing"
      ],
      [
        "Ġg",
        "et"
      ],
      [
        "Ġco",
        "ok"
      ],
      [
        "ĠP",
        "ro"
      ],
      [
        "Ġsl",
        "ic"
      ],
      [
        "Ġsl",
        "ack"
      ],
      [
        "Ġhel",
        "p"
      ],
      [
        "Ġ",
        "ice"
      ],
      [
        "in",
        "ary"
      ],
      [
        "en",
        "ce"
      ],
      [
        "es",
        "ired"
      ],
      [
        "Ġg",
        "old"
      ],
      [
        "Ġme",
        "as"
      ],
      [
        "if",
        "e"
      ],
      [
        "Ġear",
        "ly"
      ],
      [
        "Ġkn",
        "ife"
      ],
      [
        "Ġgre",
        "ased"
      ],
      [
        "Ġgold",
        "en"
      ],
      [
        "v",
        "ing"
      ],
      [
        "x",
        "im"
      ],
      [
        "er",
        "ing"
      ],
      [
        "Ġcon",
        "tent"
      ],
      [
        "Ġsp",
        "eed"
      ],
      [
        "Ġkitch",
        "en"
      ],
      [
        "o",
        "ss"
      ],
      [
        "v",
        "oid"
      ],
      [
        "ent",
        "os"
      ],
      [
        "ĠF",
        "r"
      ],
      [
        "Ġan",
        "sw"
      ],
      [
        "Ġtemperature",
        "s"
      ],
      [
        "Ġhole",
        "s"
      ],
      [
        "entos",
        "ans"
      ],
      [
        "o",
        "om"
      ],
      [
        "Ġt",
        "ight"
      ],
      [
        "Ġh",
        "ap"
      ],
      [
        "Ġform",
        "ula"
      ],
      [
        "ĠDis",
        "card"
      ],
      [
        "Ġrub",
        "ber"
      ],
      [
        "Ġhap",
        "pen"
      ],
      [
        "s",
        "ide"
      ],
      [
        "Ġd",
        "el"
      ],
      [
        "an",
        "g"
      ],
      [
        "Ġfl",
        "akes"
      ],
      [
        "Ġre",
        "la"
      ],
      [
        "ĠS",
        "p"
      ],
      [
        "Ġex",
        "cess"
      ],
      [
        "Ġins",
        "tant"
      ],
      [
        "Ġfr",
        "u"
      ],
      [
        "ĠSh",
        "ould"
      ],
      [
        "Ġtr",
        "ans"
      ],
      [
        "w",
        "ard"
      ],
      [
        "Ġp",
        "entosans"
      ],
      [
        "Ġh",
        "ard"
      ],
      [
        "ul",
        "t"
      ],
      [
        "ia",
        "nt"
      ],
      [
        "Ġbo",
        "iling"
      ],
      [
        "m",
        "ol"
      ],
      [
        "in",
        "a"
      ],
      [
        "Ġp",
        "l"
      ],
      [
        "ol",
        "l"
      ],
      [
        "ĠS",
        "ti"
      ],
      [
        "2",
        "4"
      ],
      [
        "Ġs",
        "ample"
      ],
      [
        "Ġcris",
        "p"
      ],
      [
        "6",
        "5"
      ],
      [
        "n",
        "al"
      ],
      [
        "Ġm",
        "at"
      ],
      [
        "Ġre",
        "qu"
      ],
      [
        "Ġ4",
        "5"
      ],
      [
        "Ġshap",
        "ed"
      ],
      [
        "Ġdi",
        "ffer"
      ],
      [
        "sh",
        "ap"
      ],
      [
        "ĠUs",
        "ing"
      ],
      [
        "Ġreac",
        "h"
      ],
      [
        "c",
        "ient"
      ],
      [
        "n",
        "ter"
      ],
      [
        "p",
        "or"
      ],
      [
        "u",
        "ally"
      ],
      [
        "or",
        "por"
      ],
      [
        "Ġp",
        "ack"
      ],
      [
        "Ġstar",
        "t"
      ],
      [
        "Ġe",
        "inkorn"
      ],
      [
        "Ġte",
        "st"
      ],
      [
        "Ġ4",
        "8"
      ],
      [
        "Ġben",
        "e"
      ],
      [
        "Ġbond",
        "s"
      ],
      [
        "Ġheav",
        "y"
      ],
      [
        "Ġcou",
        "nter"
      ],
      [
        "in",
        "ation"
      ],
      [
        "Ġp",
        "our"
      ],
      [
        "Ġm",
        "aking"
      ],
      [
        "Ġblis",
        "ters"
      ],
      [
        "Ġrem",
        "ain"
      ],
      [
        "Ġcalcul",
        "ate"
      ],
      [
        "Ġsi",
        "gn"
      ],
      [
        "Ġstra",
        "ight"
      ],
      [
        "c",
        "ial"
      ],
      [
        "g",
        "inner"
      ],
      [
        "y",
        "l"
      ],
      [
        "Ġ",
        "~"
      ],
      [
        "ver",
        "y"
      ],
      [
        "Ġgra",
        "ins"
      ],
      [
        "Ġexte",
        "ns"
      ],
      [
        "Ġrapid",
        "ly"
      ],
      [
        "ĠInc",
        "rease"
      ],
      [
        "Ġfre",
        "sh"
      ],
      [
        "d",
        "d"
      ],
      [
        "Ġ",
        "Y"
      ],
      [
        "Ġs",
        "ourd"
      ],
      [
        "Ġt",
        "ang"
      ],
      [
        "ĠI",
        "s"
      ],
      [
        "Ġre",
        "ad"
      ],
      [
        "Ġy",
        "ield"
      ],
      [
        "Ġde",
        "g"
      ],
      [
        "ocul",
        "ation"
      ],
      [
        "Ġansw",
        "er"
      ],
      [
        "ough",
        "ly"
      ],
      [
        "Ġ2",
        "7"
      ],
      [
        "Ġcon",
        "di"
      ],
      [
        "alt",
        "h"
      ],
      [
        "Ġhe",
        "alth"
      ],
      [
        "Ġpercenta",
        "ges"
      ],
      [
        "Ġcondi",
        "tions"
      ],
      [
        "6",
        "8"
      ],
      [
        "Ġp",
        "h"
      ],
      [
        "Ġ1",
        "6"
      ],
      [
        "Ġ1",
        "8"
      ],
      [
        "Ġris",
        "ing"
      ],
      [
        "ĠN",
        "eed"
      ],
      [
        "Ġacc",
        "el"
      ],
      [
        "Ġturn",
        "ed"
      ],
      [
        "i",
        "b"
      ],
      [
        "Ġf",
        "avor"
      ],
      [
        "Ġd",
        "a"
      ],
      [
        "Ġd",
        "edic"
      ],
      [
        "as",
        "es"
      ],
      [
        "Ġr",
        "ice"
      ],
      [
        "Ġpro",
        "gra"
      ],
      [
        "Ġfir",
        "m"
      ],
      [
        "Ġdedic",
        "ated"
      ],
      [
        "2",
        "6"
      ],
      [
        "j",
        "ust"
      ],
      [
        "at",
        "ur"
      ],
      [
        "an",
        "ce"
      ],
      [
        "ble",
        "ached"
      ],
      [
        "Ġn",
        "atur"
      ],
      [
        "Ġex",
        "c"
      ],
      [
        "Ġde",
        "grad"
      ],
      [
        "Ġexp",
        "and"
      ],
      [
        "Ġrequ",
        "ire"
      ],
      [
        "a",
        "re"
      ],
      [
        "s",
        "es"
      ],
      [
        "Ġ",
        "ide"
      ],
      [
        "ĠW",
        "ith"
      ],
      [
        "Ġbrow",
        "n"
      ],
      [
        "Ġbrow",
        "ning"
      ],
      [
        "i",
        "or"
      ],
      [
        "m",
        "o"
      ],
      [
        "n",
        "el"
      ],
      [
        "u",
        "nd"
      ],
      [
        "Ġp",
        "ow"
      ],
      [
        "Ġr",
        "ound"
      ],
      [
        "Ġac",
        "ross"
      ],
      [
        "om",
        "e"
      ],
      [
        "Ġen",
        "ric"
      ],
      [
        "iz",
        "e"
      ],
      [
        "Ġide",
        "al"
      ],
      [
        "Ġenric",
        "hed"
      ],
      [
        "Ġstar",
        "ch"
      ],
      [
        "ĠD",
        "i"
      ],
      [
        "Ġpar",
        "t"
      ],
      [
        "Ġslow",
        "ly"
      ],
      [
        "pro",
        "of"
      ],
      [
        "g",
        "ul"
      ],
      [
        "Ġs",
        "often"
      ],
      [
        "Ġactiv",
        "ity"
      ],
      [
        "Ġhappen",
        "s"
      ],
      [
        "Ġnatur",
        "ally"
      ],
      [
        "Ġ",
        "often"
      ],
      [
        "Ġco",
        "ver"
      ],
      [
        "Ġwh",
        "ite"
      ],
      [
        "il",
        "ity"
      ],
      [
        "Ġle",
        "av"
      ],
      [
        "Ġen",
        "s"
      ],
      [
        "Ġch",
        "lor"
      ],
      [
        "l",
        "i"
      ],
      [
        "Ġw",
        "ee"
      ],
      [
        "Ġp",
        "e"
      ],
      [
        "ree",
        "ze"
      ],
      [
        "act",
        "or"
      ],
      [
        "Ġlack",
        "s"
      ],
      [
        "a",
        "tic"
      ],
      [
        "s",
        "o"
      ],
      [
        "Ġt",
        "roubleshooting"
      ],
      [
        "Ġg",
        "en"
      ],
      [
        "Ġr",
        "ather"
      ],
      [
        "Ġd",
        "id"
      ],
      [
        "ĠA",
        "t"
      ],
      [
        "Ġun",
        "bleached"
      ],
      [
        "ĠB",
        "ake"
      ],
      [
        "Ġbatard",
        "s"
      ],
      [
        "%",
        "."
      ],
      [
        "8",
        "0"
      ],
      [
        "a",
        "ble"
      ],
      [
        "c",
        "o"
      ],
      [
        "Ġt",
        "un"
      ],
      [
        "Ġh",
        "um"
      ],
      [
        "Ġstr",
        "eng"
      ],
      [
        "Ġal",
        "so"
      ],
      [
        "Ġproduc",
        "es"
      ],
      [
        "Ġtur",
        "ns"
      ],
      [
        "Ġsupp",
        "ress"
      ],
      [
        "Ġmad",
        "e"
      ],
      [
        "Ġtun",
        "nel"
      ],
      [
        "Ġhum",
        "id"
      ],
      [
        "Ġstreng",
        "th"
      ],
      [
        "b",
        "s"
      ],
      [
        "t",
        "ly"
      ],
      [
        "Ġf",
        "ully"
      ],
      [
        "Ġc",
        "av"
      ],
      [
        "ic",
        "tly"
      ],
      [
        "Ġsh",
        "ow"
      ],
      [
        "ĠB",
        "ulk"
      ],
      [
        "Ġstr",
        "ictly"
      ],
      [
        "Ġacid",
        "ity"
      ],
      [
        "Ġinter",
        "ior"
      ],
      [
        "a",
        "ill"
      ],
      [
        "Ġm",
        "edic"
      ],
      [
        "el",
        "s"
      ],
      [
        "Ġk",
        "nead"
      ],
      [
        "ĠM",
        "aill"
      ],
      [
        "ĠL",
        "o"
      ],
      [
        "iqu",
        "ot"
      ],
      [
        "Ġrela",
        "x"
      ],
      [
        "Ġpe",
        "ak"
      ],
      [
        "ĠMaill",
        "ard"
      ],
      [
        "b",
        "l"
      ],
      [
        "Ġt",
        "all"
      ],
      [
        "ĠA",
        "fter"
      ],
      [
        "ut",
        "ri"
      ],
      [
        "Ġdis",
        "c"
      ],
      [
        "Ġabsorb",
        "s"
      ],
      [
        "Ġtear",
        "s"
      ],
      [
        "b",
        "on"
      ],
      [
        "at",
        "ure"
      ],
      [
        "ly",
        "ing"
      ],
      [
        "Ġe",
        "xt"
      ],
      [
        "Ġte",
        "nder"
      ],
      [
        "ĠD",
        "ough"
      ],
      [
        "Ġhydra",
        "te"
      ],
      [
        "Ġcar",
        "bon"
      ],
      [
        "Ġiniti",
        "al"
      ],
      [
        "Ġrubber",
        "y"
      ],
      [
        "Ġb",
        "ase"
      ],
      [
        "is",
        "ters"
      ],
      [
        "gh",
        "t"
      ],
      [
        "ti",
        "ght"
      ],
      [
        "Ġm",
        "on"
      ],
      [
        "as",
        "ta"
      ],
      [
        "ic",
        "tion"
      ],
      [
        "Ġre",
        "duc"
      ],
      [
        "Ġfr",
        "iction"
      ],
      [
        "Ġair",
        "tight"
      ],
      [
        "c",
        "tion"
      ],
      [
        "ot",
        "h"
      ],
      [
        "Ġan",
        "cient"
      ],
      [
        "Ġab",
        "und"
      ],
      [
        "Ġbo",
        "x"
      ],
      [
        "Ġenzym",
        "es"
      ],
      [
        "Ġpl",
        "astic"
      ],
      [
        "utri",
        "ents"
      ],
      [
        "Ġabund",
        "ant"
      ],
      [
        "Ġ",
        "ou"
      ],
      [
        "Ġb",
        "ou"
      ],
      [
        "Ġb",
        "le"
      ],
      [
        "ti",
        "ve"
      ],
      [
        "Ġflour",
        "s"
      ],
      [
        "Ġe",
        "gg"
      ],
      [
        "ĠM",
        "ix"
      ],
      [
        "ĠL",
        "et"
      ],
      [
        "Ġbub",
        "bly"
      ],
      [
        "Ġou",
        "ter"
      ],
      [
        "o",
        "ly"
      ],
      [
        "Ġc",
        "ub"
      ],
      [
        "an",
        "ks"
      ],
      [
        "Ġdi",
        "vide"
      ],
      [
        "all",
        "s"
      ],
      [
        "ĠTh",
        "anks"
      ],
      [
        "Ġal",
        "iquot"
      ],
      [
        "Ġdri",
        "es"
      ],
      [
        "Ġcul",
        "inary"
      ],
      [
        "proof",
        "ed"
      ],
      [
        "l",
        "ine"
      ],
      [
        "s",
        "ol"
      ],
      [
        "Ġa",
        "round"
      ],
      [
        "le",
        "t"
      ],
      [
        "Ġin",
        "oculation"
      ],
      [
        "ar",
        "get"
      ],
      [
        "Ġth",
        "erm"
      ],
      [
        "il",
        "let"
      ],
      [
        "Ġlo",
        "ad"
      ],
      [
        "ast",
        "ing"
      ],
      [
        "Ġro",
        "asting"
      ],
      [
        "ver",
        "t"
      ],
      [
        "Ġmin",
        "im"
      ],
      [
        "Ġse",
        "mol"
      ],
      [
        "Ġcontain",
        "er"
      ],
      [
        "Ġsk",
        "illet"
      ],
      [
        "oc",
        "he"
      ],
      [
        "Ġyield",
        "ing"
      ],
      [
        "Ġreduc",
        "e"
      ],
      [
        "Ġe",
        "v"
      ],
      [
        "Ġe",
        "very"
      ],
      [
        "Ġdo",
        "med"
      ],
      [
        "Ġse",
        "am"
      ],
      [
        "Ġroom",
        "s"
      ],
      [
        "Ġgra",
        "in"
      ],
      [
        "Ġexcess",
        "ive"
      ],
      [
        "a",
        "il"
      ],
      [
        "m",
        "al"
      ],
      [
        "s",
        "on"
      ],
      [
        "Ġf",
        "ing"
      ],
      [
        "Ġc",
        "yl"
      ],
      [
        "ver",
        "e"
      ],
      [
        "Ġper",
        "son"
      ],
      [
        "Ġse",
        "vere"
      ],
      [
        "bl",
        "isters"
      ],
      [
        "Ġcyl",
        "in"
      ],
      [
        "o",
        "se"
      ],
      [
        "u",
        "gg"
      ],
      [
        "Ġm",
        "ild"
      ],
      [
        "Ġco",
        "mp"
      ],
      [
        "ĠC",
        "old"
      ],
      [
        "Ġkeep",
        "ing"
      ],
      [
        "ĠLo",
        "ad"
      ],
      [
        "Ġext",
        "ra"
      ],
      [
        "ugg",
        "ish"
      ],
      [
        "Ġt",
        "ake"
      ],
      [
        "Ġf",
        "il"
      ],
      [
        "Ġf",
        "oc"
      ],
      [
        "ac",
        "c"
      ],
      [
        "ĠB",
        "F"
      ],
      [
        "Ġen",
        "ough"
      ],
      [
        "ĠE",
        "x"
      ],
      [
        "Ġeven",
        "ly"
      ],
      [
        "Ġspeed",
        "s"
      ],
      [
        "Ġmon",
        "th"
      ],
      [
        "3",
        "2"
      ],
      [
        "c",
        "es"
      ],
      [
        "f",
        "er"
      ],
      [
        "l",
        "os"
      ],
      [
        "m",
        "ic"
      ],
      [
        "Ġt",
        "ri"
      ],
      [
        "Ġf",
        "illed"
      ],
      [
        "Ġd",
        "ull"
      ],
      [
        "Ġche",
        "mic"
      ],
      [
        "Ġclean",
        "ly"
      ],
      [
        "Ġgelatiniz",
        "ed"
      ],
      [
        "1",
        "9"
      ],
      [
        "z",
        "or"
      ],
      [
        "ĠW",
        "ater"
      ],
      [
        "Ġr",
        "ich"
      ],
      [
        "et",
        "s"
      ],
      [
        "Ġ3",
        "50"
      ],
      [
        "Ġra",
        "zor"
      ],
      [
        "Ġunder",
        "ne"
      ],
      [
        "Ġwe",
        "ather"
      ],
      [
        "ĠDo",
        "es"
      ],
      [
        "Ġdou",
        "ble"
      ],
      [
        "ĠPre",
        "heat"
      ],
      [
        "Ġpr",
        "im"
      ],
      [
        "ĠBe",
        "ginner"
      ],
      [
        "shap",
        "ing"
      ],
      [
        "19",
        "0"
      ],
      [
        "Ġunderne",
        "ath"
      ],
      [
        "S",
        "P"
      ],
      [
        "m",
        "in"
      ],
      [
        "t",
        "le"
      ],
      [
        "Ġd",
        "ro"
      ],
      [
        "Ġad",
        "just"
      ],
      [
        "Ġdis",
        "t"
      ],
      [
        "pp",
        "ing"
      ],
      [
        "Ġrec",
        "tan"
      ],
      [
        "Ġhand",
        "ling"
      ],
      [
        "Ġinc",
        "orpor"
      ],
      [
        "Ġch",
        "illed"
      ],
      [
        "ond",
        "ering"
      ],
      [
        "Ġbuild",
        "s"
      ],
      [
        "ĠE",
        "SP"
      ],
      [
        "Ġbanneton",
        "s"
      ],
      [
        "ant",
        "ly"
      ],
      [
        "Ġspread",
        "ing"
      ],
      [
        "Ġtherm",
        "al"
      ],
      [
        "ap",
        "or"
      ],
      [
        "ve",
        "ction"
      ],
      [
        "Ġ3",
        "2"
      ],
      [
        "all",
        "eng"
      ],
      [
        "Ġda",
        "ily"
      ],
      [
        "li",
        "ke"
      ],
      [
        "Ġcub",
        "es"
      ],
      [
        "Ġmonth",
        "s"
      ],
      [
        "alleng",
        "er"
      ],
      [
        "e",
        "ss"
      ],
      [
        "Ġ",
        "es"
      ],
      [
        "it",
        "tle"
      ],
      [
        "ĠD",
        "DT"
      ],
      [
        "Ġfold",
        "ing"
      ],
      [
        "Ġse",
        "a"
      ],
      [
        "Ġinter",
        "nal"
      ],
      [
        "b",
        "ient"
      ],
      [
        "p",
        "eat"
      ],
      [
        "Ġt",
        "aste"
      ],
      [
        "Ġw",
        "ork"
      ],
      [
        "Ġcon",
        "duc"
      ],
      [
        "Ġn",
        "e"
      ],
      [
        "Ġpre",
        "heated"
      ],
      [
        "Ġv",
        "ir"
      ],
      [
        "Ġsl",
        "ice"
      ],
      [
        "Ġam",
        "bient"
      ],
      [
        "Ġsupp",
        "ort"
      ],
      [
        "oll",
        "ow"
      ],
      [
        "Ġev",
        "apor"
      ],
      [
        "a",
        "xim"
      ],
      [
        "Ġf",
        "ra"
      ],
      [
        "Ġm",
        "axim"
      ],
      [
        "Ġg",
        "row"
      ],
      [
        "Ġwh",
        "ere"
      ],
      [
        "Ġpro",
        "ble"
      ],
      [
        "Ġ20",
        "5"
      ],
      [
        "Ġv",
        "ent"
      ],
      [
        "Ġmix",
        "ed"
      ],
      [
        "Ġbaker",
        "s"
      ],
      [
        "Ġquick",
        "ly"
      ],
      [
        "Ġrem",
        "ove"
      ],
      [
        "Ġkitch",
        "ens"
      ],
      [
        "Ġsto",
        "re"
      ],
      [
        "ĠCh",
        "allenger"
      ],
      [
        "Ġbene",
        "ath"
      ],
      [
        "Ġfoc",
        "acc"
      ],
      [
        "Ġproble",
        "m"
      ],
      [
        "Ġfocacc",
        "ia"
      ],
      [
        "i",
        "an"
      ],
      [
        "Ġto",
        "ward"
      ],
      [
        "Ġp",
        "at"
      ],
      [
        "tion",
        "al"
      ],
      [
        "Ġr",
        "ight"
      ],
      [
        "ri",
        "x"
      ],
      [
        "ĠP",
        "er"
      ],
      [
        "Ġquestion",
        "s"
      ],
      [
        "mm",
        "ing"
      ],
      [
        "Ġscore",
        "d"
      ],
      [
        "Ġdri",
        "ed"
      ],
      [
        "Ġmat",
        "rix"
      ],
      [
        "Ġprogra",
        "mming"
      ],
      [
        "o",
        "x"
      ],
      [
        "er",
        "al"
      ],
      [
        "Ġf",
        "e"
      ],
      [
        "an",
        "ge"
      ],
      [
        "ic",
        "ally"
      ],
      [
        "Ġdi",
        "ox"
      ],
      [
        "iz",
        "es"
      ],
      [
        "Ġread",
        "y"
      ],
      [
        "Ġpow",
        "der"
      ],
      [
        "Ġsemol",
        "ina"
      ],
      [
        "Ġchemic",
        "als"
      ],
      [
        "Ġdiox",
        "ide"
      ],
      [
        "Q",
        "u"
      ],
      [
        "Ġ",
        "Qu"
      ],
      [
        "or",
        "ten"
      ],
      [
        "Ġco",
        "m"
      ],
      [
        "Ġth",
        "or"
      ],
      [
        "Ġseed",
        "s"
      ],
      [
        "ĠPro",
        "of"
      ],
      [
        "Ġextens",
        "ible"
      ],
      [
        "ĠQu",
        "ick"
      ],
      [
        "g",
        "ile"
      ],
      [
        "Ġb",
        "ur"
      ],
      [
        "Ġp",
        "ink"
      ],
      [
        "Ġm",
        "ass"
      ],
      [
        "ed",
        "uc"
      ],
      [
        "an",
        "ic"
      ],
      [
        "Ġv",
        "i"
      ],
      [
        "Ġab",
        "out"
      ],
      [
        "ile",
        "d"
      ],
      [
        "ĠR",
        "educ"
      ],
      [
        "ne",
        "ss"
      ],
      [
        "Ġexte",
        "nd"
      ],
      [
        "Ġfat",
        "s"
      ],
      [
        "Ġbat",
        "ch"
      ],
      [
        "Ġfra",
        "gile"
      ],
      [
        "ĠReduc",
        "e"
      ],
      [
        "R",
        "oom"
      ],
      [
        "i",
        "tal"
      ],
      [
        "Ġ",
        "-"
      ],
      [
        "Ġ",
        "z"
      ],
      [
        "Ġg",
        "ent"
      ],
      [
        "Ġr",
        "oughly"
      ],
      [
        "ĠF",
        "ric"
      ],
      [
        "ĠF",
        "actor"
      ],
      [
        "Ġex",
        "ample"
      ],
      [
        "Ġbag",
        "s"
      ],
      [
        "Ġdiffer",
        "ence"
      ],
      [
        "gul",
        "ar"
      ],
      [
        "ĠFric",
        "tion"
      ],
      [
        "Ġ",
        "G"
      ],
      [
        "Ġd",
        "ra"
      ],
      [
        "ti",
        "re"
      ],
      [
        "Ġp",
        "lace"
      ],
      [
        "ak",
        "en"
      ],
      [
        "et",
        "h"
      ],
      [
        "Ġsh",
        "orten"
      ],
      [
        "Ġen",
        "tire"
      ],
      [
        "Ġsti",
        "tch"
      ],
      [
        "Ġreac",
        "hes"
      ],
      [
        "Ġcut",
        "ting"
      ],
      [
        "c",
        "c"
      ],
      [
        "i",
        "gg"
      ],
      [
        "Ġf",
        "lying"
      ],
      [
        "ra",
        "p"
      ],
      [
        "Ġfl",
        "o"
      ],
      [
        "Ġwith",
        "in"
      ],
      [
        "ĠA",
        "void"
      ],
      [
        "am",
        "ine"
      ],
      [
        "Ġse",
        "c"
      ],
      [
        "Ġj",
        "igg"
      ],
      [
        "Ġtrans",
        "fer"
      ],
      [
        "Ġfresh",
        "ly"
      ],
      [
        "is",
        "ten"
      ],
      [
        "Ġd",
        "esired"
      ],
      [
        "Ġc",
        "er"
      ],
      [
        "Ġc",
        "inn"
      ],
      [
        "Ġg",
        "ive"
      ],
      [
        "tic",
        "al"
      ],
      [
        "ĠF",
        "reeze"
      ],
      [
        "am",
        "on"
      ],
      [
        "Ġyeast",
        "s"
      ],
      [
        "Ġme",
        "tal"
      ],
      [
        "per",
        "ly"
      ],
      [
        "Ġpull",
        "man"
      ],
      [
        "ock",
        "ets"
      ],
      [
        "Ġelastic",
        "ity"
      ],
      [
        "Ġflo",
        "at"
      ],
      [
        "Ġcinn",
        "amon"
      ],
      [
        "w",
        "ay"
      ],
      [
        "Ġa",
        "erated"
      ],
      [
        "Ġa",
        "way"
      ],
      [
        "xt",
        "ure"
      ],
      [
        "Ġh",
        "ere"
      ],
      [
        "Ġor",
        "g"
      ],
      [
        "Ġte",
        "xture"
      ],
      [
        "ĠF",
        "erment"
      ],
      [
        "Ġus",
        "es"
      ],
      [
        "Ġdur",
        "um"
      ],
      [
        "ĠR",
        "e"
      ],
      [
        "Ġhe",
        "y"
      ],
      [
        "Ġmad",
        "re"
      ],
      [
        "Ġmeas",
        "ures"
      ],
      [
        "u",
        "al"
      ],
      [
        "x",
        "ic"
      ],
      [
        "en",
        "ing"
      ],
      [
        "Ġc",
        "ap"
      ],
      [
        "Ġp",
        "aste"
      ],
      [
        "ic",
        "ate"
      ],
      [
        "Ġo",
        "cc"
      ],
      [
        "ur",
        "s"
      ],
      [
        "Ġ20",
        "0"
      ],
      [
        "ĠP",
        "our"
      ],
      [
        "Ġoff",
        "line"
      ],
      [
        "Ġcons",
        "ume"
      ],
      [
        "Ġdel",
        "icate"
      ],
      [
        "Ġshow",
        "s"
      ],
      [
        "ĠPer",
        "form"
      ],
      [
        "Ġsec",
        "ond"
      ],
      [
        "Ġocc",
        "urs"
      ],
      [
        "d",
        "own"
      ],
      [
        "n",
        "ous"
      ],
      [
        "t",
        "y"
      ],
      [
        "er",
        "nous"
      ],
      [
        "re",
        "es"
      ],
      [
        "Ġto",
        "xic"
      ],
      [
        "Ġre",
        "v"
      ],
      [
        "Ġco",
        "mmer"
      ],
      [
        "Ġte",
        "ll"
      ],
      [
        "am",
        "ic"
      ],
      [
        "Ġcan",
        "e"
      ],
      [
        "Ġbl",
        "end"
      ],
      [
        "Ġprote",
        "oly"
      ],
      [
        "Ġgra",
        "m"
      ],
      [
        "Ġche",
        "es"
      ],
      [
        "Ġdeg",
        "rees"
      ],
      [
        "Ġcav",
        "ernous"
      ],
      [
        "Ġcer",
        "amic"
      ],
      [
        "Ġcommer",
        "cial"
      ],
      [
        "'",
        "t"
      ],
      [
        "1",
        "2"
      ],
      [
        "i",
        "v"
      ],
      [
        "p",
        "ti"
      ],
      [
        "Ġm",
        "an"
      ],
      [
        "ĠH",
        "i"
      ],
      [
        "Ġle",
        "ather"
      ],
      [
        "ĠS",
        "l"
      ],
      [
        "Ġan",
        "gle"
      ],
      [
        "ĠC",
        "r"
      ],
      [
        "Ġcomple",
        "x"
      ],
      [
        "Ġtr",
        "ue"
      ],
      [
        "Ġegg",
        "s"
      ],
      [
        "Ġmaxim",
        "um"
      ],
      [
        "Ġcom",
        "b"
      ],
      [
        "pti",
        "mal"
      ],
      [
        "b",
        "ility"
      ],
      [
        "s",
        "is"
      ],
      [
        "Ġf",
        "ermenta"
      ],
      [
        "Ġm",
        "ath"
      ],
      [
        "Ġh",
        "ollow"
      ],
      [
        "Ġg",
        "o"
      ],
      [
        "Ġfl",
        "uff"
      ],
      [
        "Ġcon",
        "f"
      ],
      [
        "im",
        "in"
      ],
      [
        "Ġpre",
        "heat"
      ],
      [
        "Ġme",
        "ans"
      ],
      [
        "Ġel",
        "imin"
      ],
      [
        "Ġroll",
        "s"
      ],
      [
        "Ġenzym",
        "atic"
      ],
      [
        "Ġcul",
        "ture"
      ],
      [
        "Ġfru",
        "ity"
      ],
      [
        "Ġ16",
        "0"
      ],
      [
        "3",
        "8"
      ],
      [
        "m",
        "e"
      ],
      [
        "m",
        "ature"
      ],
      [
        "p",
        "tion"
      ],
      [
        "t",
        "ually"
      ],
      [
        "Ġ",
        "0"
      ],
      [
        "Ġa",
        "ssis"
      ],
      [
        "Ġa",
        "sh"
      ],
      [
        "er",
        "i"
      ],
      [
        "Ġf",
        "eat"
      ],
      [
        "Ġc",
        "ur"
      ],
      [
        "le",
        "ases"
      ],
      [
        "ter",
        "n"
      ],
      [
        "Ġre",
        "leases"
      ],
      [
        "ul",
        "ate"
      ],
      [
        "Ġe",
        "ff"
      ],
      [
        "ĠC",
        "alcul"
      ],
      [
        "Ġpre",
        "mature"
      ],
      [
        "Ġsl",
        "uggish"
      ],
      [
        "Ġse",
        "al"
      ],
      [
        "Ġbot",
        "h"
      ],
      [
        "Ġsur",
        "round"
      ],
      [
        "ell",
        "ow"
      ],
      [
        "Ġstiff",
        "ens"
      ],
      [
        "Ġrequire",
        "s"
      ],
      [
        "Ġmedic",
        "al"
      ],
      [
        "Ġfeat",
        "ures"
      ],
      [
        "t",
        "one"
      ],
      [
        "Ġh",
        "al"
      ],
      [
        "us",
        "e"
      ],
      [
        "id",
        "ay"
      ],
      [
        "ac",
        "h"
      ],
      [
        "Ġr",
        "un"
      ],
      [
        "et",
        "tone"
      ],
      [
        "to",
        "se"
      ],
      [
        "Ġle",
        "ast"
      ],
      [
        "ĠP",
        "ull"
      ],
      [
        "Ġli",
        "f"
      ],
      [
        "Ġra",
        "te"
      ],
      [
        "Ġdis",
        "sol"
      ],
      [
        "Ġpan",
        "ettone"
      ],
      [
        "Ġsti",
        "r"
      ],
      [
        "Ġcool",
        "er"
      ],
      [
        "Ġcl",
        "oth"
      ],
      [
        "ĠFr",
        "iday"
      ],
      [
        "Ġhal",
        "f"
      ],
      [
        "ĠPull",
        "man"
      ],
      [
        "t",
        "ur"
      ],
      [
        "x",
        "y"
      ],
      [
        "z",
        "a"
      ],
      [
        "Ġs",
        "ee"
      ],
      [
        "Ġa",
        "g"
      ],
      [
        "er",
        "ates"
      ],
      [
        "Ġp",
        "iz"
      ],
      [
        "Ġu",
        "nd"
      ],
      [
        "um",
        "ed"
      ],
      [
        "ĠH",
        "ell"
      ],
      [
        "Ġv",
        "s"
      ],
      [
        "ans",
        "ion"
      ],
      [
        "Ġexp",
        "eri"
      ],
      [
        "Ġexp",
        "ansion"
      ],
      [
        "Ġcons",
        "umed"
      ],
      [
        "Ġdevelop",
        "s"
      ],
      [
        "Ġstruc",
        "tur"
      ],
      [
        "Ġallow",
        "s"
      ],
      [
        "Ġdou",
        "bles"
      ],
      [
        "Ġprim",
        "ary"
      ],
      [
        "Ġassis",
        "t"
      ],
      [
        "Ġpiz",
        "za"
      ],
      [
        "ĠHell",
        "o"
      ],
      [
        "Ġstructur",
        "al"
      ],
      [
        "2",
        "7"
      ],
      [
        "g",
        "ry"
      ],
      [
        "h",
        "ydra"
      ],
      [
        "u",
        "ra"
      ],
      [
        "ta",
        "nd"
      ],
      [
        "Ġh",
        "un"
      ],
      [
        "ra",
        "ct"
      ],
      [
        "et",
        "w"
      ],
      [
        "Ġn",
        "etw"
      ],
      [
        "Ġpan",
        "c"
      ],
      [
        "Ġmo",
        "tions"
      ],
      [
        "Ġcl",
        "ass"
      ],
      [
        "rib",
        "ute"
      ],
      [
        "Ġbou",
        "le"
      ],
      [
        "Ġvir",
        "tually"
      ],
      [
        "Ġgrow",
        "th"
      ],
      [
        "Ġleather",
        "y"
      ],
      [
        "Ġag",
        "ain"
      ],
      [
        "Ġhun",
        "gry"
      ],
      [
        "Ġclass",
        "ic"
      ],
      [
        "a",
        "w"
      ],
      [
        "e",
        "c"
      ],
      [
        "en",
        "ch"
      ],
      [
        "Ġa",
        "rom"
      ],
      [
        "or",
        "ation"
      ],
      [
        "Ġ2",
        "10"
      ],
      [
        "Ġco",
        "ll"
      ],
      [
        "ol",
        "oration"
      ],
      [
        "Ġpre",
        "s"
      ],
      [
        "Ġpre",
        "par"
      ],
      [
        "tal",
        "ian"
      ],
      [
        "oo",
        "k"
      ],
      [
        "Ġ9",
        "9"
      ],
      [
        "velop",
        "ed"
      ],
      [
        "Ġmic",
        "r"
      ],
      [
        "Ġ90",
        "0"
      ],
      [
        "Ġallow",
        "ing"
      ],
      [
        "Ġcont",
        "in"
      ],
      [
        "Ġcover",
        "ed"
      ],
      [
        "Ġdisc",
        "oloration"
      ],
      [
        "Ġcoll",
        "ap"
      ],
      [
        "d",
        "a"
      ],
      [
        "z",
        "ed"
      ],
      [
        "Ġb",
        "as"
      ],
      [
        "ar",
        "se"
      ],
      [
        "Ġg",
        "um"
      ],
      [
        "ĠI",
        "talian"
      ],
      [
        "ĠW",
        "ondering"
      ],
      [
        "ap",
        "e"
      ],
      [
        "ĠD",
        "O"
      ],
      [
        "Ġsti",
        "ll"
      ],
      [
        "Ġhigh",
        "er"
      ],
      [
        "Ġso",
        "da"
      ],
      [
        "Ġrefrig",
        "erated"
      ],
      [
        "ĠDi",
        "vide"
      ],
      [
        "Ġleav",
        "ing"
      ],
      [
        "Ġknead",
        "ing"
      ],
      [
        "Ġpremature",
        "ly"
      ],
      [
        "9",
        "6"
      ],
      [
        "g",
        "la"
      ],
      [
        "r",
        "t"
      ],
      [
        "in",
        "ch"
      ],
      [
        "Ġa",
        "rt"
      ],
      [
        "on",
        "utrients"
      ],
      [
        "Ġc",
        "ra"
      ],
      [
        "ti",
        "al"
      ],
      [
        "ic",
        "ta"
      ],
      [
        "Ġdough",
        "s"
      ],
      [
        "Ġth",
        "ick"
      ],
      [
        "Ġth",
        "ere"
      ],
      [
        "ur",
        "ing"
      ],
      [
        "ĠC",
        "on"
      ],
      [
        "Ġun",
        "gla"
      ],
      [
        "Ġli",
        "ft"
      ],
      [
        "Ġen",
        "c"
      ],
      [
        "Ġmo",
        "de"
      ],
      [
        "oo",
        "ch"
      ],
      [
        "Ġal",
        "ways"
      ],
      [
        "Ġprote",
        "ins"
      ],
      [
        "Ġhold",
        "s"
      ],
      [
        "Ġsto",
        "p"
      ],
      [
        "Ġbreak",
        "s"
      ],
      [
        "ĠY",
        "east"
      ],
      [
        "Ġfavor",
        "s"
      ],
      [
        "Ġwee",
        "k"
      ],
      [
        "Ġmicr",
        "onutrients"
      ],
      [
        "Ġcra",
        "ck"
      ],
      [
        "Ġungla",
        "zed"
      ],
      [
        "t",
        "ro"
      ],
      [
        "Ġ",
        "id"
      ],
      [
        "en",
        "tical"
      ],
      [
        "Ġs",
        "tain"
      ],
      [
        "Ġh",
        "ooch"
      ],
      [
        "ĠT",
        "arget"
      ],
      [
        "Ġ3",
        "8"
      ],
      [
        "Ġle",
        "ft"
      ],
      [
        "Ġover",
        "r"
      ],
      [
        "Ġsc",
        "hed"
      ],
      [
        "Ġhand",
        "le"
      ],
      [
        "ĠL",
        "e"
      ],
      [
        "Ġtra",
        "ps"
      ],
      [
        "Ġbuild",
        "ing"
      ],
      [
        "ĠE",
        "inkorn"
      ],
      [
        "Ġset",
        "s"
      ],
      [
        "Ġche",
        "w"
      ],
      [
        "ĠFr",
        "ench"
      ],
      [
        "Ġfru",
        "it"
      ],
      [
        "Ġexc",
        "eed"
      ],
      [
        "Ġload",
        "ing"
      ],
      [
        "Ġmild",
        "er"
      ],
      [
        "Ġvent",
        "ing"
      ],
      [
        "Ġfermenta",
        "ble"
      ],
      [
        "Ġnetw",
        "ork"
      ],
      [
        "Ġagain",
        "st"
      ],
      [
        "Ġid",
        "entical"
      ],
      [
        "Ġstain",
        "less"
      ],
      [
        "Ġsched",
        "u"
      ],
      [
        "7",
        "2"
      ],
      [
        "en",
        "tial"
      ],
      [
        "Ġs",
        "ide"
      ],
      [
        "Ġb",
        "ar"
      ],
      [
        "ss",
        "ential"
      ],
      [
        "id",
        "ed"
      ],
      [
        "id",
        "ent"
      ],
      [
        "Ġ2",
        "9"
      ],
      [
        "ul",
        "ti"
      ],
      [
        "Ġe",
        "ssential"
      ],
      [
        "Ġco",
        "arse"
      ],
      [
        "Ġgl",
        "oss"
      ],
      [
        "ĠD",
        "esired"
      ],
      [
        "ĠC",
        "o"
      ],
      [
        "Ġpre",
        "ss"
      ],
      [
        "Ġde",
        "c"
      ],
      [
        "Ġexp",
        "los"
      ],
      [
        "Ġkeep",
        "s"
      ],
      [
        "pro",
        "duc"
      ],
      [
        "Ġslic",
        "es"
      ],
      [
        "ĠSp",
        "elt"
      ],
      [
        "ĠY",
        "ou"
      ],
      [
        "Ġaccel",
        "erates"
      ],
      [
        "Ġcylin",
        "der"
      ],
      [
        "Ġvi",
        "ol"
      ],
      [
        "Ġart",
        "is"
      ],
      [
        "Ġgloss",
        "y"
      ],
      [
        "Ġexplos",
        "ive"
      ],
      [
        "%",
        ")."
      ],
      [
        "9",
        "4"
      ],
      [
        "s",
        "ided"
      ],
      [
        "w",
        "o"
      ],
      [
        "Ġa",
        "pp"
      ],
      [
        "re",
        "m"
      ],
      [
        "or",
        "ning"
      ],
      [
        "Ġm",
        "uff"
      ],
      [
        "Ġm",
        "orning"
      ],
      [
        "Ġin",
        "ten"
      ],
      [
        "ic",
        "ro"
      ],
      [
        "Ġco",
        "re"
      ],
      [
        "Ġth",
        "is"
      ],
      [
        "ĠA",
        "utolyse"
      ],
      [
        "Ġ3",
        "5"
      ],
      [
        "Ġlo",
        "ses"
      ],
      [
        "ĠS",
        "te"
      ],
      [
        "Ġn",
        "on"
      ],
      [
        "Ġ4",
        "75"
      ],
      [
        "ĠM",
        "icro"
      ],
      [
        "Ġout",
        "side"
      ],
      [
        "if",
        "ic"
      ],
      [
        "Ġgelatiniz",
        "es"
      ],
      [
        "Ġthin",
        "ly"
      ],
      [
        "ĠSp",
        "read"
      ],
      [
        "ĠSti",
        "r"
      ],
      [
        "Ġrectan",
        "gle"
      ],
      [
        "Ġmuff",
        "ins"
      ],
      [
        "Ġinten",
        "se"
      ],
      [
        "f",
        "ul"
      ],
      [
        "l",
        "oid"
      ],
      [
        "Ġb",
        "ri"
      ],
      [
        "Ġf",
        "u"
      ],
      [
        "Ġd",
        "ust"
      ],
      [
        "Ġd",
        "ip"
      ],
      [
        "Ġm",
        "ulti"
      ],
      [
        "Ġl",
        "in"
      ],
      [
        "ĠI",
        "ts"
      ],
      [
        "Ġre",
        "peat"
      ],
      [
        "ĠA",
        "s"
      ],
      [
        "ee",
        "ter"
      ],
      [
        "Ġris",
        "es"
      ],
      [
        "Ġtin",
        "y"
      ],
      [
        "Ġacc",
        "ura"
      ],
      [
        "Ġbre",
        "w"
      ],
      [
        "Ġend",
        "s"
      ],
      [
        "Ġlam",
        "ination"
      ],
      [
        "Ġsw",
        "eeter"
      ],
      [
        "Ġhard",
        "ens"
      ],
      [
        "Ġminim",
        "ally"
      ],
      [
        "Ġdro",
        "ps"
      ],
      [
        "Ġincorpor",
        "ate"
      ],
      [
        "Ġconduc",
        "ts"
      ],
      [
        "Ġconf",
        "ident"
      ],
      [
        "Ġpanc",
        "akes"
      ],
      [
        "Ġcollap",
        "ses"
      ],
      [
        "Ġdip",
        "loid"
      ],
      [
        "3",
        "0"
      ],
      [
        "7",
        "0"
      ],
      [
        "a",
        "z"
      ],
      [
        "k",
        "ing"
      ],
      [
        "k",
        "nead"
      ],
      [
        "p",
        "le"
      ],
      [
        "Ġa",
        "void"
      ],
      [
        "Ġt",
        "igh"
      ],
      [
        "Ġf",
        "ool"
      ],
      [
        "Ġre",
        "l"
      ],
      [
        "ch",
        "n"
      ],
      [
        "ain",
        "tain"
      ],
      [
        "Ġgluten",
        "in"
      ],
      [
        "Ġun",
        "f"
      ],
      [
        "ĠM",
        "aintain"
      ],
      [
        "ive",
        "ly"
      ],
      [
        "ĠR",
        "H"
      ],
      [
        "Ġspring",
        "s"
      ],
      [
        "ĠFor",
        "m"
      ],
      [
        "ĠL",
        "ight"
      ],
      [
        "Ġcons",
        "ult"
      ],
      [
        "Ġbet",
        "ter"
      ],
      [
        "lus",
        "ively"
      ],
      [
        "Ġexc",
        "lusively"
      ],
      [
        "ĠWith",
        "out"
      ],
      [
        "Ġchlor",
        "amine"
      ],
      [
        "Ġfing",
        "er"
      ],
      [
        "Ġbri",
        "oche"
      ],
      [
        "c",
        "ap"
      ],
      [
        "f",
        "ool"
      ],
      [
        "o",
        "g"
      ],
      [
        "u",
        "ice"
      ],
      [
        "Ġt",
        "wo"
      ],
      [
        "Ġp",
        "or"
      ],
      [
        "el",
        "p"
      ],
      [
        "Ġth",
        "ir"
      ],
      [
        "ĠH",
        "elp"
      ],
      [
        "Ġpro",
        "mo"
      ],
      [
        "Ġ3",
        "3"
      ],
      [
        "Ġdis",
        "h"
      ],
      [
        "Ġ7",
        "2"
      ],
      [
        "Ġj",
        "uice"
      ],
      [
        "Ġcaus",
        "e"
      ],
      [
        "Ġlong",
        "er"
      ],
      [
        "Ġslow",
        "s"
      ],
      [
        "ĠO",
        "n"
      ],
      [
        "Ġes",
        "cap"
      ],
      [
        "Ġthir",
        "d"
      ],
      [
        "Ġpromo",
        "te"
      ],
      [
        "g",
        "en"
      ],
      [
        "l",
        "uc"
      ],
      [
        "Ġs",
        "um"
      ],
      [
        "Ġp",
        "o"
      ],
      [
        "ar",
        "p"
      ],
      [
        "Ġo",
        "xy"
      ],
      [
        "Ġsh",
        "aken"
      ],
      [
        "ĠD",
        "ro"
      ],
      [
        "ĠS",
        "c"
      ],
      [
        "Ġmix",
        "ers"
      ],
      [
        "Ġferment",
        "ing"
      ],
      [
        "Ġactiv",
        "ating"
      ],
      [
        "Ġtrans",
        "luc"
      ],
      [
        "Ġjigg",
        "les"
      ],
      [
        "Ġpres",
        "er"
      ],
      [
        "Ġcrack",
        "ers"
      ],
      [
        "Ġoverr",
        "ide"
      ],
      [
        "Ġartis",
        "an"
      ],
      [
        "chn",
        "iqu"
      ],
      [
        "Ġoxy",
        "gen"
      ],
      [
        "Ġtransluc",
        "ent"
      ],
      [
        "7",
        "8"
      ],
      [
        "h",
        "er"
      ],
      [
        "h",
        "ong"
      ],
      [
        "p",
        "ing"
      ],
      [
        "z",
        "hong"
      ],
      [
        "te",
        "in"
      ],
      [
        "Ġt",
        "aking"
      ],
      [
        "on",
        "os"
      ],
      [
        "Ġto",
        "get"
      ],
      [
        "Ġ2",
        "6"
      ],
      [
        "Ġstar",
        "ts"
      ],
      [
        "to",
        "c"
      ],
      [
        "uc",
        "onos"
      ],
      [
        "Ġsu",
        "bs"
      ],
      [
        "Ġbl",
        "oom"
      ],
      [
        "Ġstick",
        "ing"
      ],
      [
        "gg",
        "er"
      ],
      [
        "if",
        "t"
      ],
      [
        "Ġtens",
        "ile"
      ],
      [
        "pro",
        "tein"
      ],
      [
        "Ġeas",
        "y"
      ],
      [
        "Ġres",
        "ult"
      ],
      [
        "10",
        "0"
      ],
      [
        "Ġsw",
        "ift"
      ],
      [
        "Ġsoup",
        "y"
      ],
      [
        "Ġmeas",
        "ure"
      ],
      [
        "Ġtang",
        "zhong"
      ],
      [
        "Ġph",
        "ys"
      ],
      [
        "Ġtri",
        "gger"
      ],
      [
        "Ġdouble",
        "d"
      ],
      [
        "ĠLe",
        "uconos"
      ],
      [
        "ĠDro",
        "pping"
      ],
      [
        "Ġtoget",
        "her"
      ],
      [
        "ĠLeuconos",
        "toc"
      ],
      [
        "a",
        "u"
      ],
      [
        "v",
        "it"
      ],
      [
        "y",
        "p"
      ],
      [
        "te",
        "nd"
      ],
      [
        "Ġd",
        "ay"
      ],
      [
        "Ġg",
        "erm"
      ],
      [
        "Ġ1",
        "4"
      ],
      [
        "Ġ1",
        "7"
      ],
      [
        "et",
        "one"
      ],
      [
        "Ġ(",
        ">"
      ],
      [
        "ĠHow",
        "ever"
      ],
      [
        "Ġro",
        "le"
      ],
      [
        "Ġro",
        "se"
      ],
      [
        "Ġsta",
        "y"
      ],
      [
        "Ġsta",
        "le"
      ],
      [
        "Ġcool",
        "s"
      ],
      [
        "Ġkn",
        "ow"
      ],
      [
        "ĠO",
        "pen"
      ],
      [
        "rib",
        "utes"
      ],
      [
        "Ġsign",
        "ific"
      ],
      [
        "asta",
        "tic"
      ],
      [
        "ĠEx",
        "tend"
      ],
      [
        "ĠOn",
        "ce"
      ],
      [
        "Ġthird",
        "s"
      ],
      [
        "vit",
        "o"
      ],
      [
        "Ġsignific",
        "antly"
      ],
      [
        "e",
        "cial"
      ],
      [
        "l",
        "er"
      ],
      [
        "Ġs",
        "it"
      ],
      [
        "Ġb",
        "al"
      ],
      [
        "Ġm",
        "ot"
      ],
      [
        "Ġsh",
        "arp"
      ],
      [
        "Ġsp",
        "ecial"
      ],
      [
        "Ġbe",
        "er"
      ],
      [
        "Ġde",
        "ter"
      ],
      [
        "Ġhigh",
        "ly"
      ],
      [
        "Ġmain",
        "ten"
      ],
      [
        "Ġcl",
        "ay"
      ],
      [
        "Ġfin",
        "ish"
      ],
      [
        "Ġdegrad",
        "ed"
      ],
      [
        "Ġble",
        "ached"
      ],
      [
        "Ġmot",
        "or"
      ],
      [
        "Ġmainten",
        "ance"
      ],
      [
        "h",
        "ib"
      ],
      [
        "i",
        "ving"
      ],
      [
        "o",
        "d"
      ],
      [
        "w",
        "are"
      ],
      [
        "Ġp",
        "ure"
      ],
      [
        "Ġm",
        "el"
      ],
      [
        "Ġm",
        "eth"
      ],
      [
        "Ġin",
        "hib"
      ],
      [
        "Ġh",
        "one"
      ],
      [
        "ro",
        "xim"
      ],
      [
        "ak",
        "er"
      ],
      [
        "Ġe",
        "mmer"
      ],
      [
        "Ġte",
        "chniqu"
      ],
      [
        "ĠA",
        "dd"
      ],
      [
        "Ġac",
        "etone"
      ],
      [
        "Ġle",
        "ss"
      ],
      [
        "Ġcon",
        "ven"
      ],
      [
        "ĠF",
        "ir"
      ],
      [
        "am",
        "ut"
      ],
      [
        "Ġn",
        "ut"
      ],
      [
        "ĠB",
        "aker"
      ],
      [
        "Ġbacter",
        "ial"
      ],
      [
        "Ġlet",
        "ter"
      ],
      [
        "ĠHand",
        "ling"
      ],
      [
        "Ġlam",
        "e"
      ],
      [
        "Ġchlor",
        "ine"
      ],
      [
        "Ġdra",
        "ft"
      ],
      [
        "Ġapp",
        "roxim"
      ],
      [
        "Ġmeth",
        "od"
      ],
      [
        "Ġinhib",
        "it"
      ],
      [
        "Ġhone",
        "y"
      ],
      [
        "Ġconven",
        "tional"
      ],
      [
        "ĠFir",
        "st"
      ],
      [
        "Ġapproxim",
        "ately"
      ],
      [
        "d",
        "iant"
      ],
      [
        "Ġt",
        "yp"
      ],
      [
        "Ġm",
        "alt"
      ],
      [
        "Ġg",
        "ood"
      ],
      [
        "id",
        "d"
      ],
      [
        "ĠH",
        "old"
      ],
      [
        "ĠF",
        "DT"
      ],
      [
        "ff",
        "icient"
      ],
      [
        "ck",
        "ing"
      ],
      [
        "Ġra",
        "diant"
      ],
      [
        "Ġsu",
        "fficient"
      ],
      [
        "Ġbl",
        "ock"
      ],
      [
        "Ġtra",
        "ck"
      ],
      [
        "ick",
        "s"
      ],
      [
        "ĠDo",
        "ing"
      ],
      [
        "Ġwee",
        "ks"
      ],
      [
        "Ġble",
        "ach"
      ],
      [
        "Ġorg",
        "anic"
      ],
      [
        "Ġbas",
        "k"
      ],
      [
        "Ġtyp",
        "ically"
      ],
      [
        "o",
        "gh"
      ],
      [
        "u",
        "ogh"
      ],
      [
        "z",
        "zy"
      ],
      [
        "Ġs",
        "ofte"
      ],
      [
        "of",
        "ess"
      ],
      [
        "Ġc",
        "akes"
      ],
      [
        "Ġp",
        "ast"
      ],
      [
        "Ġp",
        "asta"
      ],
      [
        "Ġp",
        "ockets"
      ],
      [
        "Ġg",
        "iant"
      ],
      [
        "Ġcr",
        "un"
      ],
      [
        "ap",
        "ple"
      ],
      [
        "ĠC",
        "he"
      ],
      [
        "ri",
        "es"
      ],
      [
        "Ġsc",
        "ale"
      ],
      [
        "ine",
        "apple"
      ],
      [
        "iz",
        "ed"
      ],
      [
        "ment",
        "s"
      ],
      [
        "Ġpr",
        "ofess"
      ],
      [
        "ĠCh",
        "lor"
      ],
      [
        "Ġsourd",
        "uogh"
      ],
      [
        "ĠCo",
        "il"
      ],
      [
        "Ġpast",
        "ries"
      ],
      [
        "Ġcrun",
        "ch"
      ],
      [
        "Ġprofess",
        "ion"
      ],
      [
        "d",
        "ay"
      ],
      [
        "f",
        "ts"
      ],
      [
        "Ã",
        "Ĺ"
      ],
      [
        "Ġ",
        "ÃĹ"
      ],
      [
        "er",
        "ation"
      ],
      [
        "Ġw",
        "as"
      ],
      [
        "Ġp",
        "ineapple"
      ],
      [
        "Ġl",
        "ast"
      ],
      [
        "Ġl",
        "ine"
      ],
      [
        "ra",
        "tion"
      ],
      [
        "Ġo",
        "iled"
      ],
      [
        "ac",
        "ina"
      ],
      [
        "tic",
        "les"
      ],
      [
        "Ġle",
        "aves"
      ],
      [
        "Ġbe",
        "en"
      ],
      [
        "Ġdi",
        "ff"
      ],
      [
        "Ġbl",
        "ack"
      ],
      [
        "Ġbu",
        "ffer"
      ],
      [
        "Ġpar",
        "ticles"
      ],
      [
        "Ġweight",
        "s"
      ],
      [
        "cess",
        "ary"
      ],
      [
        "Ġimp",
        "ro"
      ],
      [
        "Ġrim",
        "acina"
      ],
      [
        "Ġperson",
        "al"
      ],
      [
        "Ġne",
        "cessary"
      ],
      [
        "Ġman",
        "age"
      ],
      [
        "Ġrimacina",
        "ta"
      ],
      [
        "b",
        "ak"
      ],
      [
        "c",
        "ed"
      ],
      [
        "c",
        "hed"
      ],
      [
        "g",
        "ine"
      ],
      [
        "h",
        "ol"
      ],
      [
        "n",
        "g"
      ],
      [
        "o",
        "lyse"
      ],
      [
        "u",
        "ter"
      ],
      [
        "Ġs",
        "ave"
      ],
      [
        "Ġs",
        "ides"
      ],
      [
        "Ġf",
        "an"
      ],
      [
        "or",
        "y"
      ],
      [
        "Ġl",
        "ittle"
      ],
      [
        "Ġre",
        "lease"
      ],
      [
        "ĠH",
        "igh"
      ],
      [
        "Ġun",
        "heated"
      ],
      [
        "Ġv",
        "ia"
      ],
      [
        "Ġen",
        "gine"
      ],
      [
        "Ġmix",
        "es"
      ],
      [
        "Ġyou",
        "ng"
      ],
      [
        "Ġal",
        "co"
      ],
      [
        "ĠTemp",
        "erature"
      ],
      [
        "ĠSh",
        "ape"
      ],
      [
        "Ġsour",
        "ness"
      ],
      [
        "Ġcomp",
        "uter"
      ],
      [
        "Ġdissol",
        "v"
      ],
      [
        "ĠCon",
        "vection"
      ],
      [
        "Ġfu",
        "zzy"
      ],
      [
        "Ġbal",
        "ance"
      ],
      [
        "Ġdeter",
        "g"
      ],
      [
        "bak",
        "ed"
      ],
      [
        "Ġengine",
        "ering"
      ],
      [
        "Ġalco",
        "hol"
      ],
      [
        "p",
        "ly"
      ],
      [
        "p",
        "ur"
      ],
      [
        "p",
        "ose"
      ],
      [
        "t",
        "retch"
      ],
      [
        "Ġs",
        "im"
      ],
      [
        "Ġa",
        "par"
      ],
      [
        "er",
        "o"
      ],
      [
        "Ġf",
        "ermented"
      ],
      [
        "or",
        "s"
      ],
      [
        "Ġp",
        "ut"
      ],
      [
        "el",
        "iz"
      ],
      [
        "Ġon",
        "ce"
      ],
      [
        "am",
        "eliz"
      ],
      [
        "ĠS",
        "tretch"
      ],
      [
        "Ġ4",
        "50"
      ],
      [
        "Ġmin",
        "eral"
      ],
      [
        "Ġper",
        "form"
      ],
      [
        "Ġse",
        "par"
      ],
      [
        "Ġtur",
        "ning"
      ],
      [
        "gra",
        "de"
      ],
      [
        "Ġabsorb",
        "ing"
      ],
      [
        "Ġsafe",
        "ly"
      ],
      [
        "Ġcar",
        "ameliz"
      ],
      [
        "Ġz",
        "ero"
      ],
      [
        "ĠCr",
        "umb"
      ],
      [
        "Ġaccura",
        "tely"
      ],
      [
        "Ġbrew",
        "ing"
      ],
      [
        "Ġspecial",
        "ized"
      ],
      [
        "pur",
        "pose"
      ],
      [
        "Ġsim",
        "ulate"
      ],
      [
        "Ġapar",
        "t"
      ],
      [
        "f",
        "ree"
      ],
      [
        "i",
        "ac"
      ],
      [
        "u",
        "es"
      ],
      [
        "v",
        "iron"
      ],
      [
        "Ġc",
        "el"
      ],
      [
        "Ġin",
        "qu"
      ],
      [
        "ra",
        "te"
      ],
      [
        "Ġo",
        "d"
      ],
      [
        "ĠW",
        "W"
      ],
      [
        "Ġcon",
        "vection"
      ],
      [
        "ir",
        "ies"
      ],
      [
        "Ġad",
        "min"
      ],
      [
        "Ġen",
        "viron"
      ],
      [
        "Ġde",
        "p"
      ],
      [
        "ist",
        "ration"
      ],
      [
        "Ġ12",
        "0"
      ],
      [
        "Ġprevent",
        "ing"
      ],
      [
        "Ġflavor",
        "s"
      ],
      [
        "Ġsoft",
        "ware"
      ],
      [
        "Ġbreak",
        "down"
      ],
      [
        "Ġfe",
        "el"
      ],
      [
        "Ġrel",
        "ia"
      ],
      [
        "Ġmel",
        "ted"
      ],
      [
        "Ġcrunch",
        "y"
      ],
      [
        "Ġprofession",
        "al"
      ],
      [
        "Ġcel",
        "iac"
      ],
      [
        "Ġinqu",
        "iries"
      ],
      [
        "Ġadmin",
        "istration"
      ],
      [
        "1",
        "75"
      ],
      [
        "o",
        "h"
      ],
      [
        "er",
        "ous"
      ],
      [
        "Ġw",
        "ire"
      ],
      [
        "Ġc",
        "row"
      ],
      [
        "ac",
        "ed"
      ],
      [
        "Ġcon",
        "vert"
      ],
      [
        "ine",
        "ss"
      ],
      [
        "Ġproduc",
        "tion"
      ],
      [
        "Ġbo",
        "ard"
      ],
      [
        "Ġbr",
        "ittle"
      ],
      [
        "Ġbat",
        "ter"
      ],
      [
        "Ġindic",
        "ates"
      ],
      [
        "Ġextens",
        "ib"
      ],
      [
        "Ġfil",
        "m"
      ],
      [
        "Ġsea",
        "led"
      ],
      [
        "Ġthor",
        "oughly"
      ],
      [
        "ĠSl",
        "ide"
      ],
      [
        "Ġmulti",
        "ply"
      ],
      [
        "Ġpreser",
        "ving"
      ],
      [
        "Ġenviron",
        "ment"
      ],
      [
        "Ġextensib",
        "ility"
      ],
      [
        "c",
        "y"
      ],
      [
        "i",
        "ver"
      ],
      [
        "Ġs",
        "er"
      ],
      [
        "Ġf",
        "ail"
      ],
      [
        "Ġd",
        "on"
      ],
      [
        "Ġw",
        "rap"
      ],
      [
        "Ġthe",
        "ir"
      ],
      [
        "ar",
        "row"
      ],
      [
        "ic",
        "s"
      ],
      [
        "Ġth",
        "row"
      ],
      [
        "to",
        "re"
      ],
      [
        "enta",
        "l"
      ],
      [
        "Ġ3",
        "6"
      ],
      [
        "Ġn",
        "ight"
      ],
      [
        "Ġn",
        "arrow"
      ],
      [
        "ĠR",
        "oll"
      ],
      [
        "Ġcl",
        "oche"
      ],
      [
        "Ġmold",
        "y"
      ],
      [
        "Ġsi",
        "mple"
      ],
      [
        "Ġlam",
        "in"
      ],
      [
        "Ġbene",
        "f"
      ],
      [
        "Ġsourd",
        "oh"
      ],
      [
        "Ġbur",
        "ns"
      ],
      [
        "Ġgent",
        "ler"
      ],
      [
        "Ġtransfer",
        "ring"
      ],
      [
        "Ġproteoly",
        "sis"
      ],
      [
        "Ġchees",
        "e"
      ],
      [
        "Ġelimin",
        "ate"
      ],
      [
        "Ġcur",
        "r"
      ],
      [
        "ĠCalcul",
        "ating"
      ],
      [
        "Ġsurround",
        "ed"
      ],
      [
        "Ġtechniqu",
        "e"
      ],
      [
        "Ġcarameliz",
        "ation"
      ],
      [
        "Ġod",
        "ors"
      ],
      [
        "a",
        "h"
      ],
      [
        "b",
        "es"
      ],
      [
        "g",
        "er"
      ],
      [
        "u",
        "ss"
      ],
      [
        "Ġ",
        "U"
      ],
      [
        "en",
        "ces"
      ],
      [
        "Ġf",
        "ix"
      ],
      [
        "ter",
        "nal"
      ],
      [
        "Ġp",
        "in"
      ],
      [
        "Ġo",
        "ld"
      ],
      [
        "Ġor",
        "ange"
      ],
      [
        "ĠA",
        "sh"
      ],
      [
        "ĠT",
        "ake"
      ],
      [
        "Ġcon",
        "ta"
      ],
      [
        "ore",
        "d"
      ],
      [
        "ip",
        "per"
      ],
      [
        "ĠB",
        "l"
      ],
      [
        "Ġacid",
        "ic"
      ],
      [
        "ĠIn",
        "ternal"
      ],
      [
        "if",
        "ies"
      ],
      [
        "Ġtop",
        "ics"
      ],
      [
        "Ġretard",
        "ing"
      ],
      [
        "Ġdevelop",
        "ing"
      ],
      [
        "Ġdevelop",
        "ed"
      ],
      [
        "Ġlar",
        "ger"
      ],
      [
        "Ġmicro",
        "bes"
      ],
      [
        "Ġneed",
        "ed"
      ],
      [
        "ĠSti",
        "ff"
      ],
      [
        "Ġens",
        "uring"
      ],
      [
        "Ġdisc",
        "uss"
      ],
      [
        "Ġthor",
        "ough"
      ],
      [
        "Ġsubs",
        "tan"
      ],
      [
        "ah",
        "m"
      ],
      [
        "1",
        "65"
      ],
      [
        "b",
        "ed"
      ],
      [
        "e",
        "ase"
      ],
      [
        "g",
        "ital"
      ],
      [
        "l",
        "ic"
      ],
      [
        "m",
        "ary"
      ],
      [
        "n",
        "utrients"
      ],
      [
        "o",
        "ak"
      ],
      [
        "en",
        "et"
      ],
      [
        "ou",
        "x"
      ],
      [
        "er",
        "bs"
      ],
      [
        "Ġp",
        "enet"
      ],
      [
        "Ġm",
        "idd"
      ],
      [
        "Ġh",
        "erbs"
      ],
      [
        "id",
        "ual"
      ],
      [
        "ac",
        "id"
      ],
      [
        "Ġr",
        "oux"
      ],
      [
        "et",
        "y"
      ],
      [
        "Ġth",
        "aw"
      ],
      [
        "ur",
        "bed"
      ],
      [
        "ĠA",
        "P"
      ],
      [
        "ust",
        "ri"
      ],
      [
        "ĠS",
        "oak"
      ],
      [
        "Ġby",
        "produc"
      ],
      [
        "Ġli",
        "ving"
      ],
      [
        "Ġdi",
        "gital"
      ],
      [
        "Ġsl",
        "ide"
      ],
      [
        "Ġdis",
        "ease"
      ],
      [
        "Ġde",
        "ta"
      ],
      [
        "Ġpan",
        "s"
      ],
      [
        "ine",
        "gar"
      ],
      [
        "ist",
        "urbed"
      ],
      [
        "os",
        "ing"
      ],
      [
        "Ġup",
        "ward"
      ],
      [
        "Ġproduc",
        "ed"
      ],
      [
        "Ġcons",
        "isten"
      ],
      [
        "Ġrefrig",
        "erate"
      ],
      [
        "Ġind",
        "ustri"
      ],
      [
        "Ġsaf",
        "ety"
      ],
      [
        "Ġpull",
        "ing"
      ],
      [
        "ort",
        "less"
      ],
      [
        "Ġres",
        "idual"
      ],
      [
        "Ġindic",
        "ate"
      ],
      [
        "Ġslic",
        "ing"
      ],
      [
        "Ġslic",
        "ed"
      ],
      [
        "Ġleav",
        "ening"
      ],
      [
        "Ġgen",
        "eral"
      ],
      [
        "Ġfing",
        "ers"
      ],
      [
        "Ġtri",
        "p"
      ],
      [
        "Ġ32",
        "5"
      ],
      [
        "Ġgent",
        "le"
      ],
      [
        "iv",
        "es"
      ],
      [
        "Ġculture",
        "s"
      ],
      [
        "Ġeff",
        "ortless"
      ],
      [
        "Ġlif",
        "ting"
      ],
      [
        "Ġund",
        "isturbed"
      ],
      [
        "hydra",
        "tion"
      ],
      [
        "Ġrose",
        "mary"
      ],
      [
        "ĠAdd",
        "ing"
      ],
      [
        "Ġsufficient",
        "ly"
      ],
      [
        "Ġsofte",
        "ns"
      ],
      [
        "Ġsubstan",
        "ces"
      ],
      [
        "Ġpenet",
        "rate"
      ],
      [
        "Ġmidd",
        "le"
      ],
      [
        "Ġconsisten",
        "cy"
      ],
      [
        "Ġindustri",
        "al"
      ],
      [
        "d",
        "icta"
      ],
      [
        "s",
        "lic"
      ],
      [
        "u",
        "dd"
      ],
      [
        "w",
        "age"
      ],
      [
        "te",
        "ns"
      ],
      [
        "Ġa",
        "eration"
      ],
      [
        "Ġw",
        "aste"
      ],
      [
        "nd",
        "s"
      ],
      [
        "our",
        "ish"
      ],
      [
        "le",
        "as"
      ],
      [
        "Ġp",
        "udd"
      ],
      [
        "Ġp",
        "leas"
      ],
      [
        "Ġh",
        "us"
      ],
      [
        "an",
        "iti"
      ],
      [
        "us",
        "tic"
      ],
      [
        "Ġ2",
        "3"
      ],
      [
        "Ġr",
        "ustic"
      ],
      [
        "Ġco",
        "mm"
      ],
      [
        "Ġy",
        "ellow"
      ],
      [
        "to",
        "tal"
      ],
      [
        "Ġsh",
        "ort"
      ],
      [
        "Ġst",
        "re"
      ],
      [
        "ĠS",
        "tore"
      ],
      [
        "Ġn",
        "ourish"
      ],
      [
        "Ġsp",
        "aced"
      ],
      [
        "Ġun",
        "fermented"
      ],
      [
        "Ġcrust",
        "s"
      ],
      [
        "Ġex",
        "act"
      ],
      [
        "ver",
        "ns"
      ],
      [
        "Ġpre",
        "dicta"
      ],
      [
        "Ġacid",
        "s"
      ],
      [
        "Ġse",
        "wage"
      ],
      [
        "ĠR",
        "est"
      ],
      [
        "ĠTh",
        "en"
      ],
      [
        "ĠK",
        "ahm"
      ],
      [
        "Ġres",
        "ul"
      ],
      [
        "Ġstra",
        "nds"
      ],
      [
        "Ġrest",
        "ric"
      ],
      [
        "oss",
        "ible"
      ],
      [
        "Ġsample",
        "s"
      ],
      [
        "Ġpack",
        "ed"
      ],
      [
        "Ġremain",
        "der"
      ],
      [
        "Ġsuppress",
        "es"
      ],
      [
        "Ġrich",
        "er"
      ],
      [
        "ital",
        "izes"
      ],
      [
        "Ġrev",
        "italizes"
      ],
      [
        "Ġgram",
        "s"
      ],
      [
        "Ġcomb",
        "ination"
      ],
      [
        "Ġgo",
        "verns"
      ],
      [
        "Ġrun",
        "ning"
      ],
      [
        "Ġstir",
        "red"
[...]
